#version: 0.2
Ġ k
h a
Ġ t
Ġ a
Ġ s
Ġ b
h i
č Ċ
Ġ m
i n
a r
Ġ h
Ġ p
Ġ n
Ġ ha
Ġ d
h e
a n
Ġ l
e r
o n
Ġ c
a t
i s
Ġ w
ð Ł
. .
Ġ r
y a
Ġha i
a l
Ġt o
Ġ j
Ġ g
e n
o r
y e
Ġ f
i t
Ġh o
e s
Ġk a
Ġn a
u r
Ġs a
u s
t a
ðŁ ĺ
a s
Ġt he
Ġk ar
u n
Ġm e
Ġk i
c h
l e
Ġk o
in g
a d
u m
Ġ o
Ġs e
r e
Ġ in
t i
Ġ e
a m
t e
k e
Ġ hi
n e
Ġk e
h o
i l
Ġa n
Ġd e
Ġb a
u t
Ġ is
Ġna hi
Ġr a
o l
a y
Ġb hi
Ġl i
Ġm a
i r
Ġa a
n a
g a
o m
Ġt ha
Ġ v
Ġl o
Ġj a
Ġ y
Ġ i
Ġc ha
Ġb e
u ch
i c
v e
Ġan d
o u
Ġr e
g e
Ġ ye
Ġa p
Ġo f
d i
.. .
e e
is e
Ġh e
Ġd i
Ġ ðŁĺ
a k
Ġ us
l y
a b
Ġp r
Ġ it
ha n
m e
Ġn e
Ġa b
Ġt hi
Ġa ur
o t
s e
en t
Ġk ya
ha r
l l
Ġk uch
at i
o w
u j
Ġl a
Ġk r
Ġl e
i d
Ġp e
Ġ ðŁ
ha i
Ġn hi
Ġ on
er e
Ġg a
c e
u l
Ġy ou
t er
Ġf or
Ġd o
at e
Ġa c
Ġt um
Ġ ya
l i
s t
k o
at a
k h
Ġto h
uj he
Ġ un
u p
Ġho ta
Ġs t
an d
Ġh u
Ġp ar
Ġlo g
Ġli ye
Ġs o
l a
r a
Ġ 1
Ġb ol
v er
Ġ K
ðŁĺ Ĥ
Ġp a
Ġ A
o d
Ġ or
on e
Ġha in
Ġsa b
Ġ S
k a
Ġj o
Ġaa p
k i
Ġ I
e d
r i
u d
Ġme in
Ġe k
Ġh um
g i
Ġw o
ar e
Ġka b
Ġko i
g h
Ġb hai
Ġt e
an a
es s
m a
o p
es t
Ġ 2
Ġ B
c t
a p
Ġb ut
en d
c k
Ġ T
Ġ M
ati on
hi r
is t
Ġa s
Ġtha t
ðŁ ¤
Ġap ne
d a
Ġw al
Ġm o
Ġga ya
ti on
Ġc on
er s
Ġk y
Ġg o
Ġa re
Ġthi s
at h
Ġm ujhe
Ġn i
o ur
Ġra ha
n i
p e
? ?
Ġw a
Ġma in
it h
Ġc om
t s
Ġ H
c ha
.. ..
o s
Ġw e
Ġt w
us t
' s
Ġb ad
Ġt i
Ġt r
a h
Ġra he
Ġc h
Ġ P
Ġn ot
il l
Ġp hir
Ġk is
q u
he r
! !
Ġ ,
Ġw ith
Ġs ha
Ġm ere
l o
hi ye
Ġm at
Ġs ir
er i
t h
ĠðŁĺ Ĥ
Ġma i
Ġe x
Ġ .
Ġba at
hi n
Ġb an
m p
Ġki ya
Ġk h
k ha
Ġn o
Ġw as
ha t
w a
Ġm il
Ġ z
Ġf a
Ġka ise
Ġa l
Ġs ho
m ent
Ġa t
gh t
l d
Ġcha hiye
Ġde kh
Ġa ll
r o
ee t
Ġa g
j a
e t
Ġkab hi
Ġk ha
Ġla g
di a
0 0
Ġd on
Ġm y
n d
ðŁĺ Ń
Ġha r
Ġp l
or e
u b
Ġli ke
Ġb o
Ġaa j
Ġm an
i on
Ġf r
Ġho ga
' t
Ġt u
he n
in d
as e
Ġ D
Ġti me
Ġt ak
ar i
ar a
Ġab hi
r y
Ġj i
er a
an t
as t
it y
on g
ðŁ¤ £
in e
is a
Ġpr o
Ġ up
en ge
Ġ C
Ġa ise
Ġw or
Ġha ve
or t
c he
am p
ðŁĺĤ ðŁĺĤ
p p
Ġ u
Ġp o
al ly
Ġt a
Ġc an
an e
Ġ R
al i
Ġ N
ur e
Ġw ill
Ġk han
Ġr o
Ġy our
as s
m an
h y
Ġt ho
Ġ -
Ġc ho
Ġv o
Ġthe y
Ġp ad
Ġb i
Ġ qu
ar d
Ġsa k
ay i
Ġ G
an s
Ġye h
d e
Ġd in
v i
Ġkar o
Ġdi ya
Ġhu a
Ġp ata
id e
om e
ol l
Ġhi s
o un
k ar
ic e
Ġkis i
Ġh one
Ġsa hi
is h
f e
Ġ ..
Ġ 3
Ġ &
Ġfr om
Ġf ir
s a
Ġd il
Ġh on
n ow
te d
d ay
hin g
es h
Ġus ke
Ġs i
ist an
o k
ðŁ Ļ
Ġ W
t y
Ġm ar
c i
Ġ J
Ġ en
a c
Ġsa m
n k
h le
a j
Ġp ak
Ġha s
h ut
a i
Ġa m
â Ŀ
am e
u e
Ġ ?
Ġra hi
ur u
le ase
o ut
en a
Ġky un
t o
Ġs up
ĠðŁ Ļ
Ġh er
Ġ L
Ġw ho
Ġj ust
b le
Ġ um
Ġb y
Ġa d
Ġ (
al l
Ġha m
Ġv i
Ġr ha
Ġk now
Ġkar te
Ġja b
Ġlo ve
Ġlog o
Ġsa y
Ġon e
Ġb as
ĠðŁ ¤
Ġs p
âĿ ¤
Ġja ye
Ġka m
Ġtw eet
Ġs he
Ġp er
Ġo ut
Ġkar na
d er
Ġkar ne
en e
Ġb ha
Ġkar e
an g
Ġk al
Ġin dia
Ġa r
Ġcha l
j i
Ġkh ud
Ġb ar
Ġhi m
v en
Ġb at
Ġg ayi
f f
k in
o us
s i
Ġs ath
Ġd a
Ġc he
Ġsho w
ĠðŁĺ Ń
s o
Ġit na
Ġag ar
Ġr i
a g
ðŁ Ĵ
Ġky u
ver y
en ce
Ġw hat
Ġ 5
Ġg i
Ġc r
Ġcha n
i le
Ġr es
m o
Ġba ad
k al
an i
Ġac c
us e
Ġs un
ya ar
Ġk it
Ġs al
p ort
re e
Ġ ...
ee d
ay s
Ġwo h
ar t
r ess
oll ow
Ġse e
Ġna i
Ġ :
Ġan y
Ġne w
Ġi f
Ġum ar
Ġs h
Ġsir f
Ġl ad
Ġ 4
e w
op le
Ġn ow
Ġt ere
Ġwal e
Ġab out
Ġa f
Ġ U
Ġwal a
h r
Ġr he
b er
Ġb ana
t ing
Ġ2 0
Ġla ga
Ġs c
Ġre h
Ġ Y
un d
Ġp lease
ati k
ðŁĺŃ ðŁĺŃ
Ġg al
ya da
Ġg u
m i
oun t
Ġg et
Ġus e
Ġm era
Ġhi nd
Ġgo od
Ġs ome
Ġho ti
Ġka ha
k s
Ġpe ople
Ġb ata
Ġde k
us h
Ġbol a
Ġba hut
Ġt ab
t her
Ġon ly
Ġc hi
b a
Ġf ollow
ðŁ¤£ ðŁ¤£
j h
Ġcom p
Ġe very
Ġ 0
Ġo ur
Ġka am
Ġt ar
ee l
c tion
Ġj an
Ġof f
b hai
Ġmo di
Ġkar an
Ġpe hle
Ġap ni
Â ©
Ġb and
Ġ F
Ġba ar
Ġd esh
Ġ1 0
es e
Ġpak istan
al a
Ġte am
ur a
Ġm eri
Ġg har
Ġha pp
Ġb har
Ġm ore
Ġthe m
Ġle kin
Ġa ga
Ġc o
b e
Ġg ya
Ġp yaar
u k
Ġk he
p a
ho t
Ġf i
i m
Ġthi nk
as h
y s
Ġbe c
Ġin s
Ġa isa
Ġ E
ou ld
ðŁ ¥
Ġis s
Ġp ass
Ġp ol
ke t
Ġye ar
Ġga ye
it e
Ġin ke
Ġt ujhe
Ġho te
Ġthe ir
ri end
s h
Ġkar ta
Ġp as
Ġho w
Ġj is
Ġdi kha
Ġac cha
Ġpr atik
Ġtum he
ðŁ ı
k ing
Ġg r
Ġka un
a hi
Ġli fe
Ġsup port
Ġc l
Ġaga in
Ġ ut
Ġf eel
Ġw hen
e k
it ter
ðŁ ĳ
l f
g n
Ġre p
Ġke h
Ġja ise
Ġna am
Ġap na
n g
Ġja a
Ġp ic
ðŁĻ ı
Ġpl ay
Ġe ven
Ġd ay
Ġ O
Ġm us
Ġcon t
Ġsa al
Ġm in
it i
Ġlag ta
Ġi d
Ġya ar
ĠðŁ Ĵ
n ing
Ġs u
Ġba ck
s hi
in a
Ġap p
Ġsa ath
ĠK han
t u
Ġw hi
Ġli ya
Ġdi d
er y
il y
o od
e p
or y
Ġch u
Ġto o
Ġra at
Ġo p
ch o
Ġb h
j p
ad i
is s
m y
r an
Ġg uru
o g
Ġsa are
t he
o h
Ġs hi
e l
Ġh y
Ġs b
j e
Ġthe n
le d
ha ha
y i
d o
Ġd is
Ġb l
a f
Ġo ther
n o
Ġsa ma
Ġsak ta
Ġw hy
Ġt h
Ġs m
Ġsa me
Ġb est
Ġthe re
ers on
Ġf riend
f ul
ye ga
i ya
Ġ es
Ġs ar
is i
Ġni kal
Ġm ad
Ġsa id
Ġs k
Ġal so
Ġj ata
Ġus ko
a use
ĠI n
Ġqu e
re at
Ġd r
t w
m s
a z
Ġex p
ate d
m it
Ġun ke
b hi
Ġf am
Ġn eed
Ġhe l
Ġre al
f or
Ġb r
al e
Ġo ver
Ġ 9
v es
Ġb he
Ġhind u
ul d
Ġ 7
ab hi
Ġin ter
v ing
ad a
as on
Ġki a
ĠðŁ ĳ
Ġ q
Ġp erson
u te
Ġd ena
Ġp ta
or i
Ġmat ch
Ġw ant
Ġv ide
Ġbad i
Ġkr o
Ġm ile
Ġac ha
Ġhon a
Ġso ch
v a
w ays
Ġr hi
ar y
Ġb us
Ġdon o
Ġit s
Ġhel p
on d
Ġde te
Ġsak te
Ġmain e
an ce
Ġw at
Ġ 6
c hi
Ġnahi n
o o
g g
Ķ ¥
Ġsho uld
Ġk on
Ġd un
Ġp re
r ong
b i
f t
Ġ 8
h um
Y e
h one
i ye
Ġf ar
Ġaf ter
Ġs ub
Ġtw itter
Ġmo vi
Ġh un
ur i
Ġg ame
Ġc ol
ti c
Ġt ra
a a
Ġ !
Ġme i
ta in
Ġ V
he re
ĠðŁĺĤ ðŁĺĤ
p l
os s
j o
Ġm uch
Ġte ja
li ye
Ġt al
â Ļ
Ġde kha
a ise
Ġtha nk
Ġpo st
Ġl ast
Ġd u
pe ct
Ġi m
Ġha d
Ġb ir
l ab
s ir
Ġf ans
Ġaa ya
Ġd us
Ġkhe l
Ġd ar
a ge
ent s
Ġb jp
Ġgal at
ow n
Ġin di
g ar
Ġd es
Ġun der
in t
B hai
z a
hi s
Ġg ir
ĠðŁĻ ı
ul t
en s
Ġe l
x t
Ġit ni
Ġwal i
r at
Ġv ery
Ġm u
ve l
Ġtha n
a ch
ti ya
ti ll
ĠðŁ¤ £
Ġya ad
in da
l ic
Ġpar ty
Ġac che
ha l
Ġm ay
Ġra kh
Ġm on
Ġj al
Ġpro ble
Ġs ing
Ġtr end
Ġw ould
t um
or d
on a
Ġthi ng
Ġho gi
Ġw in
Ġvide o
?? ?
s s
d u
Ġb c
Ġf an
Ġde c
Ġcha h
Ġm as
Ġri ght
o c
Ġ ur
Ġi mp
ke d
Ġal ways
Ġkar ke
Ġa j
Ġs id
Ġlo ok
2 0
it ic
har a
Ġb u
Ġwor ld
Ġbec ause
har i
Ġm uj
a ct
Ġkr na
Ġs ong
it ion
ic ket
Ġbe en
Ġcom ment
Ġf in
Ġus ka
Ġj yada
ðŁ ĩ
ðŁı »
Ġj eet
Ġs eri
Ġvo te
Ġa ata
d ar
Ġa la
Ġkr te
Ġw ay
Ġse c
Ġbe t
Ġbe e
Ġcon g
Ġra h
han t
ĠðŁ ¥
Ġk k
li m
Ġya ha
Ġdo es
Ġde ta
Ġja o
Ġst op
ee k
Ġj ay
Ġma ke
Ġb ro
w e
' m
ot her
Ġfir st
re ad
or s
Ġp os
Ġte mp
Ġ '
ud e
g al
Ġra k
Ġagain st
Ġs till
Ġun he
Ġkr ne
Ġs y
n y
Ġb b
Ġp m
Ġs pe
y an
Ġto day
Ġrep ly
Ġhapp y
.. ...
a in
th day
j ab
p t
m es
Ġc ount
Ġna me
Ġex am
Ġmovi e
Â ®
Ġproble m
!! !
z e
t r
Ġre c
Ġjaye ga
Ġm re
Ġw ere
ha re
Ġb s
ĠðŁĺĤ ðŁĺĤðŁĺĤ
Ġne ver
ation s
Ġfam ily
se d
Ġj it
Ġc e
am a
f i
Ġst art
Ġta ke
le ction
Ġw ar
Ġnew s
e ga
Ġb lo
ar o
y ar
l ine
m ujhe
Ġh ere
Ġ1 00
Ġa w
k uch
m at
is ter
Ġdi kh
m ber
Ġaa ye
Ġho on
Ġbee ch
ci al
u ck
Ġc all
s ha
ta m
Ġchan ge
Ġto u
Ġin c
Ġba ap
Ġdek ho
Ġs har
Ġre ally
v t
re d
Ġc or
k ya
Ġ ....
A R
â Ģ
Ġtw ee
Ġsal man
Ġthe se
u ll
Ġmat lab
ab le
Ġcha le
ur n
ha b
Ġhu i
Ġc ap
Ġaap ko
Ġa ch
Ġf ree
Ġs ta
or ry
Ġwa it
p s
Ġf il
Ġm i
Ġp at
t hing
Ġdo st
a aj
Ġpr i
Ġya hi
v o
ha m
Ġme dia
Ġkit na
Ġhu e
Ġbir thday
Ġlad ki
c y
Ġmo st
Ġg e
n er
a ya
Ġwe ll
Ġtr y
Ġcha la
ve d
Ġja an
Ġb ot
Ġl g
Ġto p
Ġl ena
Ġbe ing
âĢ į
Ġw ind
Ġit ne
od e
Ġfa v
Ġde f
Ġcon f
or a
Ġis liye
Ġbol o
b o
a ur
Ġ âĿ¤
Ġs w
Ġg ot
d s
Ġfa ke
Ġlog on
Ġw eek
H a
Ġk har
Ġus ki
b s
Ġst ar
Ġmil a
al s
A N
u g
Ġle ad
ub lic
Ġwor k
ma g
Ġbet ter
Ġe t
Ġ20 2
es ha
Ġk ho
Ġsama jh
Ġp i
Ġwhi ch
w al
un ga
p er
Ġh m
k y
¸ ı
ï ¸ı
ðŁ Ķ¥
â ľ
Ġj e
g o
Ġle t
Ġtar ah
p r
Ġc le
Ġs ur
Ġkar ti
Ġf e
n t
Ġ ??
Ġre ad
h u
Ġla ge
Ġs ol
Ġt eri
w an
ĠT e
Ġe p
Ġha nd
Ġp ay
Ġja ga
Ġl ist
Ġacc ount
Ġman y
Ġbi g
le te
Ġtwee ts
Ġdon t
i k
Ġli kh
Ġsa ch
Ġde l
m in
se lf
Ġt era
a ce
Ġt as
Ġne xt
g r
ge t
Ġyear s
Ġcho ta
Ġpol itic
am ne
Ġm en
cho ol
Ġg en
Ġsam j
Ġm or
p o
Ġ end
Ġcom m
Ġba har
c c
k ul
Ġo k
Ġg od
Ġkr ta
Ġre l
Ġpr om
Ġbo le
ðŁ¥ º
l ess
ti ce
Ġpa as
Ġcom e
r it
Ġm iss
ct or
a ap
, ,
Ġa k
Ġpa ise
g t
re ak
Ġm t
Ġala g
ff er
Ġn um
Ġgo vt
Ġindi an
Ġw on
ak i
Ġke ep
tion s
Ġho pe
Ġta g
Ġcl ass
Ġtho da
Ġbe hen
Ġv ir
âĢį âĻ
Ġpl z
Ġc are
Ġst and
ter s
Ġbol te
z ar
Ġk hi
Ġap ko
Ġg ye
Ġus se
Ġun ko
t en
Ġk er
ar ur
Ġst ud
Ġs uch
ĠT he
Ġli ve
Ġd own
is m
Ġp ho
Ġtho u
Ġk re
il kul
b ut
Ġp an
Ġkha tam
Ġd al
Ġcong ress
inda gi
ou gh
Ġst ate
Ġc al
ow er
Ġle te
Ġsa amne
Ġm om
Ġkar enge
un e
Ġg reat
Ġsa f
b r
ĠH um
Ġkab ar
Ġb ina
ya d
ver s
Ġt er
Ġche e
h li
Ġ !!
Ġt y
Ġp ublic
Ġbha g
ji ye
Ġsa d
Ġe v
ad e
Ġj ee
Ġgi ve
Ġtum hare
Ġbo hot
Ġc ar
Ġba b
Ġb ta
Ġacc hi
ic al
Ġgo ing
Ġba ch
al man
ak istan
Ġme an
Ġw it
Ġmus lim
Ġgir l
Ġs chool
shi p
li e
l am
Ġpar t
a u
Ġp ura
Ġne hi
er v
Ġa u
Ġn ation
Ġma a
Ġp la
Ġc ase
ver n
Ġz yada
Ġj ana
Ġg and
Ġwa ise
Ġaa ge
Ġac t
mit a
od y
h n
Ġcount ry
ut h
Ġa ati
ro und
Ġc our
r ic
Ġ $
Ġse ason
m ar
Ġus ne
ti ve
Ġa ad
Ġba ki
at ing
Ġjan ta
Ġmon th
Ġbad a
Ġch or
ye s
c es
c on
ĠM o
Ġgu ys
Ġhon ge
Ġjaga h
Ġb ho
I N
Ġpol ice
r es
Ġd enge
ati ve
Ġad d
Ġw an
Ġa ya
Ġn h
Ġkh ush
Ġha wa
st and
Ġvi ew
id a
Ġin ko
k es
Ġe lection
f ic
Ġha y
Ġra in
w n
Ġ ud
Ġj in
Ġdun iya
f a
Ġ1 2
p ar
ou p
l es
Ġv is
Ġma ar
Ġs orry
Ġblo ck
Ġd ene
re am
Ġba cha
Ġep is
Ġl it
Ġaap ke
Ġhe in
Ġm ana
Ġqu es
Ġpa isa
Ġp ee
Ġcle ar
Ġj ate
Ġ20 1
Ġwal o
Ġthi k
Ġkuch h
Ġna a
Ġop en
Ġsab se
h h
Ġ1 5
ĠK ar
Ġf un
Ġce le
Ġpas and
Ġte ll
_ _
Ġjo b
Ġs en
it u
Ġd har
Ġg ha
Ġac hi
Ġp uch
ne l
Ġst rong
Ġs in
Ġf l
ĠðŁĻ Ĥ
Ġw here
Ġsam jh
Ġham are
Ġt ri
Ġb are
f ore
Ġkare ga
Ġy r
Ġsar kar
Ġpad h
Ġd ays
Ġs ide
Ġja i
Ġdo ing
Ġgo vern
ðŁĺ į
ous ly
H A
i f
Ġwa hi
Ġnum ber
Ġm is
Ġl ol
Ġkit ne
Ġmad e
Ġb ura
Ġsay ing
Ġcr icket
Ġs us
o se
Ġd ur
Ġt hr
m m
g l
Ġfa ce
Ġche ck
Ġhum e
it s
Ġ ent
Ġres pect
Ġb oss
Ġs om
Ġcho ti
Ġm um
Ġdekh na
at her
Ġdi ye
Ġp un
ye h
Ġj ati
Ġka han
Ġf ull
w ar
Ġp ur
ap p
Ġp hone
Ġt k
Ġdi a
ĠY e
Ġw rong
E R
Ġp ower
Ġr un
Ġwat ch
Ġpro f
Ġjal di
on s
Ġdi ffer
Ġhi gh
Ġg ur
Ġha te
Ġkh us
Ġw ish
Ġki ye
t ra
ti v
Ġv e
Ġut ha
one y
Ġni ght
w as
in ess
Ġye s
ðŁ Į
Ġpl an
for m
Ġg yi
Ġe mo
Ġka hi
read y
sa an
Ġmor ning
Ġis ko
Ġall ah
ou d
han k
T um
Ġr u
Ġra ho
al ity
Ġv ac
Ġp yar
Ġd one
Ġpho to
Ġin v
Ġbol na
i a
Ġc ould
Ġ Â®
Ġbh t
Ġw ap
Ġpr op
ho ut
M ujhe
Ġb ul
Ġpr es
Ġ1 1
Ġbol ne
Ġunder stand
Ġsome one
Ġra j
ag ar
Ġpl s
ul ar
Ġcha r
et hing
ha an
Ġm al
s ab
Ġtr ue
Ġa ate
m ere
Ġv a
je ct
li gi
ic k
Ġsab ko
c ted
Ġst ory
Ġis ka
Ġre ason
Ġl ong
o gi
ing s
m b
Ġa ye
Ġmile ga
Ġgovern ment
i g
Ġya han
Ġfa ct
y ou
Ġma j
re ct
w ali
Ġwa q
an k
Ġup ar
Ġchan nel
Ġm ind
ll ah
l b
c le
Ġbe fore
ee b
ĠD e
Ġw om
Ġri az
S ir
Ġbh ul
Ġr am
w ab
Ġl ine
Ġa ta
Ġepis ode
Ġch up
Ġle vel
Ġla w
s p
1 5
ĠIn dia
I n
ĠA ur
Ġsha re
Ġpo int
Ġtho se
Ġsom ething
Ġba k
ðŁĻı ðŁĻı
Ġkhar ab
Ġi gn
ĠI s
Ġwa j
Ġtas k
at es
Ġac tu
Ġfriend s
Ġn or
Ġhe art
Ġz indagi
Ġal ready
Ġsh uru
Ġs s
ĠH e
* *
Ġ1 9
Ġba c
Ġbo ok
p ne
Ġy ar
r or
t his
Ġj ud
me d
ic i
Ġin to
g er
Ġs ure
Ġm oney
ur s
Ġs on
ĠðŁĺŃ ðŁĺŃ
ðŁĺ ħ
Ġe ar
ĠðŁĺŃ ðŁĺŃðŁĺŃ
Ġo wn
ard s
Ġchee z
j u
ĠI t
ðŁ İ
Ġbot h
Ġja isa
Ġo pp
is hant
ĠðŁĺ ħ
Ġevery one
m al
Ġsak ti
Ġdel hi
Ġj us
h t
lo g
Ġl ak
Ġtum hari
00 0
ye d
Ġag r
c hing
Ġb reak
ðŁĺ ģ
Ġli kha
Ġc ent
Ġ il
Ġdes er
Ġprom o
Ġbe lie
Ġd h
Ġni k
Ġfil m
Ġus s
iti es
Ġdekh ne
Ġmin ister
ko i
Ġdus re
3 0
un gi
m ir
Ġda al
Ġfi ght
A re
Ġle ke
Ġj b
Ġa ane
Ġsha me
Ġcap tain
Ġga i
Ġra kha
ĠK uch
Ġki dar
Ġs at
Ġas im
Ġsha mita
si ble
r u
ne d
Ġaap ne
a v
Ġk ing
y o
ĠB hai
Ġmu h
Ġe d
Ġt m
Ġj arur
ce pt
Ġse t
Ġt est
Ġre ligi
Ġthing s
Ġm ess
p h
Ġma an
Ġb ra
Ġbe ta
ere d
w ay
Ġd um
id ent
T he
Ġfollow ers
Ġgal ti
Ġpa hle
it na
Ġb t
1 0
Ġdi k
Ġbata o
Ġk m
ha d
Ġthe ek
b ar
Ġd m
Ġn ee
Ġpe h
Ġw ha
ĠM e
Ġwit hout
Ġh n
es a
Ġs an
Ġchu tiya
' re
ĠðŁ¥ º
t le
Ġhapp en
Ġhe ar
w ood
Ġi de
m as
Ġl in
Ġpa pa
Ġb ilkul
w o
Ġd ou
an y
Ġa ir
Ġcho ice
hi t
ap ne
Ġcal led
ĠB ut
ĠðŁ Į
Ġkar a
er o
ub e
Ġhar d
Ġs are
v id
che s
Ġd en
Ġmil ta
Ġch ho
Ġtho di
o i
Ġkar wa
i ve
ĠðŁĺ į
ĠK a
ma z
Ġa li
Ġis se
Ġex c
Ġwaj ah
Ġham esha
Ġin f
e x
Ġb n
Ġne g
ĠH ai
b ha
c o
Ġm am
Ġin d
Ġwaq t
Ġl ene
Ġim ran
Ġis ke
Ġg ar
Ġ ir
Ġb or
Ġb na
Ġun ki
p or
Ġp uri
Ġdid n
ĠMo di
vi ew
Ġun ka
Ġthank s
Ġm m
Ġwa ha
Ġt une
i ght
al th
ĠP akistan
gh ts
Ġcho d
o f
Ġvi a
m er
Ġmodi ji
Ġm s
ĠT um
Ġtum hara
c er
Ġg ad
Ġbad e
Ġp ure
Ġg ali
ess ion
Ġba it
Ġac tion
Ġha l
Ġp al
Ġin saan
it al
ĠðŁĺ ģ
Ġsha yad
Ġo ld
Ġn y
Ġt v
Ġat ta
Ġha ra
Ġbo y
Ġtw o
Ġka h
p hir
Ġro ad
Ġc as
Ġja ate
Ġc ry
Ġ3 0
Ġques tion
Ġan s
z z
ðŁĺ ¡
Ġaa yega
Ġsam ne
it a
Ġho me
Ġb la
Ġg ol
Ġjo in
ĠI m
Ġs l
Ġbol ta
Ġdi mag
ðŁĻ Ĥ
âĿ¤ âĿ¤
Ġpa gal
Ġm ust
Ġe ver
jo y
Ġaap ki
ĠðŁ Ķ¥
Ġka y
u tion
Ġv al
ĠM a
ðŁĺĤðŁĺĤ ðŁĺĤ
ma in
Ġb al
Ġcon s
Ġbhar at
Ġa ge
ti m
Ġme d
ĠðŁĻ Ħ
l ing
Ġc ute
Ġimp ort
Ġc re
Ġsaf ed
Ġcol le
Ġpad ta
Ġkhi la
Ġb hut
Ġd am
Ġ202 1
fe ct
od u
Ġh ur
Ġjaa ye
Ġf al
Ġt ara
Ġre qu
Ġbhe j
Ġsama j
Ġf ew
Ġc ard
Ġkhus hi
Ġa isi
Ġdoes n
ðŁĴ Ķ
Ġre g
Ġp ut
ĠA b
it ed
n ess
Ġsk ta
ĠS ha
Ġn d
Ġ x
Ġde ti
Ġet c
ab e
ĠH ind
Ġun i
âĻ ¥
and om
Ġar my
Ġse lf
K uch
; &
I t
Ġlo t
Ġde ga
Ġm and
ya l
Ģ ï¸ı
âĢįâĻ Ģï¸ı
ya m
g han
Ġk at
Ġa ik
Ġdi wali
Ġhi st
Ġm ene
ĠY ou
ly wood
Ġcele br
Ġchi ll
Ġsha di
Ġt b
Ġn ar
Ġjit na
I s
Ġpad ega
Ġsay s
Ġho use
Ġl ga
Ġcha iye
Ġget ting
n ot
Ġde p
Ġbi gg
Ġa mp
Ġk u
Ġmat ter
Ġcha he
Ġf o
Ġf ut
u es
um ar
Ġma k
ĠP r
Ġa ayi
Ġha n
Ġdis c
Ġon line
Ġnot hing
Ġwar na
Ġk ut
a ye
Ġw i
Ġn g
Ġba are
af i
Ġchale ga
Ġign ore
Ġ est
Ġla gi
Ġy out
ĠJ o
A T
' ll
Ġactu ally
Ġfor e
Ġevery thing
Ġc ur
Ġhi t
is ion
on t
Ġvac c
Ġtr oll
Ġsta y
Ġc up
f y
Ġwor ds
ĠK ya
Ġmuj h
Ġany thing
Ġreh ta
i i
end ra
k abhi
H I
ĠA nd
Ġ /
au ti
H e
Ġap ke
Ġgen er
Ġk ind
la in
Ġ5 0
Ġad v
Ġbar o
Ġa ke
â ĺ
s he
Ġl y
Ġb ow
ens ion
Ġj ane
Ġwor d
na hi
Ġlg ta
Ġgha tiya
J P
Ġkyu ki
Ġsing le
Ġc op
re en
w hat
Ġdekh te
Ġplay er
Ġfa il
Ġg l
i gn
Ġthou ght
O N
Ġbad al
Ġm ul
e en
Ġl uck
Ġd ho
tr ol
Ġkit ni
z i
Ġplay ers
ĠH o
me mber
Ġj ho
ðŁĻ Ħ
Ġcomp lete
Ġsing h
Ġhe y
Ġre f
c om
k r
or ity
Ġkr ti
Ġdo ctor
K ya
Ġbelie ve
Ġsc ene
Ġha ar
Ġen joy
Ġso cial
Ġres p
Ġsa hab
Ġaap ka
Ġac he
Ġky o
N o
g u
ay enge
Ġba aki
Ġfut ure
auti ful
act ly
Ġchal ta
w er
Ġta x
t t
an o
k t
ra c
Ġsun a
ol og
Ġhum are
Ġle ta
Ġh pa
Ġna zar
Ġhi n
Ġpa per
Ġha th
Ġl ar
ist s
ĠðŁĺ Ĭ
Ġrel ation
Ġme et
s c
l t
Ġg yan
Ġhe ad
Ġau di
Ġp op
Ġr est
Ġd ate
Ġus me
Ġher o
Ġsp ace
Ġfin al
Ġband a
Ġs r
ent ly
Ġle a
Ġis lam
Ġap a
Ġsup er
g es
Ġn ishant
Ġiss ue
Ġus ed
ten tion
Ġl ang
Ġl ate
Ġko hli
A b
hen ge
Ġv ot
Ġka sh
Ġpr oud
di an
us sa
Ġte ac
gr am
Ġtara f
Ġsin ce
Ġm ent
p an
Ġye hi
Ġin ka
Ġso on
ĠR a
Ġap ki
Ġjay enge
Ġis me
Ġsamj ha
le ct
Ġ @
ud d
Ġv ic
Ġs te
E k
Ġh ee
d ate
ĠTe mp
Ġan g
Ġma hi
he d
Ġja ata
Ġfi x
u al
Ġas s
ĠðŁĺ Į
ĠN a
qu e
Ġcour t
Ġdek he
re ed
Ġbhai ya
Ġhe alth
ĠG uru
Ġja ane
aro or
Ġs her
Ġho g
Ġex pect
il li
Ġsk te
in s
Ġpla ce
hi l
Ġgr oup
o ge
Ġins an
Ġ Â©
Ġach ha
ti me
Ġtal k
ĠS a
Ġwhi le
ti fic
ation al
Ġha me
Ġrah ul
Ġjaye gi
ho w
Ġba ate
ðŁĳ į
Ġsab hi
Ġkr ke
Ġja il
Ġsec ond
Ġins ta
ys te
ðŁĩ ³
Ġor der
Ġtr ans
Ġc lo
Ġrec ord
Ġ: )
Ġcont est
Ġbana ya
un g
a ke
l er
Ġla ude
Ġha al
?? ??
Ġcomment s
Ġtar get
Ġcont r
k ho
Ġle ft
Ġin te
Ġkha na
Ġsi m
Ġm er
Ġwho le
du c
Ġen gl
ma i
Ġm ast
Ġe as
Ġba hot
Ġbe autiful
Ġm ur
sa hi
Ġha an
iti ve
c ked
Ġfav our
Ġhist ory
Ġ +
ar s
r en
Ġf ind
c r
Ġpr ess
rat ul
a ar
Ġti mes
Ġkar ni
Ġli e
or ts
Ġ *
Ġin ki
Ġseri es
A bhi
Ġaa g
Ġma za
Ġg an
Ġcomm un
Ġhum an
Ġlit er
Ġmt lb
Ġrahe ga
ĠB JP
ĠðŁ İ
ĠL e
Ġpro ject
Ġdo s
Ġreligi on
Ġc ra
Ġchah te
ĠðŁĺ Ķ
Ġja wab
ĠðŁ ĩ
H um
Ġto d
Ġdu kh
Ġl at
Ġbab y
il iye
us s
Ġban k
ment s
Ġp ati
b at
Ġv s
ĠðŁ¤£ ðŁ¤£ðŁ¤£
1 9
Ġs ana
Ġma king
Ġgu y
Ġja ati
Ġand ar
ĠP M
Ġ1 3
Ġthr ough
Ġwom en
ðŁĳ ı
Ġja ana
S ahi
Ġsha adi
Ġany one
Ġse en
ic s
che d
Ġpe trol
Ġc ri
Ġimport ant
Ġha t
han d
Ġcha k
ðŁĺ ľ
.... ..
ĠN o
b an
Ġter ror
Ġstud ents
Ġtab hi
® ðŁĩ³
ĠS o
Ġb all
Ġcha rac
1 2
Ġfor m
Ġbus iness
Ġr as
Ġde m
Ġm n
Ġn on
Ġtal king
i v
ĠR e
Ġdiffer ent
Ġpo o
Ġres ult
un ty
oc us
Ġreh te
Ġpr odu
Ġky on
Ġat t
Ġss r
et y
Ġd ra
Ġlead er
p m
Ġo b
Ġrak hi
Ġpan ch
Ġview ers
ĠW e
Ġas k
Ġmar ket
Ġg han
Ġcha ar
yste m
ĠA bhi
ha pp
Ġsam ay
Ġspe ak
Ġshi t
Ġmuj e
H E
Ġt uj
Ġspe cial
Ġjus tice
Ġre member
t ure
Ġb it
Ġs erv
Ġbhag wan
Ġga ali
mo st
Ġn at
Ġpad e
Ġsu cc
Ġk ese
Ġ1 4
A L
Ġperson al
he le
ll o
e f
Ġman g
Ġdr ama
Ġtr ust
Ġvir at
Ġag ree
Ġk hat
m ad
Ġdi di
2 1
Ġc m
Ġkyun ki
Ġho urs
Ġother s
Ġba ba
Ġty pe
Ġ2 00
Ġa y
Ġli ght
Ġpri v
g an
5 0
Ġatta ck
Ġtum se
ðŁĺ ĺ
Ġchan ce
Ġa ana
Ġna m
Ġtum ne
Ġs end
M ere
ĠN ahi
Ġr is
Ġtra in
vel op
Ġfeel ing
uj i
Ġwap as
ðŁĺ Ĩ
Ġd ard
ce l
' ve
b ab
as ed
Ġsus hant
Ġap ka
p ur
Ġe duc
Ġ âľ
Ġsi mp
Ġf ocus
Ġbu y
b t
t ar
Ġmad am
k ari
Ġan other
Ġgand hi
Ġlo s
d ing
Ġbe l
le ast
Ĥ ï¸ı
âĢįâĻ Ĥï¸ı
re t
Ġchah ta
Ġr an
Ġmak ers
Ġle ar
e m
Ġne ta
Ġme ans
er tain
Ġpolitic s
Ġlog ic
Ġpun jab
Ġki d
Ġhe i
Ġrequ est
ar ch
Ġread y
Ġr ul
w hy
al la
Ġresp on
Ġp hr
Ġis i
at s
un a
Ġid ol
M a
r s
ur es
um p
Ġes a
Ġb en
k il
Ġle kar
f ir
Ġteac her
Ġdhar m
and a
ĠU s
ge d
Ġsi kh
ðŁ¤ ¦
Ġham ara
Ġcomp any
he s
Ġpic he
ac cha
ĠðŁĳ į
Ġaw ay
Ġexp eri
Ġto t
Ġtry ing
Ġg hum
Ġj ese
Ġchu ka
Ġna ya
il ity
ust r
Ġham ari
Ġcop y
i re
Ġ Z
ratul ations
Ġbr other
ĠE k
ot s
Ġnation al
Ġbe ha
b ad
Ġseri ously
Ġbho ol
Ġp oll
Ġ ese
s ome
ad esh
on y
Ġon ce
Ġsup por
ĠS e
Ġa round
Ġro z
g ood
Ġmand ir
Ġn ice
Ġ1 8
Ġo h
Ġpakistan i
b ai
Ġkaro ge
Ġhon i
w i
Ġsm jh
Ġjarur at
1 1
c ess
ter n
Ġhin di
ðŁĶ¥ ðŁĶ¥
Ġlist en
r d
Ġr t
Ġ Q
Ġd han
ðŁ¤ Ķ
Ġlo st
Ġg h
har th
Ġsen se
ise d
Ġaudi ence
Ġc ant
Ġaad mi
Ġt l
op hy
wa z
Ġmo od
Ġmar ri
Ġma z
Ġr up
Ġba je
ll ing
in i
Ġp or
IN G
in ion
Ġtum ko
Ġm ph
Ġinter est
Ġl enge
Ġe mp
k at
Ġw rit
Ġhur t
Ġdo or
A I
id ence
ĠS alman
ce d
Ġre port
ic ke
Ġbla ck
Ġg ay
Ġaf ghan
Ġre t
Ġd ri
c ent
Ġc ut
Ġk bhi
Ġde v
Ġpar ents
Ġide a
Ġs er
Ġkeh te
Ġs ystem
ðŁĺ Ĭ
Ġ ul
Ġbus y
E S
ry an
Ġme hn
Ġid har
Ġb ur
Ġpr ice
ĠM ujhe
Ġd ream
Ġba che
M e
Ġre lease
Ġp pl
Ġchi ld
Ġcontr ol
r ow
Ġso cha
Ġe ach
Ġen ough
Ġfar m
Ġl u
ĠC ha
Ġc hin
Ġa as
Ġliter ally
Ġsi kha
Ġcolle ge
Ġde velop
Ġper for
Ġkar u
Ġha ath
on na
r up
iss ion
Ġde lete
Ġc ame
Ġf andom
Ġsucc ess
ĠB a
Ġb ill
haha ha
ab ad
Ġmo b
O R
d on
ge ther
li ms
happ y
A aj
od ay
Ġr ash
Ġsa c
Ġp s
Ġreh na
Ġop inion
Ġs itu
n ay
ðŁĺ Ģ
Ġdec ision
Ġed it
u gh
ha y
Ġsub ah
c tive
lo ad
en se
Ġis ki
Ġsh ri
li ght
g y
Ġma har
ĠðŁĺ Ĵ
Ye h
ðŁĺ Į
Ġs ara
Ġwa h
Ġqu i
il i
Ġin se
ĠW ind
Ġplay ing
A ap
Ġp hle
olog y
Ġcom ing
Ġdi jiye
Ġp u
ðŁĺ Ķ
j ust
Ġcha lo
Ġho t
t hank
Ġr ish
b as
Ġbol lywood
s am
Ġcont in
Ġjud ge
Ġb tw
ĠG o
un ch
Ġoff ice
Ġat least
or k
b ody
Ġmil i
ĠT o
t ere
on i
ga ya
Ġde ar
Ġhis ab
ĠS ab
ĠIm ran
Ġle g
Ġus i
Ġchi na
Ġel se
Ġka fi
Ġba j
han ks
ress ion
Ġto gether
Ġt am
Ġmom ent
Ġ ???
Ġpar ti
ðŁĺĤðŁĺĤ ðŁĺĤðŁĺĤ
Ġd ist
Ġhu ye
ne w
Ġex t
in dia
Ġwat ching
Ġsa ke
ur ity
ĠðŁ¤£ ðŁ¤£
Ġli a
uk la
A Y
Ġjho ot
Ġkash mir
Ġcharac ter
ver t
Ġde ath
id er
pe t
Ġto ld
Ġye ah
Ġneg ative
!! !!
Ġpr ot
Ġlo w
ĠB e
Ġbl ess
Ġans wer
ĠA ap
Ġnor mal
Ġka hin
ĠHind u
c han
m u
Ġsa w
Ġis iliye
Ġban e
Ġdef end
m or
Ġmum my
Ġhoga ya
Ġprop er
c ome
Ġc am
b and
ĠðŁĺ ľ
v al
Ġyout ube
Ġa am
Ġj am
ck s
ali k
Ġd p
Ġg onna
es sed
r is
Ġb hot
Ġba ith
Ġy ogi
Ġac ting
Ġd ue
Ġ2 4
Ġtr p
o ve
Ġbad h
tw eet
Ġsa ve
Ġlin k
Ġdeser ve
Ġm ir
ðŁ ļ
a an
Ġho o
ha s
Ġv ar
ĠT w
Ġg ussa
ay da
oun d
Ġw r
Ġrak ho
Ġwha ts
Ġpar a
y on
Ġr ang
y at
Ġte ju
Ġl ess
con om
ac tion
Ġshar am
le t
Ġb ody
ti re
Ġgr and
Ġan n
Ġbo hat
Ġbe ch
Ġvi p
Ġa maz
Ġall ow
w hen
ta ge
Ġs il
A ur
d il
Ġbak was
Ġpl us
p end
Ġpe ace
Ġfal tu
Ġman n
Ġs le
ĠO r
ðŁĺ Ĵ
Ġki jiye
Ġr s
Ġdi v
Ġc red
Ġban ane
Ġd ha
Ġme t
led ge
i p
Ġm ud
Ġgi ft
Ġsa fe
Ġknow s
Ġka i
Ġlook ing
Ġpa in
Ġinc re
Ġmonth s
hr u
Ġro om
Ġrelation ship
Ġwin ner
ĠR ain
ĠP ar
Ġlag ti
Y es
w ard
Ġsab ke
Ġact or
Ġd ata
Ġsha h
Ġmovi es
Ġd er
Ġa ti
Ġho sp
am ent
Ġja ha
Ġt ension
Ġwait ing
Ġperfor man
Ġclo se
Ġa z
Ġok ay
ci ally
Ġdek hi
Ġlak h
Ġcha t
Ġm r
Ġsa i
E N
id d
Ġstar ted
Ġf all
Ġmil li
Ġab b
Ġgu ess
Ġwa han
T o
Ġka afi
hy an
Ġreal ity
ne y
k he
ĠA n
ou l
Ġemo tion
Ġseri ous
Ġan ti
Ġsw eet
Ġs ona
ĠB ar
ya k
A S
in ation
Ġmo ve
Ġsal e
Ġop tion
Ġbe tw
Ġbetw een
ĠðŁĺ İ
u ally
Ġa yega
Ġ1 6
Ġho ld
Ġcont ent
the y
Ġgol d
Ġjo ke
t ty
Ġgi ving
Ġchho d
Ġaa o
s ide
Ġshow s
Ġ2 5
Ġsitu ation
Ġcor ona
% ,
Ġat tention
Ġy o
Ġbr ing
Ġr ub
Ġup date
Ġla al
O U
Ġgirl s
Ġm od
Ġpa ida
an ch
re ci
Ġp and
N ahi
Ġf uck
Ġdur ing
Ġa ryan
Ġka he
Ġmess age
ee ch
ðŁ¤ Ń
Ġtr ophy
ur y
t on
Ġas li
Ġz aroor
ce mber
Ġcon st
Ġcon ne
Ġle ast
Ġma gar
Ġneed s
hin d
Ġya h
Ġkha ne
i e
r on
h ta
Ġexperi ence
' d
ky un
Ġ.. ...
Ġthink ing
Ġwo hi
Ġpar es
Ġdun ga
Ġda ily
Ġbec ome
in ke
Ġma u
ðŁ¤£ðŁ¤£ ðŁ¤£
Ġwa ale
Ġpos sible
ong ress
w w
ĠA llah
Ġopp os
p lease
Ġa h
Ġlo c
Ġrakh na
w here
Ġro hit
ist mas
Ġsa af
w at
Ġpos itive
Ġde vo
Ġchan di
Ġin he
Ha an
Ġlang u
Ġa unty
ðŁĺŃðŁĺŃ ðŁĺŃðŁĺŃ
Ġpolitic al
Ġcha li
Ġte ch
Ġis h
Ġr ona
Ġk an
b b
Ġc at
Ġlo ss
Ġbol ti
ðŁ¥ ²
Ġo bs
o z
Ġdi ma
Ġnee la
ðŁ¤ §
Ġdi rect
1 3
Ġlea ve
Ġd hyan
v an
Ġm ush
d ic
Ġma g
Ġinter n
Ġmehn at
Ġac cept
Ġm ara
Ġj ada
Ġcan cel
Ġ )
Ġe conom
Ġs ari
Ġpr ay
op e
I T
m era
Ġe yes
Ġb ond
Ġlead ers
Ġfar k
Ġbu il
Ġt ari
Ġengl ish
A be
Ġn ic
Ġdr ug
f ollow
Ġdef in
Ġgur us
in al
O T
Ġjo urn
A M
Ġst u
Ġid ar
Ġpr ac
Ġg am
Ġperforman ce
Ġmus ic
Ġtak ing
Ġpi ch
Ġfun ny
Ġlook s
Ġd ance
Ġh r
Ġkhila f
il s
Y ou
Ġi pl
Ġsa wal
ab ar
ic es
ĠðŁĴ Ķ
Ġd y
Ġf und
os a
Ġd an
ðŁı ¼
Ġwi fe
ĠU mar
c ing
us ed
ĠðŁĺ ¡
Ġna y
Ġb es
ðŁ¥ °
Ġus ing
Ġe qu
Ġco ol
ut y
W e
Ġvo ice
Ġka p
Ġthat s
ĠS t
ĠðŁĺ ı
Ġun a
A ise
Ġ1 7
Ġvis it
Ġdr op
Ġd ad
Ġar t
il a
Ġpro of
Ġpriv ate
f rat
Ġa ks
Ġcr ush
Ġwas te
are y
ĠS ir
s ol
Ġt ill
Ġy hi
Ġt reat
zz at
ĠA pne
j is
Ġis e
Ġy oun
Ġkho l
Ġpa pp
Ġban ana
ĠK e
Ġw c
Ġlag te
ĠS ahi
Ġchak kar
Ġbe ti
ka ise
b c
Ġb ye
o te
Ġfavour ite
shi sh
Ġkh ul
T his
Ġsle ep
Ġrahe n
ah ut
Ġja ke
g en
ath y
Ġcur r
ðŁ §
Ġpro te
s ta
Ġ202 2
Ġin st
Ġcred it
Ġcon cer
Ġdus ro
Ġbl ame
ori es
Ġserv ice
Ġsong s
y u
Ġha ving
Ġi mag
Ġmob ile
ce p
Ġwan ts
Ġlit tle
Ġa v
ĠTe ja
Ġl am
ĠðŁĺ Ĩ
Ġapp reci
k an
Ġbait he
Ġma kes
Ġp ani
re me
Ġfeel s
Ġf ood
Ġc a
li p
ðŁĺ ı
b al
Ġn u
Ġye t
l u
ad u
Ġcr ore
Ġas ked
Ġfore ver
Ġme h
Ġv er
vers ity
Ġmen tion
Ġjourn al
s an
Ġse x
Ġbha kt
Ġmush kil
en ti
ðŁĺ¡ ðŁĺ¡
Ġsy mp
Ġkar lo
Ġna frat
Ġdisc uss
Ġle ti
ĠA r
Ġmi ght
Ġja e
Ġw is
l s
Ġg hr
Ġfa ir
Ġlangu age
Ġt ur
Ġaa ke
ĠA p
Ġli mit
Ġprot est
ra p
Ġd ub
Ġho ja
ĠJ i
Ġaw ard
Ġcha i
Ġpa h
Ġdikh ta
Ġkeh na
r al
ri es
Ġ !!!
Ġpa id
c l
la g
Ġhon est
Ġent ertain
Ġpic ture
D e
en i
se t
Ġsm ile
Ġz arur
ĠR o
ta k
Ġka isa
Ġwal on
te ad
mo di
Ġknow ledge
Ġc la
Ġrak he
Ġthou gh
t hat
Ġinv est
og le
ðŁĺ İ
Ġf as
w ards
Ġhear ts
A p
A B
Ġut h
Ġvacc ine
Ġwon der
j an
Ġde li
ti e
ĠU n
Ġhand le
Ġw ent
ĠJ a
Ġi zzat
ĠðŁĺ Ģ
Ġc oup
Ġs it
Ġdi re
v ity
Ġafghan istan
Ġmay be
Ġpee che
ĠðŁ¤ Ķ
at ure
Ġdem and
Ġkare gi
Ġcor rup
I S
hy s
O h
it ne
Ġst o
t ho
Ġc ult
od h
Ġk l
to h
Ġr ate
Ġp ast
Ġsi gn
Ġg un
Ġf ayda
Ġdos ti
S ab
Ġlage ga
Ġpares han
ort un
Ġg round
it her
Ġfav or
Ġhosp ital
Ġc ity
Ġann oun
Ġpo or
1 4
Ġhum ne
Ġhind us
Ġy ha
Ġwor ry
Ġco z
ðŁ¤ Ĺ
ĠG aya
Ġko shish
Ġchu ke
l ol
Ġoff ici
Ġinc l
m ission
Ġs ister
Ġi k
ĠM us
ĠU P
B ut
ĠM ai
Ġch l
Ġmujh se
Ġne end
Ġa i
ar uri
Ġamaz ing
Ġr ad
Ġdec ide
Ġh us
Ġw est
Ġmil ti
Ġtr uth
Ġjis ko
Ġpress ure
Ġen g
Ġgi ven
Ġinter view
Ġeduc ation
Ġsm all
Ġdu a
ĠD il
ic ally
Ġmus lims
âľ ¨
Ġper fect
ĠN e
) .
Ġh en
hab bat
Ġso ci
Ġal most
U s
Ġstud ent
f er
es i
uk at
an ts
ta ble
Ġpa ye
x ic
Ġh or
Ġl and
Ġsid harth
pe cted
ĠThe y
ĠP hir
Ġma x
Ġsal a
Ġgr ow
Ġkar do
Ġms g
Ġja han
it ni
Ġcom es
c b
Ġut na
Ġn an
end er
Ġac tive
ĠTw itter
Ġro j
ĠA aj
ma ine
2 2
ate ly
s han
T u
ĠT his
Ġwor king
Ġf ather
b l
Ġf ound
ĠY a
R E
Ġdou ble
ĠA s
ff ic
ord ing
Ġb ass
Ġde ep
Ġpa anch
Ġde mo
Ġkar en
ite ly
id ay
ĠðŁĺĤðŁĺĤðŁĺĤ ðŁĺĤ
ri b
ĠH a
Ġcr itic
Ġachi e
Ġpri me
Ġcare er
Ġsl ow
Ġto ok
cha l
li ke
Ġse at
Ġsa ab
Ġreh ti
Ġmul k
Ġeas y
Ġha q
ĠS h
? !
d d
a isa
B e
Ġst at
Ġs um
S o
Ġala wa
y un
Ġpapp u
Ġpar i
Ġte en
Ġsh yam
Ġc um
erv ation
Ġfar ak
r om
ci p
Ġt an
Ġhy p
Ġg ang
g uru
Ġe h
Ġsr k
k k
Ġm c
a ab
Ġt hy
Ġde al
Ġbra in
Ġke y
Ġjit ne
Ġwan ted
Ġs ans
Ġt icket
Ġhappen ed
it ude
Ġp it
al ous
Ġp ort
Ġd est
Ġyour self
Ġro le
us ke
j ay
ha a
K oi
ut es
) ,
pp ing
fi ed
ro om
Ġcommun ity
ti l
Ġout side
ful ly
Ġbaate in
ar an
Ġhim mat
Ġun cle
Ġya d
Ġcon d
Ġro k
g s
a cha
Ġg ari
Ġdou bt
Ġsk ill
Ġsp o
Ġsp eed
A gar
ge ment
ðŁĺ ¹
Ġsimp le
Ġa da
al og
Ġle ga
Ġpad ha
ðŁ¥ ³
o om
c ra
t ha
n am
Ġm ass
Ġre tweet
ĠðŁĺ ĳ
Ġs ud
Ġband e
ĠKar an
Ġf eed
ĠK oi
Ġsc reen
Ġmas ter
ke y
Ġli kes
is on
Ġre pe
in k
Ġbol i
o b
ee p
g ing
Ġret urn
Ġf it
Ġ4 0
Ġin form
Ġcour se
Ġpla yed
Ġdiffer ence
g ree
Ġsh ort
m eri
Ġb day
Ġc u
Ġun e
a o
Ġz ara
Ġmil te
Ġpe t
Ġma ang
- -
ri ght
Ġjaa ke
m ing
ar ed
ĠP e
Ġno te
up id
Ġiss ues
end ing
Ġc ust
j ri
di ya
Ġbo ht
ur al
ma an
Ġun se
l and
Ġvo h
Ġmil na
ðŁĻ Ī
Ġvide os
Ġr uk
b ro
Ġl es
Ġin n
d own
Ġga ve
Ġsp read
f it
Ġja isi
ri p
Ġha lf
ul ation
Ġcomm on
ĠK AR
Ġbhe ja
Ġmil ne
Ġna e
ĠK i
Ġwan na
Ġreh ne
de ar
Ġbad ha
Ġst r
Ġaur at
Ġf ast
Ġs ci
W o
Ġde b
il la
Ġr om
ĠK o
d r
j id
ĠK al
ðŁĺį ðŁĺį
ud a
Ġex amp
h ra
Ġexp lain
Ġhog ya
Ġhe ll
Ġhum ara
p to
Ġp hys
mor row
hi d
Ġpo ora
ĠðŁ Ĳ
Ġbole ga
p ed
k er
Ġwap is
Ġto morrow
Ġmaz ak
Ġa ukat
Ġm it
Ġf ine
Ġtr ad
ka ar
Ġm are
Ġya a
Ġtuj h
jri wal
Ġcam era
Ġc oun
Ġhum ari
ou ght
e ld
Ġlo ck
idd le
Ġaj eeb
Ġhu wa
Ġtra ck
Ġr at
Ġge ts
Ġque en
ĠIn dian
Ġshar m
Ġfl op
Ġre ach
Ġmahi ne
Ġno tice
ðŁĺ ĳ
Ġbata ya
Ġco ver
Ġs oul
ðŁĺ Ŀ
Ġis n
Ġaap se
Ġvi ol
Ġchal u
Ġp y
Ġsec ular
ðŁĳ Į
ĠI f
Ġpolitic i
ct ure
Ġin de
Ġun hone
Ġas king
Ġg ho
ĠðŁĺ ī
Ġsymp athy
Ġz e
hi k
Ġfor get
Ġre d
k m
Ġo m
Ġhus band
Ġ â
âĺ º
2 5
Ġdar r
Ġt re
Ġm ath
il er
Ġgo es
va il
Ġmum bai
w oh
Ġa ut
Ġtar ge
Ġcon vers
ali ban
Ġlo ves
Ġfo ot
Ġ2 1
Ġhim self
Ġdima ag
Ġbac che
me in
Ġg f
ĠD ew
y le
ali a
Ġ7 0
Ġha ta
Ġkon sa
Ġsm art
ile d
Ġmile gi
Ġs ang
ðŁĩ ®ðŁĩ³
P hir
Ġje alous
ĠL i
ic a
Ġba il
ĠT O
Ġs na
Ġban ta
Ġins tead
Ġcomp are
Ġf at
Ġm alik
Ġjis ne
Ġn ya
Ġake le
ha g
Ġnar endra
ðŁ¤£ðŁ¤£ ðŁ¤£ðŁ¤£
Ġkis ne
Ġf d
Ġfam ous
ĠS he
Ġkare in
ðŁ¥º ðŁ¥º
aj i
Ġrahen ge
Ġwhats app
es ted
Ġcoup le
Ġexam s
Ġd as
ti fy
uk ri
m ind
ak h
ĠH ain
Ġdi alog
Ġkis an
Ġsim ba
M o
Ġlad ke
Ġpad a
Ġaa b
Ġst upid
: -
Ġsa ari
Ġv ers
Ġso uth
Ġbe g
Ġb ud
he y
sol ute
icke ts
Ġra il
Ġgener al
Ġsu gg
d am
Ġcha nd
Ġwhi te
Ġgur uji
T e
k han
Ġpro ve
Ġdi g
Ġ ill
Ġlear n
Ġm un
Ġcol ors
ĠðŁ¥ ²
J o
Ġin t
Ġfi re
Ġsec urity
Ġgya an
Ġ9 0
Ġv ale
Ġbe hind
Ġex tra
ĠT u
I L
Ġme ko
Ġconf ir
v ir
Ġso cho
ĠðŁ¤ ¦
Ġsho ot
Ġc ause
is ha
Ġpe hli
Ġmar ne
ĠA gar
Ġfriend ship
ĠA l
ta ke
ĠG od
Ġins p
Ġde do
Ġfollow ing
Ġjan te
Ġstud y
Ġfin ally
Ġt on
ust an
Ġ2 9
Ġpak ka
Ġkar unga
Ġm other
app y
o or
Ġhum ko
ĠC hr
om in
Ġ9 9
Ġka ala
Ġru le
Ġwom an
Ġj u
Ġbol enge
ĠP R
Ġdid nt
Ġpic s
Ġprof ession
n hi
ta ct
Ġc y
Ġind ust
Ġsoci ety
Ġpad i
st ar
Ġg t
A nd
Ġdekh ta
Ġtop ic
Ġa ja
Ġg ra
Ġhal at
ot t
amp al
Ġmilli on
ĠPr atik
Ġar g
hi p
Ġmahar aj
ĠR aj
Ġso und
ĠH ar
ot h
Ġha haha
Ġbe te
ĠT oday
Ġs han
Ġare a
Ġ: (
Ġe ff
Ġlad ka
Ġdin o
w hi
Ġki ll
Ġor ig
Ġkar w
Ġstate ment
ic t
Ġbta o
Ġmau ka
Ġchi z
ter day
Ġper o
A P
Ġl l
J ab
c ket
Ġf el
Ġdefin itely
Ġad mi
Ġ5 00
Ġk umar
Ġbe w
m on
Ġb om
Ġw he
am i
Ġp our
ĠðŁĳ ı
ðŁ į
Ġbigg est
Ġch un
Ġoff ic
Ġba p
Ġaaye gi
hi ya
Ġse ed
Ġs ant
Ġka ho
ĠM ere
Ġweek end
Ġin no
p akistan
ĠðŁ ĵ
Ġnic he
Ġto xic
Ġfarm ers
Ġa ar
ush man
Ġb in
ll a
har at
Ġbat ting
Ġmat ches
Ġre view
Ġ ess
Ġexamp le
ir a
Ġcust om
n at
Ġbi ch
Ġcor rect
Ġde ad
Ġcha mp
te ver
Ġta u
Ġcelebr ate
Ġbo ard
ĠC hi
z ed
Ġkhe la
Ġsur pr
I C
Ġbi har
r est
Ġval ue
Ġdevelop ment
Ġindi ans
H AN
p ing
Ġdo os
Ġbo ys
Ġwe l
Ġmur der
ðŁĺģ ðŁĺģ
Ġhy pe
ĠM ar
Ġab le
Ġbe d
ĠD o
W hat
R e
c u
u ine
E x
Ġg ust
ĠD i
he l
Ġ: -
p ata
ĠA ise
Ġvis hal
Ġtar ee
Ġtha k
c ast
1 6
Ġka a
ĠK iya
ĠA f
Ġkr ni
Ġam b
er t
one d
Ġha a
Ġud har
Ġt urn
Ġg uj
Ġintern ational
Ġki ds
b ility
Ġre mo
el hi
Ġkeh ta
q i
ar ing
Ġsp orts
Ġview s
c cha
7 0
ti mes
Ġ __
in es
end a
Ġja g
Ġz i
Ġex ist
ĠW o
Ġghan ta
Ġan a
le kin
Ġma ha
Ġpa ya
Ġqu ality
Ġshar ma
Ġap pe
w ho
lo go
ustr alia
Ġho ke
Ġden i
Ġterror ist
Ġkha li
Ġf b
Ġm iddle
in ce
Ġcre ate
k as
Ġkr enge
Ġbat ana
Ġmin utes
1 8
Ġhyp oc
Ġg ul
Ġsha m
ĠðŁ ļ
h na
Ġhapp iness
Ġres ervation
Ġw ese
ĠðŁĳ Ģ
Y a
Ġz ero
Ġemotion al
Ġtrend ing
iti z
ĠB ol
s ame
K al
on es
ma ge
Ġoppos ition
Ġ =
Ġsa ala
c a
t ujhe
Ġkis s
T hank
ĠS T
ðŁĺŃðŁĺŃ ðŁĺŃ
Ġa te
I f
f riend
Ġbi en
w ise
Ġkhel ne
Ġag o
Ġwor st
al o
Ġc ir
Ġba ja
Ġprof it
A pne
Ġsab ka
Ġs che
Ġbor ing
Ġchu ki
ond on
Ġkam i
Ġkre ga
Ġpa ani
Ġj as
ul a
ri pt
Ġv id
L e
mb ers
is hed
4 0
Ġz a
ĠS ing
Ġcontest ant
ti g
ast han
Ġmy self
Ġgh us
Ġc amp
ya an
Ġsk ti
Ġsee ing
Ġsc en
Ġrash mi
Ġcho ose
y er
E T
Ġa an
pe hle
Ġa vail
se l
Ġk b
Ġacc ording
Ġde gi
Ġv aise
ðŁĳ ĩ
is ing
ðŁĺ ¢
Ġapp ro
ur ed
Ġi di
ĠðŁĺ Ĳ
Ġcas te
Ġst ream
Ġto wards
Ġto r
Ġwat er
o ver
Ġkar de
Ġatt itude
Ġhum esha
G ood
us ion
Ġdo ge
I K
Ġmarri age
Ġtal ent
Ġcult ure
at or
Ġj at
Ġar tic
ano on
te mp
Ġsam b
Ġcr oss
Ġab t
le x
ne t
Ġcon tact
Ġbhar osa
Ġcom o
e y
Ġtha y
we ll
ĠðŁĺ ¢
un jab
he ad
Ġish q
Ġcom pet
Ġz inda
Ġis ne
A D
Ġum eed
Ġi g
ðŁĺ Ħ
Ġn z
Ġcele b
Ġpos ition
Ġbe y
k isi
Ġdek hiye
A r
kar an
Ġban ne
Ġa yi
Ġa wa
Y aar
Ġr h
Ġf ra
ame en
Ġho ge
Ġjee te
ba ck
ĠK abhi
ĠL O
mp h
Ġbhar ath
Ġdus ra
ak a
Ġpromo te
Ġna he
l ay
m en
µ ðŁĩ
ist ry
Ġgen uine
Ġev ent
er n
Ġwe ak
p ro
Ġba ha
ðŁĴ ķ
ĠK h
Ġfr ont
ck ing
Ġuni versity
Ġpo in
ĠðŁĺ ©
Ġt ay
u f
Ġfo ol
K a
Ġa ra
Ġbl ue
ul ts
Ġcry pto
ĠI N
Ġpres ent
Ġma af
Ġdoes nt
Ġhi g
ap a
P e
li es
tific ation
Ġa ko
ĠðŁĺ ĺ
Ġo tt
g ress
ĠðŁĺ Ħ
ðŁ Ķ
Ġtak en
1 7
O r
Ġal one
ĠYe h
Ġ100 0
Ġb ate
Ġen tire
Ġh ora
Ġka ma
Ġp hele
b us
Ġlove d
Ġsee ms
Ġho j
Ġv ish
Ġkha ir
ĠB B
Ġsupport ing
ver se
Ġdik kat
Ġin j
ðŁĻı ðŁı»
ĠW hat
ra h
Ġclear ly
Ġhai r
Ġra pe
ong ratulations
lo ve
Ġ2 2
Ġjee ta
Ġfel t
ĠT ere
Ġst ates
ed y
Ġques tions
pe cially
ric t
he llo
er ing
ðŁĴ ¯
w ah
Ġs ent
Ġsec ret
Ġannoun ce
Ġf es
Ġcas es
Ġkar i
Ġgo ogle
Ġe f
Ġdus ri
Ġd uk
ta s
Ġyoun g
Ġw icket
k ti
Ġwin ning
Ġprodu ct
Ġcontin ue
Ġpres ident
Ġl ay
Ġsal ary
ðŁ Ĳ
Ġacc oun
Ġwor th
ex actly
Ġcong ratulations
Ġb ene
ðŁĻ Į
ka un
und ra
Ġlar ki
Ġconf idence
Ġb udd
Ġchah ti
Ġho st
Ġpoo ch
c an
Ġre action
Ġcan not
Ġin i
Ġjis ke
Ġmad ad
Ġse ll
Ġdikha ya
ĠðŁĩ ®ðŁĩ³
ĠðŁĴ ¯
ĠH AI
Ġsol o
ky u
Ġzarur at
ji v
Ġcha p
l led
ati vity
Ġy u
Ġtha a
gu ys
Ġinform ation
eri od
Ġ8 0
Ġpa a
Ġ201 4
Ġc er
ol d
ĠDew p
Ġrun s
reed om
Ġaa ja
z y
Ġcond ition
H O
r r
ĠL a
bab ly
µðŁĩ °
Ġ2 6
Ġso o
M y
Ġne ha
Ġw ow
Ġrel ated
ha ts
t m
Ġment al
Ġha e
Ġjis se
U n
Ġna u
ĠT HE
Ġkut te
Ġdrug s
T I
Ġtak i
Ġst ru
Ġth ora
Ġab i
ðŁı» âĢįâĻĢï¸ı
Ġ er
e ver
s on
ĠK K
ðŁĺ ©
Ġse y
V E
Ġkis ko
Ġc itiz
Ġbe kar
ko on
Ġskill s
Ġch ori
Ġul ta
Ġg y
Ġdh und
S ha
Ġt aliban
en ces
Ġdikha o
Ġcle an
ĠJ an
ee z
ar re
Ġexc ited
Ġac tiv
ks ha
Ġb ara
Ġa me
Ġsh ukla
T ere
ĠJ ab
Ġa ff
Ġp h
ĠðŁĻı ðŁĻı
and hi
Ġfeel ings
Ġd ress
Ġdis ap
Ġel le
Ġhu ge
A K
Ġcha d
Ġbana ye
Ġpee la
hot os
ðŁĴ Ļ
Ġyes terday
b es
Ġd ushman
Ġkhel na
Ġra hy
Ġpo ori
Ġlat er
Ġme mbers
d um
Ġkisi ko
b u
Ġbr and
Ġadd ress
as i
ka at
ĠðŁĺĤ ðŁ¤£
Ġj ara
Ġp ha
d in
he ga
Ġsp eech
Ġme me
U R
Ġfi eld
Ġna maz
L E
Ġavail able
Ġi mage
ĠðŁĺ ¬
Ġmeet ing
s ar
um ent
ar endra
w ara
Ġ- -
Ġwha tever
Ġmud da
Ġun til
Ġcaptain cy
Ġab solute
ĠS i
Ġtri p
Ġdi e
ĠðŁĻ ĥ
Ġf t
k en
Ġhu g
Ġtho de
Ġd had
s id
Ġrub ina
Ġwel come
Ġemp lo
ĠT r
ha wa
Ġaad at
Ġha ha
um e
Ġhe ard
s alman
b all
Ġco st
Ġli ving
Ġraha y
Ġka sam
Ġpl at
ĠðŁĺ ¹
ðŁĺ ī
ðŁĺĤ ðŁ¤£
M ai
Ġse mi
Ġup load
Ġe le
ne e
Ġhai i
bo ok
Ġindust ry
Ġl ab
za ar
.... ....
Ġoffici al
k ay
ll ow
Ġkr a
Ġmo habbat
i es
Ġne ar
S a
Ġka at
am ing
e very
ðŁİ ī
Ġvot ing
o ot
Ġpa p
is ay
Ġun follow
Ġbi ased
Ġbana o
i or
m ore
Ġmar zi
le ga
Ġv ala
Ġe ither
ĠM in
k ab
ye ah
Ġh es
Ġachie ve
Ġimag ine
Ġmiss ing
Ġe m
Ġsc ript
un der
Ġw ee
Ġw ed
ba ad
Ġag enda
Ġtech n
i me
sel ves
Ġkhi l
Ġja ega
Ġpro v
Ġmas k
ĠðŁĮ ļ
K abhi
Ġj hut
Ġg ham
Ġpre tty
fa ir
Ġbe cha
L a
Ġzaroor at
Ġeng ine
Ġp ate
Ġme m
Ġcent ury
g li
Ġper form
Ġne t
Ġbom b
c ol
Ġach he
ĠN A
Ġdhar am
Ġelection s
Ġs hin
Ġincl ud
Ġna s
Ġp ot
Ġpro gram
Ġ2 8
har am
Ġmean ing
Ġproble ms
Ġir rit
Ġho l
Ġinse c
Ġ âĻ¥
Ġcha hi
Ġna h
ĠM E
S T
Ġpad hai
Ġfes tiv
Ġmas jid
itu tion
Ġcla im
Ġbul a
Ġlaw s
Ġha f
ct ors
Ġsamb hal
na k
Ġfavor ite
Ġfor ce
u ly
Ġb uri
Ġhis aab
Ġsp ir
Ġdum b
âĿ £
Ġdikha ne
Ġres e
Ġs ession
Ġpoll ution
p hone
Ġmar ks
z am
ham mad
Ġp ya
Ġob vi
ĠA li
Ġbab u
Ġp en
Ġn ish
un t
Ġb ari
Ġgar eeb
w ad
Ġcha ll
Ġcry ing
Ġ era
Ġr ss
Ġbow ling
Ġtot ally
Ġbo x
ĠN ew
y da
ðŁĺ ĥ
Ġbas ed
k hi
Ġla ise
c har
Ġhi ts
Ġcom edy
Ġfa ida
ĠðŁ¤ §
Ġdeb ate
Ġlaga ya
Ġaa i
Ġkhud a
t hanks
di es
ĠB i
Ġl ye
Ġc bi
Ġkr wa
Ġent ry
Ġj aruri
Ġcount ries
Ġpop ular
20 21
en cy
is tic
Ġjit ni
ðŁĺĺ ðŁĺĺ
Ġon es
Ġbata ye
b reak
Ġrish ta
Ġpro cess
ag ue
Ġstu ff
Ġban ate
C H
ĠE ng
Ġba g
Ġmo tiv
Ġd he
Ġsub ha
Ġjis me
Ġbach pan
Ġsha b
Ġf reedom
c ott
ĠA N
s orry
Ġb illi
Ġsaal e
Ġgand a
t ri
Ġta i
ne ver
Ġtell ing
Ġf oo
ri me
ĠðŁĻ Į
Ġlo an
Ġpa ir
Ġen er
Ġro ar
Ġli ves
ĠIs lam
Ġba al
Ġa ne
Ġwee ks
Ġmed ical
Ġp hotos
Ġo s
Ġpa ge
Ġ201 9
Ġs qu
cha lo
w or
ĠMe in
ĠT hat
Ġstat us
ĠV I
ĠðŁĻ Ī
Ġbar bad
Ġth read
he b
L A
Ġsu it
Ġgam es
Ġsa p
âľ Į
Ġappreci ate
er ence
Ġch r
ĠM era
Ġgad he
Ġd ada
Ġb f
b ol
Ġa ayenge
tum he
3 3
ĠB hi
Ġprof ile
Ġpak ad
si ve
di d
Ġp in
Ġorig inal
Ġg one
Ġv ari
Ġst ri
Ġlak in
ðŁĳı ðŁĳı
Ġro ti
r am
Ġmed al
Ġke jriwal
Ġpro bably
Ġcall ing
ic tion
Ġd ab
Ġto ur
Ġus pe
Ġexp ose
Ġto ot
Ġhind ustan
Ġmin ute
Ġother wise
Ġso ur
il d
Ġre le
ĠM ain
Ġex actly
Ġhi i
ak ar
Ġth ree
ðŁı ½
ĠðŁĳ ĩ
ĠðŁ Ķ
Ġrail way
r ay
ĠO n
Ġapp ly
Ġpu cha
Ġsus pend
ĠM at
Ġtw t
Ġkha ya
k ash
Ġex cept
Are y
si m
Ġto uch
en ted
Ġdikha na
Ġbha la
Ġdialog ue
I M
Ġjaa yega
Ġcho te
Y A
ĠðŁĻı ðŁĻıðŁĻı
,, ,
b y
Ġre v
Ġau kaat
Ġpic k
Ġmost ly
Ġda o
Ġgaya b
Ġconfir m
s ana
ĠB aro
Ġbl ind
Ġf ul
s un
s ur
Ġrul es
at er
S E
har ma
ĠS id
Ġfact s
Ġvic tim
ĠD elhi
m ay
ðŁĺħ ðŁĺħ
ic y
Ġte le
Ġt en
he en
ah ul
Ġhm are
Ġke liye
Ġz am
Ġluck y
4 7
ĠLe kin
u u
Ġst yle
Ġben gal
Ġre el
1 00
Ġprote ct
Ġdest ro
Ġvers ion
ðŁ ĸ
Ġk new
ly mp
Ġjao ge
Ġste p
Ġbeha vi
Ġincre ase
Ġar rest
ha llah
Ġre main
Ġsahi b
Ġra jiv
lo ck
Ġni ka
Ġban gl
Ġre ce
aro ori
Ġla yak
Ġfor ward
Ġsc am
Ġr ampal
Ġear ly
o ff
g ot
he st
Ġjis ka
c in
Ġb ts
ĠC ongress
Ġopp ortun
cra cy
j ar
Ġjo ur
Ġ6 0
Ġa kal
O M
Ġm ut
Ġbha ag
Ġbu ll
Ġemo ji
Ġsol ve
Ġsha kal
pp er
Ġg ut
es y
c s
t om
Ġcol d
Ġp d
c ause
Ġcom mit
Ġch ut
in ed
ðŁĺ ¤
Ġvi e
Ġleg end
ĠðŁ ı
I R
I m
ve mber
Ġche ap
Ġt it
ash tra
Ġd ala
H aa
Ġki lled
Ġlo ot
Ġjo h
Ġal ong
M ain
Ġp uj
H an
Ġn alla
ate g
ĠC om
de v
Ġgo v
Ġsho t
A s
Ġsc ore
Ġcomp lain
Ġdisap po
Ġp eriod
Ġloc al
Ġaan kh
I A
b ilkul
ud h
ĠðŁĻı ðŁı»
ang er
Ġdhad kan
Ġbc oz
Ġl as
N a
Ġde cember
Ġbol ke
ar ak
Ġ2 3
x y
Ġen c
Ġmaj ority
ðŁĺ ³
Ġre act
ðŁĴ ĸ
Ġsto ck
Ġeconom y
Ġst ation
Ġmis take
Ġjournal ist
Ġban na
g ust
Ġcurr ent
d ul
ĠRa ha
Ġga e
ĠR am
Ġins ide
Ġa ara
ĠH am
Ġz ada
Ġin ves
Ġen ga
ĠSing h
Ġcri me
i gh
Ġprop ag
Ġbi wi
Ġkar le
ad h
Ġpop ulation
Ġsee kh
ol ar
Ġli ber
ĠS am
Ġjal d
te l
Ġconvers ation
Ġkar ma
Ġwa ala
Ġbait ha
ĠðŁ §
Ġma ja
ĠðŁ į
Ġdeta ils
Ġsh ree
Ġdh oni
Ġband h
Ġscen es
Ġban i
Ġm ata
i z
h on
c as
Ġam er
ðŁĺĨ ðŁĺĨ
Ġri ghts
Ġlo yal
ac hi
Ġallow ed
f in
ðŁ¤ ©
ĠP lease
Ġkha yal
Ġeven ing
Ġpeh la
Ġtra iler
Ġg as
Ġbe ht
ĠD on
2 3
the re
pp ed
Ġe lect
di um
alla h
Ġinv ol
Ġsa pne
Ġlo o
Ġpa yega
Ġg hal
Ġes pecially
ma il
Ġgari b
d y
Ġbook s
Ġatt end
Ġvot es
a ir
Ġ ;
Ġoff er
ĠðŁĺ ĥ
Ġk anoon
Ġce ll
te e
Ġwis hes
p al
Ġse arch
Ġun fair
Ġlad ai
Ġh me
Ġc ast
Ġsub sc
it ing
Ġimp ro
Ġqu ali
Ġgr adu
Ġter m
Ġrespon se
U M
Ġemo tions
Ġchal te
Ġbab ar
.... ...
ĠS un
Ġsun day
Ġc iv
2 4
Ġtri ed
Ġsci ence
Ġm ama
Ġentertain ment
Ġrakh te
W hy
Ġbe at
te ja
Ġfra ud
rat s
us si
Ġmarri ed
Ġle ts
Ġwa ah
C ha
ol an
st op
ĠD E
Ġba cho
Ġinno cent
ad o
Ġte l
Ġstart ing
b ahut
Ġpi e
Ġha ters
ðŁĺ ¬
Ġlad y
wa ise
Ġkha de
Ġut ar
Ġkeh ne
Ġpromo tion
Ġdha k
Ġgi f
Ġnee che
Ġo lymp
Ġtag line
Ġde gree
Ġsun o
Ġgan di
Ġk ur
Ġcha cha
Ġm p
Ġkho on
Ġcons ider
w ork
Ġnor th
Ġtarge ting
Ġneg ativity
re et
ti es
ðŁĴ ¥
A A
b oss
Ġghan te
Ġake la
Ġartic le
ĠM y
r ina
Ġc li
ĠF or
ati ves
Ġkha te
ĠI T
Ġindi vid
Ġa ank
n ers
hru kh
at hi
Ġban ega
Ġres ults
or ed
Ġb on
Ġd ham
ĠA ll
Ġfore ign
al and
Ġsm j
l ish
h pa
h or
Ġfe m
Ġkhel te
Ġbot s
y ing
Ġcer tific
p le
pr atik
Ġmere ko
Ġener gy
er ature
ĠðŁĺ Ŀ
Ġbi o
Ġcri min
Ġv ol
Ġtot al
Ġde in
Ġpoin ts
Ġl en
H appy
Ġre mind
Ġj ise
Ġsol ution
ish na
Ġmar o
Ġsab ki
ĠB as
Ġach cha
Ġl al
Ġche m
k is
Ġtra vel
ric s
Ġbar baad
M era
Ġn ara
Ġli jiye
ĠChr istmas
ðŁ¤ ª
in di
ĠI S
Ġstru gg
Ġj esa
Ġan al
c al
Ġv aj
Ġcompet ition
an cy
Ġkar iye
Ġl ge
ĠY OU
Ġadv ice
S alman
u a
ðŁ§ ¿
Ġmal um
Ġbe th
Ġpos ter
Ġs la
Ġb ure
Ġs wa
ĠK A
Ġco in
Ġbor der
os h
Ġz ind
Ġteam s
Ġmus alman
g th
Ġrese arch
M AR
Ġdo c
Ġdam n
ĠK am
Ġt ap
Ġperson ality
ar at
s in
l ation
Ġoffic er
Ġconne ction
O n
Ġe ye
Ġach hi
ĠðŁ¤ Ń
Ġcol lection
P a
. ,
ĠK r
b jp
sir f
ĠJ ust
w ow
Ġe go
Ġre ali
Ġgi ves
Ġang le
8 0
ra j
Ġinter net
enti al
b um
ĠG andhi
Ġho ty
Ġbel ong
ðŁĺ Ĳ
Ġso ft
u le
Ġwr ite
Ġchahi e
ðŁĴ ª
P r
Ġa e
l an
Ġmar ke
Ġshow ing
gg ing
Ġlo se
Ġjeet ne
es ome
Ġna z
ĠMus lim
Ġb ase
Ġc reat
ĠM an
li ament
hir t
Ġcat ch
g ir
Ġth ori
Ġkhat m
k on
ĠðŁĺ ³
ðŁ¤ ·
Ġneed ed
Ġfa is
Ġhume in
ĠN ot
Ġbra h
Ġop er
Ġlock down
ĠB o
Ġsamj he
Ġr ather
ĠS E
Ġdost o
hil esh
Ġact ors
Ġna ye
Ġwa ali
Ġtak es
Ġlin es
ok ing
ad es
Ġg reen
Ġde y
sh ukla
ĠE x
Ġopen ing
Ġchild ren
Ġsa yad
Ġsb ko
ĠðŁĳ Į
ra at
oh h
Ġactu al
Ġe at
Ġmil enge
Ġinterest ing
Ġbat s
6 0
Ġmas la
Ġag le
Ġinsta gram
Â® Â®
Ġme mber
z ation
Ġexp ress
Ġdeser ves
Ġpr a
p i
u di
Ġfoo tage
Ġth reat
Ġboy cott
af ter
ðŁĻ ĥ
Ġsta ge
ac y
j it
ĠP unjab
Ġr ho
ĠF ir
Ġsu ffer
c ul
Ġs uru
m ak
Ġblo od
l ist
Ġs one
Ġp ush
mes ha
ir d
Ġid k
Ġtemp le
Ġprac tice
p es
Ġpropag anda
Ġm uk
Ġcol our
g round
ho ta
ĠU S
ðŁĮ ļ
Ġkut ta
Ġk undra
Ġg lo
Ġno tification
Ġyour e
Ġmar na
ðŁĺĢ ðŁĺĢ
Ġme y
Ġrul ing
Ġplan ning
Ġcha in
Ġk ise
Ġr andom
o ol
f an
Ġparti cip
i red
Ġho s
Ġmod el
Ġchr istmas
ver age
Ġkhel ta
Ġcorrup tion
c il
Ġkar ungi
Ġshi v
o st
Ġreligi ous
id ar
Ġvo ot
Ġban g
Ġde w
Ġte j
wa as
ðŁĮ ¹
Ġev il
as ti
ja an
Ġpich le
y y
or es
Ġv ahi
Ġap se
ĠU MAR
Ġris ing
Ġcustom er
us ing
Ġpri ority
Ġhain a
ĠM ay
ĠðŁĺŃðŁĺŃðŁĺŃ ðŁĺŃ
Ġwa ja
ĠC M
ðŁĴĶ ðŁĴĶ
ĠK ab
Ġef fect
ĠðŁ¥ °
Ġto urn
Ġviol ence
Ġwor ks
Ġfil ms
Ġmul ti
Ġs we
Ġpre dic
Ġbac cha
Ġtha nd
Ġne tw
kh ud
ĠðŁĴ Ģ
Ġbew ak
Ġbol u
ur an
Ġa esa
Ġan im
Ġle ak
Ġ3 00
Ġhand s
at ar
Ġho ur
Ġda fa
Ġbl essed
Ġk um
ar ee
Ġnik la
9 9
Ġbeht ar
Ġab ove
Ġvi kas
Ġdep end
Ġkhe le
Ġin tr
Ġengl and
Ġd uty
Ġgr an
Ġcertific ate
Ġjin ko
h re
Ġg c
Ġdekh ti
Ġpay ment
Ġd ir
B ro
Ġqu ote
Ġbec om
is o
Ġup er
Ġhappen ing
ee ts
ate h
Ġrah te
ja i
ðŁ¤ ¡
od es
ĠN arendra
Ġa ustralia
Ġkr i
Ġmaj or
Ġt ang
Ġs ri
Ġstand s
Ġb ath
Ġli khe
ve er
ĠðŁĺ ¤
sa are
r ing
HA HA
ter i
Ġdun gi
Ġjaa o
ðŁĴ ľ
ti an
uj e
ha v
A cha
Ġst ories
ĠH ow
ĠA d
Ġcra ck
Ġyr s
ĠðŁĺŃ ðŁĺĤ
Ġsb se
Ġo cc
Ġap ny
Ġkha da
Ġco ach
ĠðŁĳ ī
Ġtum log
Ġcomp ar
udd en
Ġbow l
Ġpolitici ans
r as
Ġtr ade
Ġla ug
Ġcomplete ly
Ġab use
Ġdikha te
A ccha
om at
Ġchah ye
Mo di
Ġr r
he tic
Ġa head
Ġdown load
Ġoff line
Ġfuck ing
Ġko yi
Ġdec l
S S
Ġmat ters
Ġc est
Ġ2 7
ind er
ĠO N
Ġru kh
Ġabsolute ly
han i
Ġfollow er
ĠUs ke
A n
ĠJ ai
Ġcontest ants
Ġvar na
en sive
Ġna sha
Ġsoch te
la ce
Ġtaree f
Ġwit hin
Ġse ction
ðŁ¤ ¬
L ol
Ġst ra
Ġwat ched
Ġraj asthan
is y
Ġas a
Ġfr ustr
Ġkhar id
it ch
Ġdi ffic
Ġst ren
U N
Ġsome times
c ap
Ġde ke
la int
ðŁĴ Ĳ
ĠL og
ĠS A
ðŁĺľ ðŁĺľ
Ġm ari
in ted
ĠI nd
Ġdemo cracy
Ġam ir
ti oned
It na
Ġcl ick
y enge
Ġv ap
res pect
po se
Ġg ill
Ġpe l
Ġl f
le ef
Ġkr lo
Ġris k
ya ada
ri ed
Ġthem selves
9 0
Ġbe han
Ġkr do
Ġfr nd
Ġin iti
Ġm ode
ir at
ese l
U T
ĠH O
ĠMin ister
mat lab
ĠP ro
N ot
id ed
Ġair port
de kh
ĠW hy
Ġd ude
Ġan tim
Ġsa s
ĠMa ine
abe y
Ġwas n
T hat
Ġsuppor ter
Ġs hut
ðŁĺ ł
W hen
e ven
Ġbangl adesh
Ġm ine
ðŁĺ ¥
ir thday
Ġrahe gi
Ġwon t
Ġc ine
ak hi
ðŁĻĦ ðŁĻĦ
na am
ter y
Ġkha l
Ġsamj ho
Ġcho mu
Ġshan ti
ing e
Ġchamp ion
us es
ĠK yun
Ġinc ident
Ġcr icke
il ar
Ġsa at
t an
Ġbo hut
Ġsoch na
Ġmis sed
L o
Ġ3 5
ĠS ar
4 5
Ġphys ical
Ġshi p
Ġh v
Ġnar r
Ġchar ge
ĠK I
Ġinsp ir
Ġp le
Ġjour ney
Ġc lip
Ġek dum
Ġrep res
ðŁĺ ĭ
Ġy g
Ġinde pend
d ry
or ing
ran ge
Ġsp ot
Ġvaj ah
Ġra p
Ġchange d
b ara
B ilkul
Ġcon vo
ugh ter
D on
Ġsuccess ful
u ary
Ġte as
Ġcurr ently
ĠKAR AN
Ġd ans
Ġa ay
re y
ff ee
a at
ons ense
Ġ20 20
Ġkar diya
Ġga in
Ġchal ti
Ġdis ha
t v
Ġle ague
Ġinves tig
Ġshin ing
c hen
Ġc ateg
Ġsup reme
Ġly rics
s u
as ha
Ġchin ta
ag r
Ġfestiv al
Ġkha bar
Ġum m
fir st
Ġbha v
ĠK isi
Ġear th
Ġro und
ag es
Ġdiscuss ion
Ġha ri
Ġtemp erature
ĠG ood
Ġlikh na
Ġbc ci
is ko
Ġto ss
Ġhapp ens
Ġba chi
Ġam ount
pl z
ĠL o
3 5
Ġw ickets
Ġaj j
Ġre he
Ġfem ale
Ġkap de
Ġmaj ak
Ġthou ghts
whi le
ĠG ur
Ġsun ne
l ad
Ġor g
Ġlag ane
Ġcent ral
Ġpo ore
l ast
Ġa vo
Ġhu yi
ĠðŁ¤ ·
Ġkal a
Ġa waz
Ġna k
Ġja hil
wa hi
Ġt ut
Ġbad la
Ġaccoun ts
ĠW a
Ma ine
gust ing
us se
ll ig
Ġka isi
Ġbi ke
re w
Ġzi ada
Ha haha
Ġfe ar
A l
Ġw ild
Ġread ing
Ġse lect
Ġfight ing
Ġj ung
Ġcont ra
ĠO F
shi t
Ġcomp laint
N A
w in
.. !!
Ġbhar a
Ġsud har
Ġpol icy
ci ous
Ġp ath
Ġcha m
Ġab e
ĠS O
Ha ha
Ġrun ning
r oss
Ġbhar i
Ġa ath
hh h
Ġsha d
Ġinc ome
ĠK aise
Ġe mb
Ġnum b
Ġknow n
Ġsu koon
Ġvi bes
im um
Ġsi x
ĠDe cember
o ta
Ġban di
ĠT oh
Ġinclud ing
Ġnetw ork
Ġra aj
Ġ, ,
Ġmein e
Ġcl ub
I D
ĠK ha
Ġbow ler
Ġpart ner
at ory
ĠR ahul
Ġinter ested
Ġrepe at
eri ously
E E
sa f
Ġjan am
ĠðŁ¤ Ĺ
Ġcon v
Ġs ens
Ġsa ara
Ġsha mi
Ġad hi
le g
ue l
H ar
Ġra ja
Ġin hone
c her
Ġna da
ĠðŁĺ ĭ
pl ay
Ġwed ding
Ġs udden
Ġdra w
uj h
Ġpur ana
Ġhas hta
Ġins ult
Ġthr ow
Ġs ki
ta b
ðŁĳ İ
Ġyout h
Ġmuj hy
Ġo w
Ġdo ctors
Ġur du
Ġl ondon
Ġke e
Ġk ang
Ġi con
Ġl d
y r
Ġte a
Ġr id
Ġj aroor
Ġman tri
Ġhas i
ðŁĴ «
Ġbor n
Ġcelebr ity
b adi
x i
it ation
Ġdire ctor
Ġany more
Ġkahan i
Ġi cc
in ko
Ġya da
Ġd are
p at
Ġhand some
il ing
Ġgu zar
Ġfi g
Ġfal se
Ġgener ation
ĠC an
sha me
art ment
Ex actly
y ani
Ġno body
Ġpad he
ðŁĴ Ģ
ut va
N hi
o sed
ðŁĳ Ģ
Ġeas ily
Ġc ow
Ġact ress
k now
Ġsa za
ĠðŁĴ ķ
ðŁİ Ĥ
Ġk n
Ġdri ver
ee m
me di
Ġsha an
The y
Ġsac ri
Ġhad d
Ġhoja ye
S he
j j
Ġâľ ¨
Ġme mes
Ġwar ri
Ġma han
ĠD r
Ġtas te
Ġhig hest
ris y
ub arak
Ġd om
ĠM A
ch u
Ye ah
Ġepis odes
Ġbha bhi
an ki
ad he
Ġkab i
F ir
m am
ðŁļ ©
Ġban te
jp ut
Ġaaj kal
Ġkon si
Ġnat ure
Ġrespon sible
Ġdal it
ĠK O
Ġj ha
di o
Ġri ch
Ġho wa
Ġsaal o
v ar
Ġp de
Ġfa ith
Ġm ic
oo o
Ġvir al
Ġhum se
h ore
la x
Ġdar k
u kh
Ġre gi
Ġto do
Ġch la
wa an
Ġf lo
Ġqu ite
oh li
2 6
Ġdar shan
Ġpre mi
ðŁı» âĢįâĻĤï¸ı
ac c
Ġjis ki
Ġand he
Ġsab it
Ġmo h
Ġ3 6
po or
a uty
Ġparti es
Ġrep or
Ġjus tify
vi e
Ġfall ing
Ġma al
ðŁĺŃ ðŁĺĤ
ar k
Ġor gan
c ongratulations
Ġlo ts
Ġcl oud
Ġbhe e
Ġdiffic ult
Ġm v
Ġdes ign
ĠS an
Ġbud get
Ġexp ression
z za
ri be
oo f
Ġgo bar
Ġd oll
is es
Ġdo g
Ġpic t
ag al
Ġtu k
Ġud a
Ġma fi
Ġtreat ment
Ġc ake
Ġbey ond
ĠIt na
Ġban o
Ġleaders hip
Ġwrit ten
Ġam ong
Ġbes tie
us tice
Ġbhar ti
b h
it er
Ġpr adesh
Ġaw esome
Ġmar k
Ġsta ff
pe ople
ard asti
Ġak ad
Ġn onsense
Ġla o
Ġtrain ing
p ly
D il
Ġrom an
Ġseed ha
Ġthe at
ĠðŁĺ ĩ
Ġty m
Ġnik le
Ġplat form
Ġkh ub
Ġad min
op s
Ġinsec ure
Ġdekh ke
Ġsim ilar
S e
Ġv illa
Ġga ane
Ġwe ather
Ġinf lu
Ġtourn ament
Ġsho p
Ġbi k
si bility
Ġgo di
om g
Ġnikal a
Ġrah ta
Ġsur vi
on ly
Ġam it
as te
Ġan na
Ġpa i
ĠI ts
Ġproper ty
Ġre ve
T r
p ct
Ġfor got
al k
si gn
Ġr kha
Ġp ant
Ġr kh
ĠH A
5 5
Ġs ti
Ġcall s
Ġemplo ye
ĠSha mita
W a
Ġchi ef
Ġgol i
2 9
Ġfa iled
Ġthe e
Ġa verage
Ġsid ha
Ġbel ow
Ġsa heb
Ġinter act
Ġstr ate
r ab
ĠA L
Ġm ard
Ġlag ana
O O
Ġtou gh
Ġac cep
Ġpar liament
ĠðŁĺ ŀ
Ġlikh ne
Ġbecha re
Ġn omin
l di
S i
en gi
Ġdhan g
j al
ol i
Ġmom ents
Ġde dic
Ġbak waas
Ġdi esel
Ġinte llig
he he
istan ce
d an
Ġyada v
bha g
ĠN ow
na h
y our
Ġs is
as hi
Ġb ore
Ġhar am
Ġp ti
Ġfa it
Ġpuch o
Ġjhoot h
Ġcha ha
Ġma chi
ai gn
Ġclass es
Ġcorrup t
Ġdeli very
T S
f s
Ġprov ide
ĠB harat
Ġsat ta
Ġrish te
K han
Ġte xt
Ġshi ft
Ġkyo ki
.. !
ðŁĺ ĩ
tw itter
Ġgu est
J ust
ur ing
Ġlaga o
Ġfin an
Ġkind ly
Ġsar kari
Ġchi p
Ġna waz
Ġthi rd
Ġhoga ye
Ġrakh ne
Ġn cb
Ġut tar
Ġes i
Ġjin ke
Ġcent er
Ġbe h
Ġstri ke
ĠC on
be hen
Ġthink s
Ġr one
e es
Ġt at
ĠD M
ER E
Ġma at
B as
Ġspe ci
Ġlag ne
w ari
Ġprom ise
Ġaks hay
li er
Ġadv ance
Ġkis mat
Ġ _
ho od
Ġcent re
ðŁĴ Ĺ
Ġsugg est
2 00
Ġpict ures
Ġs ick
Ġl ord
Ġlisten ing
mad am
Ġha ven
Ġwrit ing
Ġe u
Ġs ort
Ġsub ject
Ġbec hara
Ġpade gi
Ġm ute
Ġra i
us hi
Ġdo bara
P lease
Ġna g
k u
ad am
Ġtri b
T A
ash mi
cess ary
S t
Ġle lo
Ġconf used
Ġbats man
Ġconf erence
Ġin ning
Ġnumb ers
Ġsad ak
Ġconst itution
n u
Ġre tire
s m
Ġb hen
pl s
j ee
O k
Ġa uth
Ġbir th
Ġtuj e
Ġcateg ory
bi a
Ġimpro ve
Ġ.... ..
or ities
Ġdo se
Ġa ese
er al
qu i
Ġchun av
t hi
ĠA P
Ġmar te
Ġp il
Ġaye gi
l ar
s ee
ce ll
ĠModi ji
Ġac ross
re ens
li ed
up er
Ġs ind
m end
Ġme ant
Ġst ress
Ġnik l
Ġmaj bo
ðŁĴ ŀ
Ġteacher s
yan ka
Ġl eni
Ġma e
Ġsha am
Ġvir us
Ġc ab
Ġla unch
c or
p yaar
Ġj un
K yun
Ġtak leef
Ġchem istry
Ġja kar
Ġsame er
Ġa o
Ġup d
v ent
Ġg um
Ġbal ance
h m
Ġra jput
Ġly n
Ġho kar
Ġman te
Ġg ard
ĠðŁĴ ª
ac hing
Ġal g
Ġjan ti
Ġfar q
Ġkis ke
Ġf ur
Ġpat ak
Ġc ous
Ġpur ane
ĠMa har
Ġm id
Ġj ala
Ġbac cho
ash t
Ġseri al
Ġno vember
Ġs kin
Ġcamp aign
em ic
ur b
Ġgl ad
O L
c ond
Ġm ot
Ġopportun ity
Ġa at
Ġd ai
Ġe id
Ġz aroori
Ġcompar ison
Ġo ct
ĠL ove
2 7
Ġd anger
Ġna ukri
ch or
ba at
O P
Ġse ats
Ġhar ass
itu al
Ġhealth y
Ġpr in
Ġjo bs
Ġdes p
Ġkha s
D o
Ġbi j
C C
Ġse h
Ġdis gusting
M at
Ġma ut
os ing
ðŁ¤Ķ ðŁ¤Ķ
ha na
Ġen e
Ġmath s
r ation
Ġb d
A llah
Ġcu z
Ġb da
is ation
Ġkya a
Ġnan ak
Ġremo ve
um bai
Ġstren gth
Ġm b
ĠT ho
Ġj yda
j b
ðŁ ĵ
Ġit self
Ġconcer n
Ġs hari
xy gen
ĠM eri
Ġh mesha
ĠH i
en g
Ġsun na
ĠðŁĺ ķ
eri al
ĠâĿ¤ âĿ¤
ch ha
Ġin a
Ġpoo ja
Ġps y
d k
Ġsour ce
Ġsp in
Ġco ffee
Ġmo i
Ġare y
Ġkah te
hin du
** **
Ġfoot ball
Ġun gli
ĠH E
Ġconne ct
Ġany way
Ġbuil d
Ġtb h
ĠW oh
Ġkhe lo
Ġlo ad
ction s
Ġaa k
e gi
Ġarg ument
.. ?
ok ay
k am
Ġa vi
Ġpadh ne
Ġdri ve
Ġhashta g
T ube
y ana
Ġ202 4
M eri
Ġga ana
Ġprac tic
ho ot
Ġexp ert
T w
Ġne ut
Ġst an
Ġsap na
Ġrece i
Ġcon vert
Ġraho ge
s ing
Ġdin ner
in dian
Ġse m
c key
Ġp he
ho l
ðŁı ¾
q at
Ġsa sta
Ġduk hi
Ġkha reed
sa ch
m n
Ġgo al
Ġdream s
Ġm ale
Ġmana gement
s ub
Ġbe auty
Ġsar kaar
Ġwal k
Ġ %
Ġlaug hing
Ġreg ard
Ġbar abar
Ġbeg in
w ith
ar na
S ame
ut anki
Ġz ameen
Ġj ldi
Ġa di
Ġkeh ti
Ġko un
tr ue
ar r
he ed
le y
ðŁ¤ ²
ĠD esh
Ġsoch ta
Ġbeha ve
E D
Ġj od
as ing
ol ice
Ġper man
Ġcar ry
y ari
Ġs ch
some one
ad han
Ġpeh ly
ĠA t
Ġo il
Ġrec o
is hing
ter a
Ġbuil ding
Ġka ya
ĠT hank
Ġz ab
Ġfl ir
Ġl ana
ni ght
Ġs hirt
Ġlat est
Ġab ba
Ġteas er
Ġba a
ĠK aro
Ġad mit
Ġuse less
Ġrepres ent
H i
Ġcould n
C h
H am
Ġhaf te
Ġha z
ĠðŁĺ ª
Ġinf o
H ow
Ġis nt
Ġrep lies
Ġsta dium
Ġreg ular
sha d
Ġmen tioned
Ġdho ka
Ġa us
Ġev ict
Ġro te
Ġdil a
T oh
Ġso che
Ġwa isa
Ġaz am
f ortun
Ġwe bs
ĠP ata
Ġtrib ute
gress ive
P ar
Ġha ng
Ġpa iso
Ġhypoc risy
Ġtar ha
Ġv ali
be ta
) )
ult an
Ġcha ir
Ġch ris
Ġom g
Ġkar va
Ġla ya
Ġhuman ity
Ġc ertain
Ġbas is
Ġkit chen
ĠA M
Ġal bum
Ġkro ge
Ġsu ic
Ġsurpr ise
Ġchall enge
r id
Ġsen ior
n n
de l
Ġspe cially
Ġbolo ge
Ġman o
ĠðŁĺĤðŁĺĤðŁĺĤ ðŁĺĤðŁĺĤ
t oday
Ġc ash
he e
Ġma afi
Ġcont rib
Ġmed ic
Ġlam bi
ĠN E
ĠB irthday
Ġhota y
Ġfam ili
Ġp ull
Ġidi ot
Ġad mission
haha haha
gar h
Ġlet ter
ĠLi ke
com ing
d esh
Ġs and
Ġb ero
Ġbha le
Ġbec ame
b ra
Ġex pected
Ġper mission
ðŁĴ ĥ
om o
Ġb ri
us ive
no on
Ġho a
Ġjo kes
Ġobvi ously
m r
m us
Ġwal ay
Ġwa ve
Ġconcer t
Ġnarr ative
Ġf lag
Ġpuj a
Ġdik hai
Ġgan ga
Ġsuppor ters
Ġroman tic
Ġcrimin al
Ġban ke
ĠN O
Ġar en
Ġup per
Ġdek henge
Ġsun te
Ġstra ight
Ġr ally
Ġkis ka
Ġdis respect
Ġrad he
Ġbha re
âĺ ¹
Ġne hru
rat ing
as ter
s b
en o
Ġmat t
Ġkha ta
Ġhoj ata
ĠC h
Ġtroll ing
Ġsil ent
Ġcra zy
s is
Ġra b
Ġenga gement
Ġna yi
P M
b it
Ġdig ital
Ġbehavi our
Ġsal o
Ġvir odh
Ġna man
Ġkam al
Ġra ce
W oh
Ġkar achi
Ġba hu
Ġtr uly
Ġda in
Ġba hir
Ġlike d
Ġim medi
ĠR E
ðŁĺ Ľ
ani es
Ġwal y
Ġelect ric
Ġexc han
ĠðŁĴ ĸ
Ġpre par
k itna
ha ar
Ġproject s
Ġse le
ĠðŁĴ Ļ
Ġwe ird
Ġkhan s
Ġ âĺº
Ġpr ide
Ġm ery
Ġto ler
Ġbas ic
Ġspeak ing
Ġt p
Ġki lling
D I
D i
p ra
Ġan i
s ad
ab i
Ġat temp
Ġk v
Ġmas ti
un iya
Ġkar di
Ġcon cept
Ġbad le
Ġacc ident
lag ta
A C
v ered
cep tion
T hanks
ĠT ak
Ġchee ze
Ġlo ge
us i
Ġreal ise
Ġcre ated
Ġnat ak
Ġbewak oof
Ġ X
lf riend
Ġwr na
t lb
Ġko e
Ġlo ving
Ġpar iv
tiv ate
Ġess ay
Ġperson ally
Ġcontin u
Ġj r
ĠG har
Ġtrans fer
Ġhat red
Ġtit le
Ġsa int
Ġwo ke
in ated
Ġpar ta
Ġsp end
Ġfan tas
Ġkyon ki
ĠSi kh
Ġjab ki
Ġcap ital
Ġpat tern
Ġc ode
Ġcol or
Ġchor o
2 8
Ġfa ult
Ġext reme
ab a
Ġgal t
at an
Ġf ateh
Ġshe tty
g ra
Ġqu ick
Ġpost s
ap na
Ġx d
Ġavo id
Ġho ckey
Ġche ating
Ġdo on
Ġ?? ??
is se
Ġhon gi
Ġsal am
Ġbacha ne
out h
Ġno v
ar m
f r
Ġa ani
ĠðŁ¤£ðŁ¤£ðŁ¤£ ðŁ¤£
har m
ĠB ang
Ġmachi ne
Ġt ick
Ġbad hiya
Ġpr ab
w ord
Ġreve al
Ġp ita
li fe
Ġbat ane
Ġe ast
Ġan no
Ġmain tain
Ġnika al
Ġdh yaan
Ġset ting
Ġmahar ashtra
Ġban ti
Ġl t
w s
ll u
ys is
Ġstrate gy
N ow
Ġo xygen
Ġyour s
Ġpolitici an
is ka
r ite
Ġlo ud
Ġpr aise
Ġsqu ad
ðŁ ķ
Ġg ana
ap ni
Ġsc ared
Ġb ard
ah le
ĠðŁ¥ ³
ĠK ohli
Ġjaan te
Ġtujh se
ĠðŁ ĸ
Ġdes c
Ġgad dar
Ġirrit ating
Ġpie ce
Ġn t
Ġsun ta
Ġ4 5
aa a
Ġcy cle
Ġchin ese
Ġki ck
Ġacha nak
Ġhe llo
Ġfr iday
Ġimport ance
Ġan ni
ol ution
Ġu k
Ġmir chi
ĠS hi
Ġas i
Ġmi x
Ġtab le
Ġr n
Ġex e
Ġpi zza
Ġpur ani
ĠRo hit
Ġp ane
Ġma ara
ĠA k
os sible
ĠðŁĶ¥ ðŁĶ¥ðŁĶ¥
Ġn os
ðŁĺ ª
ĠðŁĺ Ľ
Ġkhila af
t hen
Ġas ar
f rom
Ġja unga
Ġmat lb
Ġtra ffic
Ġfix ed
E l
Ġkar un
Ġkab ir
Ġwe b
Ġsc reens
ĠYou Tube
ad y
Ġwho m
Ġwind s
Ġil a
Ġpand emic
L i
Ġnikal o
Ġka dam
Ġtop i
Ġka k
Ġnat ural
T ujhe
Ġbhe jo
har ge
vi ous
Ġpah uch
Ġas sign
Ġad vert
ðŁĺ ŀ
fic ation
Ġequ al
Ġg d
it es
Ġrec om
all u
Ġre lax
Ġz ar
az a
Us ke
Ġton ight
an ti
Ġdo o
Ġpro vid
la al
Ġpr ices
Ġjo sh
Ġreason s
Ġsugg es
ro g
Ġbot tom
ĠðŁĶ¥ ðŁĶ¥
Ġf light
Ġart ist
i ka
bi es
Ġgad ha
Ġf ly
Ġ5 6
ma cy
Ġja u
Ġchu ti
pe ctive
Ġstop ped
Ġnas eeb
Ġa kh
le ted
O hh
Ġy ang
Ġdi ed
Ġam mi
tw eets
Ġab h
Ġpa aye
Ġvis ion
! ?
Ġsa di
as a
Ġdekh kar
as ure
Ġcomp anies
U S
ĠK ash
Ġamer ica
Ġp ub
Ġghal at
G o
Ġfin ale
Ġv ai
Ġf ill
wa ab
Ġro ck
Ġna utanki
ĠT V
Ġfe min
Ġhe av
Ġhua a
Ġbas h
Ġgal e
Ġevery day
ðŁĺ¹ ðŁĺ¹
Ġgho om
ish ment
Ġb ic
Ġbr ought
Ġdikh te
Ġvic t
our s
ide o
Ġwork ers
Ġva ha
G u
Ġm ill
Ġcal m
Ġre du
Ġnhi i
ðŁĻĤ ðŁĻĤ
Ġafter noon
Ġak hir
Ġpar h
wa isi
Ġsh or
h mm
Ġba qi
Ġpas te
Ġev idence
Ġn one
Ġle gal
ya hi
pt op
Ġl unga
Ġda ughter
Ġri z
0 5
ag ta
di k
Ġla ugh
âĿ¤âĿ¤ âĿ¤âĿ¤
re al
Ġin tention
ĠðŁ¤ ¡
ĠV irat
ðŁ¥³ ðŁ¥³
v is
Ġeff orts
ya s
3 6
N e
Ġcontra ct
Ġf c
Ġpho ol
Ġn al
Ġsit ting
Ġj ub
Ġki u
li ve
Ġm ubarak
Pe hle
Ġb un
Ġman ta
ĠU V
Ġindivid ual
A isa
Ġkara ar
ĠAN D
le ge
Ġsha k
ðŁĩ µðŁĩ°
Ġstand ard
Ġn is
Ġkr ishna
Ġdekh lo
ĠEng lish
Ġho i
Ġpe hen
d is
w adi
Ġglo bal
ĠðŁĴ ¥
Ġrakh ta
Ġcitiz en
Ġment ality
Ġka an
f il
ur day
ĠðŁ¤ ©
Ġsha hrukh
ĠðŁĩ µðŁĩ°
ga in
im ran
Ġga war
ary an
us and
Ġchan ces
Ġpay enge
Ġv ah
Ġment or
Ġhol iday
Ġsuic ide
Ġa ug
li z
w ale
Ġj hag
Ġma ze
Ġus si
Ġunderstand ing
te xt
Ġeff ort
Ġswa g
__ __
B c
Ġhonest ly
I ts
d h
Ġp us
for table
ĠHo ta
Ġf ile
Ġaa cha
Ġrec ently
Ġbna ya
Ġval id
ali an
Ġke pt
ĠK HAN
Ġta aki
Ġsche me
m ari
Ġli kho
Ġful ly
ĠA isa
Ġim m
G uru
Ġw ak
Ġde e
Ġcho col
Ġ7 5
Ġbilli on
Ġwebs ite
ðŁ¤ ŀ
ot ing
4 9
Ġuni verse
s os
Ġang ry
ol ogi
c ongress
Ġm la
Ġfl ow
c our
ap er
Ġka shi
Ġlag ata
Ġtwee ter
T H
ĠM r
Ġak ki
Ġroad s
Ġtrad ing
Ġti ger
Ġbhe ek
s ho
he in
Ġto i
Ġo u
Ġcr ow
Ġrec ent
Ġpunjab i
modi ji
Ġstrugg le
Ġrom ance
Ġd it
Ġlove ly
Ġdun ya
Ġedit ing
Ġap nay
Ġras ta
na i
Ġgir a
Ġany ways
Ġmu g
Ġha ck
Ġman ip
Ġins hallah
Ġfe es
Ġl ane
D S
Ġn om
it ish
Ġla ye
Ġmo uth
ĠL A
Ġkh rab
oo oo
Ġschool s
Ġdist rict
Ġto ile
AT IK
ðŁĺĶ ðŁĺĶ
a e
Ġshi vi
j un
g ur
Ġimp act
Ġson y
ĠðŁĺį ðŁĺį
Ġdal al
Ġwin ter
Ġdec ided
Ġtal ks
Ġcitiz ens
Ġka d
Ġkis ano
bhai ya
p re
Ġgu ide
li x
wa j
Ġje ene
en ing
ab h
ĠC H
ĠU ni
Ġwonder ful
p c
Ġb il
Ġcho do
Ġad s
Ġf ing
Ġfir se
Ġdik he
Ġhog ayi
Ġdra g
Ġsa ja
Ġkaun sa
Ġbul aya
Ġmar ta
ĠSh ri
Ġsa wa
Ġ3 1
Ġjeet na
ĠPakistan i
Ġwe ar
Ġp oss
Ġna mes
b ir
Ġm ort
Ġv an
Ġze aland
app u
Ġmal oom
de kho
Ġhind utva
Ġdikh ti
Ġkha as
ĠC han
Ġannounce ment
Ġho y
Ġwa g
ukri ya
Ġz im
Ġji o
Ġparticip ate
ĠT ha
w k
Ġk inda
in o
Ġde vi
Ġbad nam
Ġbla h
J e
ðŁĺĴ ðŁĺĴ
Ġka poor
Ġmiss ion
4 8
Ġy an
Ġlaga ye
bb y
Ġkha a
ĠðŁİ ī
Ġdep artment
Ġw ise
Ġat tra
Ġis si
ha le
Ġp ul
Ġrecom mend
di date
Ġv eri
Ġdhe ere
Ġl unch
ke en
Ġcha chi
Ġpa g
Ġde fe
Ġjo di
Ġhm ari
Ġ15 0
Ġbelong s
Ġja ya
Ġper cent
ĠNA HI
Ġsam bha
Ġus a
gg er
Ġt es
ric a
ĠP ak
Ġlag ate
ant ly
ĠN ishant
Ġsun dar
Ġand olan
ĠP l
Ġpad ti
Ġjoin ing
Ġr oll
Ġka ch
Ġfur ther
vers ary
Ġsimp ly
Ġmud de
Ġsex y
Ġpe hele
Ġaak hir
Ġla in
ĠA sim
Ġsk y
b est
t hin
lo ok
ðŁĳį ðŁĳį
and e
Ġpower ful
Ġr ude
Ġas h
Ġstar s
Ġar ab
Ġaf sana
um ents
Ġmana ger
ot o
Ġref und
Ġk un
Ġmon day
res sed
Ġje ena
Ġde kar
Ġres ign
Ġgir lfriend
Ġbene fit
Ġrep lace
ghan istan
Ġfix ing
Ġrespon sibility
Ġb je
Ġe mer
ke ep
ol a
ĠB HI
Ġsudden ly
Ġlg ti
Ġback ground
Ġhum ble
po sed
Ġevery where
Ġexpect ations
Ġka henge
os ter
ĠN i
Ġboy friend
ðŁ¤ ®
Ġawa az
Ġt ickets
Ġ8 3
Ġjin hone
Ġay enge
f l
Ġkis ki
L Y
ĠS olar
ci es
Ġchi j
Ġb re
ya ha
In dia
ĠF OR
Ġapp lic
Im ran
Ġbut ter
Ġti ght
Ġar ri
Ġ9 5
Ġsing ing
0 1
Ġad at
ĠPR ATIK
y ment
Ġpr at
Ġla ptop
Ġpa ar
Ġdef aming
ðŁĶ ª
n iti
ar ay
Ġmil ke
Ġs ite
Ġkr en
gh ter
Ġlikh te
ad ar
Ġgrow th
Ġs mo
al so
Ġkar ra
Ġâľ ħ
Q ue
Ġbur ai
K aise
p ta
le gal
Ġwhe ther
Ġne y
ĠðŁĺ ĵ
Ġshar ing
Ġsol di
Ġbe the
ast ar
ug ur
Ġbreak up
Ġi q
Ġag er
Ġinde x
ri ble
end ed
Ġ201 8
V ER
ĠT here
Ġmat ure
bo ard
v ation
ĠNa hin
J a
ðŁ ¦
Ġke ya
Ġtari ke
ĠSir f
e h
Ġam i
Ġdep ression
Ġblo cked
Ġsang hi
Ġgo a
Ġban ata
Ġgu aran
en ess
ĠðŁĺħ ðŁĺħ
ĠSha h
Ġla hore
Ġinf r
Ġa st
Ġg ee
Ġcan didate
Ġhu ya
ðŁĺ ±
Ġmo on
Ġhone y
OT A
Ġkare ge
ĠðŁĺģ ðŁĺģ
Ġtho usand
ĠJ ay
Ġladki ya
s al
Ġp ump
Ġwor se
ent le
Ġrhe ga
ĠA S
Ġsecular ism
st an
Ġto da
Ġu g
g har
ĠA B
sha h
mar k
Ġy un
Ġbad naam
Ġdoos re
Ġear lier
on ment
U P
Ġyar r
Ġwarri or
Ġpre m
P ata
S ome
g od
as im
Ġche z
est ing
Ġu ff
Ġak hilesh
Ġmin s
Ġr hta
Ġto ut
Ġf our
Ġse lection
ka an
Ġsna ke
Ġz aruri
Ġag li
Ġhar m
ðŁĳ Ī
Ġperman ent
Ġv il
ĠB E
ĠS p
Ġban n
Ġbe ar
Ġbhag waan
ðŁĳĩ ðŁĳĩ
Ġb urn
Ġis pe
Ġle gi
Ġmo ti
B a
m ene
us ko
ol itic
Ġserv ices
Ġprofession al
Ġlear ning
Ġras hid
Ġho ly
ĠChi na
Ġpl ot
Ġsup re
Ġsat is
g astar
ven i
ðŁĩ®ðŁĩ³ ðŁĩ®ðŁĩ³
Ġvilla ge
S orry
Ġi phone
Ġti k
c ase
ha di
Ġa se
Ġl ee
Ġf la
Ġma are
Ġcr inge
Y ar
Ġk ata
ĠVI P
Ġman ga
Ġanal ysis
Ġla a
Ġneut ral
Ġwa ke
Ġwin s
Ġha ll
Ġaar am
A pp
ðŁĻıðŁĻı ðŁĻıðŁĻı
Ġtari f
Ġman e
Ġgy m
l ines
** *
Ġr um
ðŁĺ ĵ
Ġi ce
Ġspeci fic
un ke
Ġz or
Ġpha se
Ġswe ar
ĠðŁİ Ĥ
Ġkar ain
Ġas al
Ġmin ority
Ġislam ic
ur ya
Ġun hi
p ut
Ġinvol ved
Ġvac ancy
Ġbal ki
Ġdub ai
Ġdew p
ja ise
Ġgl ass
Ġobs essed
Ġfamili es
Ġbta ya
ĠB har
ha ve
id en
hi m
Ġli es
id es
Ġmana ge
Ġto wn
Ġan kh
Ġkr ip
l ate
Ġga a
Ġoppos ite
am ir
ĠS H
Ġmilli ons
ĠKh ud
Ġpro ved
hum ar
Ġ2 000
Ġle in
mp le
Ġkhal istan
ul ad
Ġbul ly
Ġre ject
Ġwe ight
Ġpur pose
Ġob c
Ġga on
Ġpar tic
Ġkis si
Ġnikal ne
Ġcir cle
Ġf ol
Ġja in
tic s
ic an
Ġmat erial
Ġun ne
ition s
w ala
Ġsho pping
ĠðŁĺ ¥
ard ar
li ghts
Ġla un
Ġpati ence
Ġpit ch
Ġsun ny
Ġga u
ani yat
Ġd at
Ġknow ing
Ġvacc ination
Ġkid har
Ġinning s
Ġj ama
Ġsa chi
Ġbana ke
ĠMat lab
A ll
Ġhi l
Ġgu il
ru ction
Ġhm ara
Ġk ush
ĠðŁĺ ¶
Ġr ic
ura v
Ġup on
ĠE ven
d ra
Ġz al
Ġg ender
Ġpres ence
Ġb hat
os i
Ġcon du
I G
Ġaa kar
Ġpre vious
Ġdirect ly
Ġdun ia
Ġdal o
Ġsaf ar
f lix
ici al
m me
Ġj ind
Ġpa ck
Ġjo hn
Ġ3 3
w ill
Ġac tions
ari es
Ġaf fect
ðŁ¥° ðŁ¥°
ĠT E
Ġali ve
Ar re
Ġbn da
Ġtr h
Ġf ame
Ġv en
Ġz one
Ġspe lling
Ġpre fer
Ġran ge
B o
I ON
U mar
so ci
ĠHind us
ĠN hi
Ġpuch na
F or
Ġmer ko
Ġinte zar
Ġdisappo inted
Ġhar yana
Ġpo ol
Ġra ise
' .
ĠM il
Ġtal ented
s w
Ġdeser ving
Ġshab d
ĠK is
Ġpos ted
Ġdub ara
ĠS S
Ġwor ship
Ġladki yo
Ġk in
in ing
as ta
Ġdiv or
Ġse ctor
Ġsikha ya
Ġbir yani
Ġsche du
Ġl gi
Ġame en
Ġina ugur
Ġexchan ge
Ġba han
Ġja ag
ĠB ha
ast ha
ðŁĺĿ ðŁĺĿ
B i
Ġbo und
Ġrup ees
Ġap art
Ġimp ossible
W ow
Ġc ul
ck en
ĠW aise
ĠU N
u ff
Ġwas h
Ġcomm ission
Ġhora ha
ist ration
Ġshi va
Ġcelebr ation
ro te
ĠY ogi
Ġc b
Ġfin ish
Ġterror ists
Ġinvest ment
igh b
Ġfr esh
Ġbha kti
. ?
day s
Â© Â©
Ġtra h
Ġnara z
Ġreali ze
Ġcrack ers
ĠðŁĴ ľ
Ġand er
Ġpublic ity
Ġpadh na
Ġu v
Ġvic har
Ġa ulad
Ġun ited
ĠS HA
Ġbha d
ĠY our
Ġmus k
Ġheav y
Ġj ump
P akistan
Ġaff ord
se c
Ġpla ces
Ġfinan cial
Ġh rs
Ġin sa
Ġsi g
bo x
ER S
Ġsun e
ĠKash mir
Ġsupre macy
Ġg entle
Ġher self
al y
he art
Ġja yada
Ġfe at
Ġjat y
Ġimp le
Ġpat hetic
Ġcar es
mp lo
Ġsa kh
Ġval o
Ġgold en
Ġspir itual
Ġbe hn
Ġmarke ting
ĠB an
Ġ9 8
ĠðŁ¥º ðŁ¥º
Ġpr as
Ġdemand s
Ġolymp ics
g in
ĠK yu
3 4
Ġt ata
Ġye a
shi ps
ðŁ¤Ń ðŁ¤Ń
u ted
Ġa ud
Ġch ura
Ġsar cas
Ġstar ts
break able
Ġo di
Ġsi ze
Ġpeh chan
Ġf er
ĠP a
Ġent er
ĠKa un
Ġpariv ar
ĠC r
Ġbij li
Ġl an
Ġti red
3 1
Ġra c
Ġre tain
ĠðŁ ķ
ĠA ks
Ġpak da
Ġide as
rip tion
l adesh
ĠðŁĺĤ ðŁĺŃ
Ġpad ho
ho pe
Ġga adi
Ġuni que
Ġp ers
Ġup set
Ġjan ab
Ġfais la
ma ke
Ġsup ply
Ġ201 7
Ġbad ly
ĠW or
Ġham ne
und red
Ġref er
Ġsuppor ted
Ġfor ces
Ġcon text
Ġorg ani
ĠT L
Ġcir c
ĠD O
ĠDe kh
ac che
Ġk no
ĠðŁĺ ł
ul m
Ġchannel s
Ġj indagi
se y
Ġmulti ple
Ġli khi
ir y
Ġ4 00
Ġame er
E n
p ass
Ġkis ine
rap hy
Ġshari f
k ate
Ġle kr
o ber
er ve
Ġde ew
Ġbro ken
Ġpat ri
Ġear n
?? ???
o bs
Ġkar ty
Ġe mail
w ana
Ġjan kari
Ġk ud
Ġsab ne
Ġanni versary
Ġun n
Ġeduc ated
Ġni h
Ġbig boss
Ġslow ly
m iss
fortun ately
Ġk hara
tim ate
ðŁĺĬ ðŁĺĬ
Ġpe ak
ĠC ho
Ġsup posed
Ġche hra
Ġchan ges
Ġinvestig ation
ĠA AP
Ġshame less
um my
Ġis te
Ġpartic ular
Ġconf usion
U E
har y
Ġd hi
Ġwor ked
Ġdost on
z er
Ġsing er
Ġtur ned
Ġjan nat
Ġrec harge
Ġsti ck
Ġdikha ye
Ġfail a
Ġhe he
Ġreg ret
Ġa q
Ġlad ko
Ġself ish
Ġpl ans
ub er
f its
Ġun breakable
Ġdik hega
Ġbowl ers
Ġf u
Ġaam ir
Ġpd ta
ha in
ma x
Ġhur ts
Ġbigg er
s k
Ġda ar
on ce
ab us
Ġwould n
Ġapp o
vir onment
Ġse par
Ġtechn ology
Ġcha ye
Ġac ade
Ġguj arat
N E
j in
Ġja ayenge
Ġni bha
ci a
Ġfl at
Ġinv ite
Ġdist urb
Ġpy ari
it ary
si b
stand ing
Ġnish u
Ġkrip ya
K yu
d om
Ġsawa al
0 3
Ġbha ga
Ġinte zaar
Ġpate l
U L
Ġi z
Ġbrother s
p ati
Te ja
IA Z
p ak
Ġdr ink
Ġfail ure
We ll
Ġtoile t
Ġg or
Ġya ll
Ġa in
Ġz ub
Ġad h
Ġvish was
ĠR IAZ
ðŁĴ ļ
ĠE n
Ġes ta
don o
Ġya keen
ĠB en
ĠAl so
ve y
ĠK E
man y
Ġcr ores
K h
in ter
Ġha hahaha
Ġv ese
ent o
ĠP at
Ġ3 7
ĠW hen
Ġtrend s
Ġbach he
ðŁļ ¶
Ġit i
Ġp ow
ĠT R
Ġras te
Ġaa gaya
Ġ3 2
Ġil legal
r t
Ġha re
Ġro op
ĠPe hle
p os
Ġhar kat
ðŁ¤¦ âĢįâĻĢï¸ı
Ġsha ms
Ġg adi
Ġcha a
Ġaz adi
Ġrele ased
Ġpar k
Ġke wal
n ath
Ġas se
Ġfi ve
sp ir
cell ent
k it
Ġk esa
Ġp k
ĠT hanks
Ġbl ast
Ġfor t
Ġag ent
Ġteac hing
Ġimmedi ately
d en
Ġne ighb
ma al
Ġdho ond
J is
Ġj ani
Ġsan am
Ġabb u
b aki
Ġa or
Ġdeli ver
Ġe lim
HA T
B s
Ġw ays
Ġwe aring
ci as
Ġpeh lay
Ġloc ation
ĠT eri
Ġlos ing
ES T
Ġho u
ga ar
Ġexist ence
Ġbate in
ĠBol lywood
Ġb is
Ġcr ash
Ġinspir ation
Ġk g
Ġna wab
Ġga p
ĠH is
ĠR A
ka ha
ðŁ¥ ´
P L
ðŁĺ ķ
ll abus
Ġla i
ok es
Ġraj niti
nee ti
Y E
Ġlo ver
Ġop tions
di e
Ġport ray
Ġme ga
Ġpa c
Ġhe ight
Ġst ats
Ġv in
Ġbaat on
ish ra
Ġcine ma
Ġkha o
ĠO ne
Ġo o
Ġid ent
Ġconf use
Ġbho ot
Ġm me
Ġd omin
bo y
Ġpari war
Ġc mo
Ġr are
Ġas if
Ġgard en
Ġma il
ĠW E
âĿ ĵ
Ġvap as
al tu
ĠGo vt
Ġj ari
In ke
d ha
op er
Ġrecord s
ro ke
Ġtweet ing
ou ble
ĠB hag
ĠP rime
mag ine
Ġmujh ko
bus ter
Ġan j
ĠBa at
Ġg ak
ic ky
ur ope
Ġpa ap
Ġpap ers
ĠD iya
Ġloo ked
Ġch ha
era j
Ġduk an
- &
r ated
s pe
Ġj esi
Ġcous in
Ġface book
8 4
ak ta
ĠT ime
Ġpro gress
illi ant
Ġj hel
Ġad ani
Ġdesp ite
p ad
wa ah
Ġzal eel
Ġro ka
ĠE very
Ġend ing
Ġmind set
Ġvict ory
Ġs now
Ġc os
ur r
Ġmar ch
Ġdes i
5 00
um an
Ġcharac ters
Ġg in
Ġas ha
Ġsho ut
Ġtere ko
Ġmem ories
K aran
d m
Ġwhe never
U CH
Ġbaar ish
Ġo hh
os er
Ġn ir
ĠA re
Ġkat rina
Ġsee m
Ġker na
Ġsuper star
Ġdiv ya
T here
z indagi
Ġst reet
ĠH y
Ġam ma
Ġexc use
ĠA mer
Ġpost ing
Ġan xi
ma j
Ġterror ism
Ġbrah min
Ġhis sa
Ġva ar
jj at
f ast
k l
Ġk bi
Ġsun i
Abe y
Ġciv il
Ġt bhi
Ġkar ane
ge l
to o
Ġans w
Ġpatak he
m ant
ĠK ia
Ġindi rect
Ġaw ards
Ġk and
da ar
Ġshoot ing
mo od
is me
Ġra g
us hant
Ġof ten
Ġji had
Ġut ni
pan ch
Cha lo
di di
Ġti ps
ðŁ¤Ĺ ðŁ¤Ĺ
b lock
Ġs ena
ĠG en
Ġaf gan
Ġsen ti
as ion
Ġch ur
Ġmar ry
Ġsol d
Ġlad ies
Ġkre gi
Ġnikal na
Ġv hi
Ġco vid
K isi
Ġlo wer
Ġreel s
Ġen vironment
Ġpot ential
Ġmanip ul
Ġp c
ĠL et
Ġlage gi
Ġsound s
Ġkri pa
Ġkh ule
ai b
Ġball s
Ġg n
ĠðŁ¤ ª
ĠS P
Ġchal ane
Ġgu z
er ry
al u
al at
Ġja wan
Ġamb ani
Ka un
G A
on al
pl es
Ġchocol ate
Ġna gar
Ġfig ure
di ans
Gu ys
Ġd ari
Ġin ch
am an
Ġfun ction
Ġbt ana
Ġdanger ous
u i
Ġhog yi
l or
Ġse a
ri ya
Ġag gressive
Ġladki yon
Ġtor ture
Ġquali fy
ir es
Ġhold ing
Ġin ches
Ġz yaada
Ġq ki
J ai
Ġcoun ter
me an
Ġun less
Ġsp ort
az i
S P
ðŁ¥ Ģ
f ty
Ġw rote
Ġdir ty
Ġjit a
Ġdef ence
Ġsna p
Ġhig her
Ġcont ro
ow s
ĠD IL
m c
Ġcon ver
Ġdhar ma
Ġara ha
Ġicon ic
r oll
Ġresp ond
Ġsur g
Ġkhil adi
s at
Ġident ity
Ġbole gi
Ġsa h
Ġep i
Ġinf lation
Ġemploye es
Ġte ach
Ġsol os
B ahut
L og
d ont
Ġhm m
Ġan uj
Ġbar ish
Ġhote l
Ġgar am
Ġh undred
Ġit v
Ġti ka
act ually
Ha wa
po int
aap ko
AY A
Ġmove ment
Ġa ri
Ġsi kho
Ġbas ically
Ġfollow ed
Ġrh te
Ġtha pp
Ġsal ute
Ġsu ar
Ġover s
Ġaut o
W ah
od a
Ġbit ch
Ġp ending
Ġcloud y
L ove
ðŁĴ ĵ
Ġst rict
âĻ¥ âĻ¥
Ġn ind
Ġha zar
Ġsp am
He y
Ġg hat
0 2
he sh
ĠA m
Ġcrow d
i er
Ġsa u
Ġst ore
Ġmaha dev
Ġdham ki
w ani
Ġcha pp
Ġdo ob
ĠM P
K ab
s ure
Ġ5 5
mat ch
He llo
Ġcor ner
ðŁĺ £
Ġnak li
Ġjaan ta
Ġhar kate
ðŁĺı ðŁĺı
Ġld ki
ĠH appy
Ġila wa
Ġcong rats
Ġcricke ter
Ġj or
Ġumm id
del hi
Ġk esi
Ġor d
ĠB A
Ġsy llabus
Ġsurpr ised
Ġjay en
ĠMahar aj
IC E
Ġt ree
Ġsa ving
Ġidi ots
Ġshow n
vern ment
Ġspread ing
h ne
Ġlo on
ĠC or
Ġpand it
ad ing
ak hand
hr am
Ġcl ot
Ġnya y
Ġbaat o
Ġkon se
Ġla at
Ġbas hing
0 4
la ck
Ġdel ay
ĠNa am
Ġhi de
Ġkhat re
g reat
y d
Ġv ida
Ġla ck
Ġ( )
Ġshould n
,, ,,
u x
Ġchal ne
Ġ7 2
Ġde de
Ġhas san
Ġdikha ta
Ġka and
... ?
Ġsa man
ĠW ho
Ġide ology
fin ally
re m
Ġaag ya
Ġpich he
v it
Ġlo ose
Ġpa oge
Ġupd ates
u kar
Ġjud a
Ġmod ern
h un
Ġc ream
Ġj humar
Ġbath room
b har
ri di
Ġgham and
C om
Ġfa ire
Ġstrong est
Ġinc om
Ġha at
Ġkar ay
Ġam o
tum hare
ne xt
Ġi jjat
Ġtur ant
Ġesta bl
Ġhear ing
Ġput ting
Ġment ally
the se
Ġaw are
is liye
Ġid hr
it ya
ĠS at
Ġcap tion
Ġkhus i
tho ugh
Ġjo y
Ġobs erv
Ġdivor ce
Ġma cha
ĠC o
Ġ3 4
Ġmake up
Ġphys ics
ĠðŁĺ £
ĠK AB
ai k
Ġrep lied
Ġtej as
ĠðŁĻĦ ðŁĻĦ
Ġpati ent
Ġt un
Ġstand ing
Ġd or
Ġw es
Ġkhud ko
ĠðŁĮ Ŀ
V o
d es
ĠK ap
ĠI D
Ġaga ya
iti vity
Ġcu tie
Ġb ought
Ġaf sos
p adh
us hal
Ġus ual
Ġchal na
Ġdestro y
Ġtheat re
7 5
Ġka ash
Ġhe a
Ġ9 3
Ġsa ans
Ġma aro
ĠðŁĳ ĳ
b ur
Ġk ali
us ka
Ġmir ror
g ill
Ġd ill
ðŁĸ ¤
wa it
Ġb ree
Ġun ity
Ġpa hu
Ġdes per
b in
at ors
Ġmet ro
f ice
Ġha se
ĠL iye
Ġna she
ĠT ujhe
Ġter ms
Ġsent ence
Ġw t
as tic
up ta
ara chi
Ġli ps
illi on
Ġow ner
â ļ
Ġthe ory
Ġse lling
ĠM on
Ġsha ll
Ġfr an
Ġjin he
Ġkashmir i
s r
ĠB aki
Ġattemp t
Ġintellig ent
f ull
Ġacc ess
Ġus er
ro vert
Ġkeep ing
Ġli y
Ġbreak ing
Ġsmj ha
Ġap ologi
st ood
Ġchi cken
Ġlea ving
Ġlyn ching
Ġgo als
ĠO f
Ġrah na
Ġsaf ety
um a
!! !!!
Ġkhar cha
Ġkho ob
Ġud d
Ġachieve ment
3 8
z ing
Ġman ge
Ġintr odu
Ġs or
Ġup r
Ġanno ying
s eriously
or able
Ġf ati
le e
ĠA ny
Ġbh u
Ġâľ Į
Ġas soci
ĠðŁĳ İ
Ġfor mer
Ġach y
Ġoffic ers
0 6
ĠK at
Ġmedic ine
Ġl one
Ġr adi
Ġkis aan
Ġmar r
Ġjay da
Ġflir t
Ġus ually
Ġpl ays
ari an
f ree
o on
ĠH indi
Ġcr u
Ġopinion s
ĠNew s
Ġindepend ence
Ġh Pa
rah ul
Ġbol iye
ition al
Ġmag ic
Ġh h
Ġp od
Ġkarta y
Ġsol ar
Ġstream ing
Ġbecom es
Ġbecom ing
Ġchal ana
T ho
Ġhindu on
Ġrah ne
Ġyu va
Ġbha ut
Ġuse y
Ġpre cious
Ġhypoc rite
and ar
Ġ4 8
Ġchup a
Ġt t
Ġdam age
g ali
re ally
Ġkha ye
Ġlad ne
Ġja enge
Ġmotiv ation
y n
is ke
Ġd wara
Ġchale gi
Ġself ie
Ġbuy ing
an ak
Ġmo s
Ġwit ness
Ġf ed
ite ment
a ww
Ġski p
M ay
Ġch hor
Ġraj ya
: )
W ho
Ġsa ved
ta kes
id ge
ja o
Ġcr is
Ġkeep s
ðŁ¤¦ âĢįâĻĤï¸ı
ĠMus lims
Ġki i
ch on
Ġfor ced
Ġwho se
ek ho
Ġup coming
Ġcomp lex
Ġ8 5
Ġjas min
ðŁĺ ¶
Ġe ating
Ġfund ing
Ġti p
Ġschedu le
ĠE K
ham are
es tic
Ġj ali
Ġna ag
Ġan chor
ðŁ¤ ¨
Ġexp osed
ko ut
ĠV i
sha mita
Ġsur r
Ġchapp al
m os
an ga
or at
Ġka dar
Ġrahe y
Ġbaha na
Ġgal a
he er
Ġsar di
Ġbree ze
R a
Ġjaaye gi
Ġchris tian
Ġo d
Ġevery time
be cause
Ġfi kar
n on
Ġr ation
Ġhope fully
ĠG u
Ġp up
at ch
Ġte x
Ġch h
Ġrel atives
Ġ__ _
Ġspir it
Ġrecei ved
Ġmus kil
It ni
Ġbuil t
H ind
I ss
Tw itter
Ġap un
und o
va ar
Ġlam ba
g ari
p ic
Ġg ate
Ġsa hara
Ġaj ay
ĠS al
Tum he
Ġvacc inated
f inal
k idar
Ġv m
Ġhe ld
Le kin
el come
Ġscreens hot
ĠðŁĺ ´
Ġind eed
C T
j ha
j eet
Ġsp l
Ġwal l
ĠG O
Ġbec hari
Ġpde ga
tern al
Ġaug ust
Ġr ise
Ġcor por
Ġang re
Ġm es
Ġab dul
Ġcho se
Ġshow ed
Ġsu gar
Ġkhar ch
hu tiya
Ġpah unch
z or
Ġt ee
Ġliber al
L O
Ġde ge
Ġceleb rating
ta y
b tw
Ġja at
Ġsecond s
Ġgir i
Ġres ol
Ġcomment ing
Ġchl ta
Ġgenuine ly
Ġd istance
Ġblock buster
0 7
A f
Ġj es
Ġreturn s
Ġl un
Ġwa alo
mat es
Ġsaf ai
Ġle cture
Ġpl ate
Ġve g
Ġrepe al
Ġdire ction
C an
Ġt in
Ġo l
Ġkr de
ĠC he
Ġav g
ðŁĻĪ ðŁĻĪ
Pr atik
li f
Ġmahi la
Ġban ayi
Ġsacri fice
ra el
ess or
ta g
Ġr os
Ġkha ane
ðŁ¥² ðŁ¥²
k hand
Ġmo ta
Ġmas oom
Ġwar m
Ġra hiye
Ġchar ges
Ġy t
âĿ¤âĿ¤ âĿ¤
ĠSahi b
ĠA a
Ġsun ke
ĠI M
ĠB C
Ġsha heen
Ġche hre
Ġsuffer ing
f c
k abar
ON G
4 6
km h
Ġaankh on
um b
Ġsure ly
j as
j ana
Ġl ala
Ġbhai jaan
lo ved
Ġbless ings
p ay
ĠM umbai
ac es
Ġpur cha
gen cy
Ġne i
Ġtemp les
Ġhigh ly
Ġw ing
Ġdus ron
Ġenjoy ing
ac ity
ĠL ondon
Ġg usse
Ġge m
Ġhigh light
Ġriz wan
v ant
Ġy og
Ġvo us
ĠðŁĴ Ĳ
Ġbet ha
fa ke
Ġmu ft
Ġharass ing
ght y
o ye
Ġjhut h
Ġc au
ay an
Ġlar ge
Ġpeace ful
Ġsleep ing
Ġmun h
p erson
Ġwor ried
Ġinte l
Ġdhan ya
k itne
ðŁ¤§ ðŁ¤§
am s
Ġopen ly
sab se
Ġsac hin
Ġah med
it o
Ġall i
Ġvi be
Ġsen sible
E very
er c
Ġli f
Ġthank you
Ġcli ps
Ġfrustr ation
f all
Ġfi ghts
ĠðŁĵ Ī
Ġre a
Ġblo ody
Ġwrit er
it esh
om en
Ġpre t
Ġp hil
Ġun like
Ġinflu ence
Ġkit a
Ġbata iye
Ġut ne
Ġback up
Ġaudi o
b oo
m ine
Ġme ter
Ġso c
Ġ19 9
Ġeconom ic
De ar
v in
ou ps
Ġgut s
oh n
Ġbach che
cour se
ri min
Ġal ot
urs at
Ġad op
ĠU r
Ġprodu ction
i ze
Ġtime line
Ġshe s
Ġs ultan
Ġhu va
p ot
Ġfe llow
Ġclo sed
ĠLO VE
Ġ201 6
7 1
ĠC l
Ġcl ari
Ġth u
Ġchho ti
for ms
Ġutha ya
p y
Ġnikal te
Ġba ji
Ġgl ti
Ġhoja yega
J i
Ġhoga i
Ġty pes
IT H
Ġthapp ad
Ġsha red
Ġjaye ge
Ġadvert ise
Ġj inda
ee e
Ġpr im
Ġ9 6
Ġpadh ta
Ġlag wa
Ġproduct s
Ġr ani
an ge
ĠR ashmi
Ġbot tle
Ġkarwa ya
is ted
ĠL IK
Ġcome back
Ġtab i
Ġhow ever
O ne
c ard
Ġzind abad
Ġcho pra
Ġfar mer
Ġma ya
Ġsome where
Ġser ve
Ġchap ter
Ġsa an
Ġhelp ing
Ġmer ay
ur at
Ġte ars
Ġkh yal
Ġolymp ic
Ġobserv atory
Ġc hiye
Me in
Ġfor mat
Ġin ten
Ġap r
Ġcho t
b ani
Ġf eet
der abad
Ġbard asht
H AR
Ġtum are
Ġgreat est
Ġpu che
m re
Ġp hat
Ġsho ck
ĠC ol
Ġbro ke
ĠCha hiye
Ġfas hi
Ġciv ili
Ġkr unga
aa aa
Ġba i
Ġo waisi
na b
Ġsamajh te
V ery
Ġp ala
Ġr ank
se as
gi ve
Ġcon de
Ġdar ling
Ġdecision s
Ġw id
Ġde but
M AN
Ġadd ed
Ġste ady
Ġdecl are
y ya
Ġproper ly
p aper
ĠB oss
ðŁ¤ į
ĠðŁĺ¡ ðŁĺ¡ðŁĺ¡
Ġthe k
ĠT HI
Ġman if
H o
el le
at t
Ġmem ory
Ġnomin ate
Ġho ye
ĠA h
aap ke
Ġev ents
co in
Ġjung le
Ġbegin ning
Ġimple ment
... !
ĠS AB
Ġse ver
Ġpas sed
ĠDe c
Ġcons ist
M an
Ġinter action
c hin
ðŁļ Ģ
Ġspo il
and ir
ĠS C
ĠB ahut
Ġhon ay
Ġvil lain
3 2
u c
Ġt ad
Ġpo et
Ġhelp ed
Ġdec ent
p ir
or n
us am
ap ko
Ġimp ress
âĢ ¼
Ġkah na
ak ash
ĠI d
Ġmer it
ul i
Ġvari ant
m ic
Ġli k
Ġcan cer
Mat lab
Ġto ol
as es
Ġbat ata
ur t
Ġar range
Ġkach ra
0 9
E W
Ġmil kar
Ġmil itary
Ġlg te
Ġve er
ii i
Ġko l
Ġgl ori
k hari
and er
Ġmil k
Ġkit ab
Ġgali ya
g ha
Ġre lie
Ġf lip
Ġsikh s
Ġanim als
Ġar rog
Ġra id
ĠY E
HA I
Ġf ursat
Ġpass word
Ġjournal ism
E s
Ġc c
Ġcha at
ĠW ITH
Ġbat ate
Ġmas ala
c est
r na
ye ss
id ents
Ġphir se
Ġminister s
g ression
Ġjin ka
Ġcondition s
C E
Ġna bi
ðŁĺĦ ðŁĺĦ
Ġelectric ity
Ġ8 6
Ġfil ter
B I
Ġsa udi
Ġi as
Ġle y
Ġkha ti
Ġluck now
Ġpa ate
Ġda wa
Ġcar to
Ġtam eez
Ġbudd hi
Ġbe kaar
Ġjal an
Ġexc itement
Ġwis hing
ðŁ¤¬ ðŁ¤¬
Ġjaroor at
f ort
ti fied
ki a
ĠL I
Ġpass ion
Ġappro ach
q een
es day
Ġre ha
ate ful
ĠM u
Ġhindu ism
AN D
Ġregard ing
Ġk ate
Ġh ence
Ġand ha
ĠD a
ar n
Ġd adi
ab il
ma h
Ġmis under
ĠA cha
Ġrepor ter
Ġma h
Ġce o
Ġreport ing
ĠHa wa
Ġsham il
cle ar
Ġafgan istan
ti k
ko of
Ġfin ished
Ġpan ga
Ġmoh sin
l uck
Ġr ing
tho da
Ġto m
ici ary
Ġbra ve
b ak
s till
Ġnot es
Ġkha di
Ġexp l
ider man
i est
m un
Ġpar e
Ġsm iling
Ġpy ara
s en
Ġwas nt
res ted
Ġachie ved
Ġtau ght
Ġextreme ly
ho p
ĠR es
Ġ!! !!
Ġsend ing
ðŁĺİ ðŁĺİ
Ġch le
Ġtuk de
ĠH ope
Ġdhak ka
Ġanxi ety
A j
Ġc oll
Ġkis se
Ġar maan
ome ter
Ġengine er
p ri
Ġba hi
ag er
er ce
Ġpr os
nat aka
Ġand a
ĠB ro
ĠP S
int ment
ĠOn ly
Ġ ^
Ġme gastar
Ġgran th
R A
Ġf ek
Ġle d
Ġmo ka
va ge
Ġplan ned
Ġkap il
v s
he t
be l
Ġ8 7
Ġmaar ne
Ġlaw yer
Ġ19 47
Ġkar ana
Ġkr le
Ġkab se
ĠB ad
Ġrahe in
Ġkar nay
Ġthey re
so os
Ġzind gi
M adam
Ġpri yanka
6 6
ĠS up
Ġsoch ne
Ġfashi on
ta ur
ch up
Ġja waab
Ġbad iya
Ġbach on
w rit
Ġne ither
Ġcomp ut
Ġq uran
Ġbes haram
N i
Ġthe res
mp ton
ðŁĺĤðŁĺĤ ðŁĺĤðŁĺĤðŁĺĤ
Ġc ore
Ġsa cha
Ġcom b
Ġdekh ni
Ġsun n
Ġ8 4
co z
Ġobvi ous
Ġlo k
con f
Ġha k
Ġan u
Ġpray ers
ðŁĴķ ðŁĴķ
Ġchut ti
Ġcb se
Ġb han
Ġji i
Ġbata yega
. )
Ġbr illiant
ĠV is
Ġrah ti
ĠKr na
it ute
ussa in
whi ch
R I
Ġda ala
uri es
Ġbal o
new s
Ġjealous y
Ġaff air
Ġguaran tee
Ġnikal ta
Ġ7 00
Ġtell s
ab ility
ĠA c
Ġgr ade
Ġfin als
Ġbring ing
i ed
Ġaa ega
Ġkh uch
Ġnik li
Ġset tle
Ġp ayi
Ġd ul
Ġj ew
ĠK umar
Ġmis takes
Ġ âĺ
k ata
Ġb ran
Ġna jar
Ġma ana
f act
Ġpa hele
Ġkh n
ks an
Ġune mplo
Ġse i
ud o
ub a
Ġtari ka
Ġsurvi ve
Ġk si
Ġt il
ra in
Ġu llu
Ġpsy ch
j or
m ana
Ġar am
Ġp iya
Ġlong er
4 4
Ġghus a
T E
Ġm gr
ðŁĺ «
hum e
Ġmut ual
b ri
Ġd na
Ġst uck
Ġpro b
ĠST OP
Ġenc our
B JP
Ġar rested
Ġnam ak
Ġsoldi ers
Ġinsa af
Ġv c
Ġkhan dan
Ġapplic ation
Ġd ale
ĠP TI
ðŁĺĮ ðŁĺĮ
B C
Ġi ve
Ġcha ta
Ġgr oups
cho ta
Ġ âĿ£
Ġpr adhan
Ġsho cked
ĠðŁĴ ŀ
Ġjae gi
ðŁĺĳ ðŁĺĳ
Ġmafi a
Ġd ya
Ġhon our
Ġpad hi
Ġsh ukriya
d us
Ġab s
Ġjo ker
Ġal go
Ġshi ne
Ġpo cket
Ġbhe je
Ġjee van
Ġfat t
5 9
ul ous
Ġman go
Ġar re
ĠF r
Ġcor re
Ġsamjh te
Ġcan did
M E
v il
Ġna mo
ĠM O
Ġpan ic
Ġcons id
ern ame
Ġretire ment
us ne
Ġmil ni
Ġhun g
ĠV o
Ġmuj y
Ġsat ya
every one
ĠB r
ast y
ac tivate
A t
Ġra az
Ġ3 8
Ġda ant
Ġfa cil
Ġpl ane
Ġpos itivity
Ġchill a
Ġv as
ong rats
Ġcommun ic
ĠSar kar
Ń Ĳ
ĠA pp
Ġpya ari
ĠO T
Ġbehavi or
P l
Ġa man
Ġbn ane
ĠInd ex
Ġa ka
ch od
Ġma am
Ġle ye
Ġstu dies
Ġlimit ed
t une
ho ld
ak ir
Ġmess i
ðŁĻıðŁı» ðŁĻıðŁı»
b harat
h ri
Ġr ide
Ġfin ance
Ġstate ments
Tr ue
3 7
m is
ho d
Ġfr ame
Ġpre gn
je ction
u ge
ĠðŁĺŃðŁĺŃðŁĺŃ ðŁĺŃðŁĺŃ
had ur
kt ok
Ġincl ude
at ic
ĠG a
ĠR ahi
ac tive
ĠðŁĴ Ĺ
Ġname d
Ġp ill
ay ing
Ġnu ksan
0 8
ĠR SS
Ġins aniyat
ot es
Ġdestro yed
N ew
ĠS ub
Ġfr u
ĠðŁĺį ðŁĺįðŁĺį
j na
Ġto w
Ġover seas
Ġgot ta
Ġkam ya
Ġbac chi
vir at
W aise
Ġc lim
Ġja ungi
ĠS ome
Ġt one
Ġhu h
Ġth ha
bi g
wor ld
Ġban wa
Ġoct ober
Ġsp ent
Ġgar mi
Ġaara ha
b ind
Ġm l
en ed
il way
Ġsam man
Ġfund s
ĠD ay
Ġroj gar
Ġarg ue
5 6
C on
Ġb k
Ġdo odh
Ġmy s
Ġsp ons
Ġcomp ared
Ġmor al
ðŁĳĮ ðŁĳĮ
m il
m ate
r ang
Ġn ani
Ġbo o
che ck
ĠR i
Ġhote y
Ġmess ages
Ġrequ ired
3 9
Ġa im
le ts
Ġfantas tic
p are
Ġteen o
ussi a
Ġhase en
s y
Ġb right
Ġspeak s
q esh
fe cted
Ġsi wa
U J
Ġdu kaan
Ġinj ustice
C K
Ġcon veni
ree f
Ġactiv ity
Ġbull shit
Ġv ul
Ġmu hammad
Ġvot ers
Ġd n
Ġker ala
Ġgad bad
Ġadv an
ct ually
Ġtw ice
Ġkaro on
ĠWor ld
K E
Ġengine ering
Ġflo or
Ġansw ers
ĠLIK E
Ġf oto
Ġla f
ra id
Ġhum ans
Ġet na
Ġkre in
med ari
Ġsr f
f ace
uri ous
Ġde en
ali m
Ġgar v
Ġintel lect
Ġaa e
Ġal leg
Ġpal at
ho use
Ġhas an
ĠH AR
Ġden y
g ent
ga z
Ġmo ving
Ġbat o
Ġinj ured
Ġmajbo or
ĠChr is
Ġbene fits
Ġro ta
Ġpad te
Ġclot hes
c les
Ġtam il
Ġpay ing
Ġjin ki
Ġge ya
ĠR T
ðŁ§ Ĳ
p lete
Ġma je
vi ously
Ġn uk
Ġsol id
Ġve hi
gir l
Ġdoll ar
ĠKa ha
Ġbel le
end ar
Ġ10 22
ye e
ĠK itna
con t
Ġnan ga
ĠSh yam
Ġcau ght
g ers
Ġcre ative
Ġspo tify
Ġkarw ane
Ġcreat ing
/ /
in et
di ble
ĠK are
Ġj h
as ya
ĠT hen
Ġins tig
Ġapp le
Ġsub h
M in
it or
ro c
Ġsum ma
ru cture
Ġmax imum
sur at
Ġv ed
Ġsaal on
oh hh
Ġbr itish
Ġmu ze
Ġkarwa o
Ġpy are
ic op
Ġbig ad
Ġbook ing
Ġsat urday
Ġag ay
Ġmug hal
ach ha
ĠðŁĮ ¹
Ġkut to
q a
Ġhon y
Ġco ok
Ġbl aming
Ġcritic ism
Ġsugges tion
ĠM or
ĠJ aise
Ġbha sha
Ġtest s
Ġsever al
Ġn ga
Ġki r
Ġro b
adi an
Ġgul am
ĠðŁ§ ¿
ðŁ¤ Ŀ
Ġste ps
Ġpun ishment
R o
b ase
in ka
Ġdi ff
Ġover all
Ġkur si
M C
Ġr en
Ġlag u
ĠG aye
Ġraj neeti
Ġs ardar
Ġre me
Ġb ala
Ġkar n
Ġchar t
Ġsan atan
Ġocc asion
Ġtum e
ĠB us
Ġnor m
Ġfound ation
ĠS harma
Ġdis co
ðŁĺ ´
ðŁ¤ Ĳ
eri a
id k
Ġst one
ĠA j
Ġ5 2
Ġsind h
p he
Ġm ate
Ġsab oot
ĠB y
Ġsp aces
Ġcl ash
ĠW ith
Ġposs ess
Ġd up
Ġr ating
Ġj ite
ðŁĺ Ī
qu es
ĠR ampal
Ġkaro gi
pa ce
ĠBang ladesh
Ġt ony
Ġf ee
Ġless on
Ġbero z
ĠT era
ðŁİ ¶
Ġv isa
ĠT ab
adi q
ĠQ u
Ġs hant
Ġtw ist
Ġpopular ity
Ġocc up
al ing
Ġpe d
Ġbana i
Ġdima gh
8 8
Ġannoun ced
ĠHa ve
Ġcris is
Ġa ma
Ġd ry
Ġdi pl
Ġpar ts
Ġlog ical
Ġmo un
Ġlike ly
Ġtas ks
Ġbhul a
ðŁĺ¢ ðŁĺ¢
Ġkarw ana
Ġanal y
ran ce
Ġm ou
har khand
Ġbhai yo
Ġcontrib ution
Ġpadh te
ĠS ara
Ġcon spir
Ġpo ch
n ic
Ġt f
Ġm na
Ġho ping
Ġse va
be y
Ġ9 4
Ġsan ta
Ġcham cha
Ġcondu ct
Ġg ud
Ġbhai i
Ġro o
Ġgand e
c en
Ġdi p
ĠI ss
Ġrest ric
as k
Ġjat ay
s up
Ġka al
Ġli king
Ġpl ant
Ġbo ards
K is
Ġtum ha
Ġfa z
ĠN OT
Ġker ne
Ġdal na
ul am
ĠM ERE
Ġwe alth
ang ana
Ġlad na
Ġco aching
ak sh
Ġaaj tak
Ġchan ging
Ġmin istry
Ġjeet o
Ġlead ing
Ġker te
Ġleg it
Ġt ube
Ġna v
Ġex cellent
Ġcl own
Ġvir tu
Ġtm c
ur ance
Ġcomp li
Ġevery body
tw t
Y r
Ġa ly
Ġa th
ĠD in
ast ructure
Ġpat han
Ġspeak er
ot land
Ġcele bs
Ġinf act
A ree
Ġ 00
ðŁĺ ĸ
ro id
sa as
ĠIn sta
Ġpac ka
c re
Ġare as
ĠC ap
Ġchho te
Ġportray ing
Ġbe ll
Ġbar ay
a way
Ġf ab
H mm
kar t
gr ade
ĠDe v
Ġdefend ing
Ġpredic tion
m uje
Ġd isa
Ġj er
Ġdikh ne
Ġmum kin
Ġe e
Ġbhi khari
ðŁĳ ī
Ġign or
Ġle le
in ate
Ġson u
Ġdekhe ga
ĠðŁĺ¡ ðŁĺ¡
Ġsans kar
Fir st
or ary
ad er
Ġpad ne
Ġdad dy
Ġtechn ical
t al
y ogi
ĠR as
Ġstand ards
f eel
g as
uj a
Ġun fortunately
Ġlife time
Ġobs ession
ðŁĸ ķ
m tlb
ya han
ĠB est
ĠJ is
Ġmin imum
Ġ9 2
Ġn w
at ha
Ġsurr ender
Ġha ye
Ġna ak
Ġki un
et ter
ĠRa at
ĠChi ll
or ic
Ġun me
Ġman z
wal o
Ġbait hi
ĠAf ghanistan
ard om
Ġake li
Ġf reak
Ġja un
Ġya qeen
Ġz ulm
Ġaf raid
ha ps
Ġban ned
Ġjab ardasti
Ġbat tery
Ġcol la
bo hot
L ast
Ġde ty
Ġbat tle
Ġy ung
Ġsubsc ribe
Ġr ent
Ġhu we
ĠW hats
ðŁĻıðŁĻı ðŁĻı
Ġj ale
ard ast
Ġconcer ned
Ġse qu
Ġsab ar
Ġqu ar
Ġsak ty
Ġres taur
Ġaad he
Ġappe ar
Ġindepend ent
Ġba ari
Ġcha wal
ĠðŁĺ ±
ĠðŁĺģ ðŁĺģðŁĺģ
Ġanim al
ðŁļ© ðŁļ©
Ġug ly
G aya
Ġg st
ĠH ara
ES S
T eri
i an
Ġme l
Ġbut ton
Ġti ktok
Ġz ee
vi a
Ġgr am
Ġhame in
Ġsil ence
Ġ3 9
EN T
. !
Ġs ke
Ġs log
Ġpay tm
Ġcour age
Ġus ername
ĠS ant
ĠM Y
ĠC HO
Ġcal cul
Ġru in
Ġzam ana
k um
ati o
Ġek ta
ðŁ¥ µ
ĠPe ople
5 3
Ġo t
Ġsha heed
Ġlad te
Ġpart ners
Ġassign ment
Ġfa ces
Ġbhe ed
Ġfrustr ated
G E
Ġk ore
Ġso te
ĠS c
Ġz yda
âľ ĭ
Ġpun cture
Ġran king
r ate
Ġja cket
ak sha
ĠðŁ¥º âĿ¤
Ġbudd y
r op
Ġkar ya
je cted
Ġkhalistan i
p ara
Ġne cessary
ko hli
Ġen jo
ĠE l
ðŁĺ³ ðŁĺ³
C ongress
O kay
re g
Ġvot er
Ġexpect ing
LA H
s how
Ġb de
al on
wan ath
nee la
Ġha ter
Ġpr iya
Ġso oo
ĠðŁ¥ ´
Ġ202 3
ĠSha me
Ġequ ally
cu it
D A
Ġma p
Ġtak kar
Ġpareshan i
n an
Ġt ir
ĠB eech
Ġal t
fe ction
Ġunder stood
ade ja
Ġf re
ab b
Ġaad hi
Ġtod ne
L agta
Ġkar d
ad or
Ġba bies
ĠR akhi
Ġshar es
Ġlead s
ac her
Ġ6 5
ðŁĺł ðŁĺł
ta il
un k
ĠP er
Ġaf ridi
Ġsa da
am ily
Ġi po
Ġpo v
ðŁĳį ðŁı»
Ġmur kh
Ġp hen
Ġg una
ou ds
ĠK UCH
Ġdil li
ĠðŁļ ©
Ġba h
Ġany where
Ġsu ff
Ġrel ate
Ġsa mp
s l
id har
ĠT h
s ays
Ġun ion
Ġinvol ve
l pa
Ġj han
Ġaut omat
Ġpak de
ðŁı ĥ
ĠUni versity
P ro
Ġb ub
Ġl ungi
ĠS R
Ġbec oz
Ġsoch ti
AT ION
Ġcul pr
R O
c are
p ahle
Ġan t
Ġhum log
Ġrag hav
Ġc aa
Ġji ja
Ġp is
ro ad
Ġres pected
Ġass ist
ren cy
Ġhosp it
Ġ; )
Ġkang ana
Ġthousand s
Ġa ans
ic ted
Ġst alk
Ġbol unga
Ġbl an
um ber
Ġsha kti
Ġhar dik
Ġvo ted
Ġdaal o
tha ts
ĠBi har
u als
ar ily
Ġka fir
Ġaa kh
Ġdo gs
ust ani
Ġwith dra
Ġpad osi
Ġjud iciary
E O
Ġlo og
ĠG r
ĠTum he
Ġbo un
Ġu h
Ġappreci ation
Ġjournal ists
p op
Ġpar am
Ġte er
ĠR an
Ġmang ne
ĠS u
Ġch una
Ġjee ti
Ġbane gi
j itna
Ġj yaada
il es
Ġag ency
Ġexp lan
Ġbap u
ĠSun day
Ġc ere
Ġconvers ion
Ġab u
ĠS m
Ġ4 1
Ġ4 7
Ġnotice d
er ts
ga i
ĠðŁĺ ·
me t
Ġdef ame
p ura
ðŁĳ ĳ
Ġgd p
in hpa
Ġkar y
ĠS ri
Ġsab h
Ġacc used
Ġrep orts
Ġsch olar
Ġban ks
mo han
ON E
ðŁĺĥ ðŁĺĥ
f ar
Ġin hi
Ġpr on
ul ana
Ġlag na
ðŁĴ ĺ
Ġreg ister
ĠT a
Ġex act
ĠJ e
Ġkarte y
Ġchal ate
Ġala va
Ġunne cessary
Ġconspir acy
ĠðŁ ¦
Ġag reed
Ġseason s
Ġstrong er
Ġprop ose
Sir f
ĠAr my
Ġâ ı
Ġar jun
do or
Ġ8 8
Ġdef ense
Ġclass ic
ho to
ĠR is
Ġdar te
Ġmuj hay
Ġcritic ize
S ar
Ġg er
ad hi
Ġti ming
Ġsee k
Ġrak hiye
Ġdhar ti
Ġcolle ct
Ġbata u
ĠIs liye
Ġdep os
Ġcarto on
Ġc i
Ġse hat
ĠKhan s
Ġdeser ved
ĠAp ni
Ġs me
Ġr cb
Ġan gel
Ġcom pe
Ġcom fortable
Ġbha isa
Ġprof essor
Ġexc l
.. ??
le ged
ðŁİ Ĭ
De kh
ðŁĺ¤ ðŁĺ¤
... !!
aj h
Ġtam asha
ĠAp na
Ġ8 9
Ġsid ed
Ġconf ident
s es
s ter
Ġsh ud
Ġsc rip
Ġend ed
Ġradi o
A gr
v ind
Ġpr ince
Ġkn w
Ġaccep ted
ĠU p
ba ap
Ġfil led
Ġvacc ines
te am
Ġli c
Ġchee j
ĠIt ni
Ġbu hat
Ġdho kha
Ġconver ted
S un
Ġse v
Ġalli ance
Ġhi re
ish u
Ġp ension
Ġc ards
Ġcl g
Ġgradu ated
arr ass
Ġe la
end s
Ġraha ne
Ġco oking
Ġmin orities
Ġmi en
Ġbhej na
Ġqui ero
5 7
in ally
Ġso s
Ġsb ke
ĠKar na
ĠTHI S
ed kar
Ġhas te
Ġvid hi
Ġp ir
ĠR s
ðŁ¥ ±
kyu ki
Ġcandid ates
Ġap no
Ġtr f
Ġsup eri
Ġamaz on
er ved
Ġj hu
Ġpr an
Ġwar ning
5 2
ĠL ad
Ġsc ream
Ġhel icop
Ġdec ade
Ġoper ation
Ġinfr astructure
p ha
t han
ki ya
Ġdikha yi
Ġentertain ing
Ġkr di
Ġbo om
Ġbreak fast
Ġsto cks
Ġzi yada
iter ally
ha k
id s
Ġrep ublic
Ġtwee ted
Ġtr ump
ĠðŁļ ¶
Ġutha ne
Ġdialog ues
Ġguj ar
Ġdom estic
S am
Ġf ought
ĠS han
ðŁ¤£ ðŁĺĤ
Ġcomput er
Ġc ities
Ġwe ap
mes ter
Ġker o
Ġaad ha
Ġmit ti
pro fit
c rat
us ki
Ġke val
Ġhar sh
Ġsee kha
E ven
Ġcy l
Ġin e
ma o
Ġsh re
Ġshame ful
Ġviol ent
Ġgut ter
z ad
Ġga jab
ðŁĻ Ĭ
ky o
M am
Ġso f
ĠM al
Ġgu a
Ġfar ah
Ġjoin ed
Ġprote ction
ðŁĺ© ðŁĺ©
D AY
eri es
Ġpeh na
Ġref erence
c ar
ĠB O
Ġlag ra
Ġrup ee
ðŁĺŃðŁĺŃðŁĺŃðŁĺŃ ðŁĺŃðŁĺŃðŁĺŃðŁĺŃ
v as
Ġra ised
A h
n ice
Ġas ia
Ġbi mari
Ġsci ent
Ġche at
Ġdri ving
Ġinj ury
Ġwes tern
p uri
ĠðŁĺĤ .
Ġmur d
Ġincre asing
Ġaz ad
Ġzab ardasti
Ġfol ks
C hi
Ġc and
Ġum er
Ġbaha ne
Ġactiv ities
Ġmort als
Ġla ate
ĠS ee
ĠGo ogle
Ġasli yat
n or
ari o
Ġpo ke
Ġmam ta
Ġcommun al
Ġcha and
Ġsar ee
Ġsans ad
Ġmass ive
d as
Ġrec over
Ġtai yar
Ġda hi
i med
Ġan ger
Ġba hr
Ġne eraj
Ġag la
ĠC HA
Ġqu it
ĠW hi
Ġfran chi
g am
Ġc ou
Ġr ice
Ġas ap
Ġkis han
Ġsh ub
Ġtoler ate
Ġconsid ered
K on
t op
Ġbha e
Ġspo ke
Ġcho ot
ji yega
Ġ4 2
p ical
Ġpuch ta
Ġkar am
ĠB ab
ĠP ri
th y
isi ble
C ongratulations
Ġal ert
ĠðŁ¤£ ðŁĺĤ
Ġpri ze
Ġcal endar
ĠP O
Ġhar r
Ġemer gency
Ġra y
ĠL E
Ġsub mit
Ġbur ning
Ġrece ive
Ġnuk saan
r ise
Ġsa ka
ĠN anak
ĠW i
Ġcl ouds
Ġpost p
Ġup sc
so or
Ġext rem
Ġpari vaar
ĠM as
Ġ4 6
Ġ4 9
Ġplan et
Ġtod os
Ġaks ar
ĠAf ter
b ye
Ġo la
Ġand r
Ġsho aib
ðŁİī ðŁİī
Ġvie ja
Ġde activate
mb ly
Ġed its
y rs
Ġb ali
Ġf uel
ga ye
Ġ2 50
00 00
Ġsi k
Ġhas il
Ġbr ut
Ġcons um
f ts
Ġk en
na v
Ġte h
ĠG uj
Ġrup ay
ĠH one
Ġcan ada
ĠR O
Ġham esa
Ġbn ana
Ġjudge ment
Ġliber als
T ER
Ġd ali
Ġna mi
Ġme hen
Ġbar u
Ġaf rica
Ġfl u
g un
Ġe ld
Ġra qesh
ame er
Ġdis aster
Ġsw itch
Ġmaza ak
Ġbe loved
cha ar
Ġban gal
p rime
Ġch lega
Ġpro c
Ġka vi
Ġma usam
ara z
chu tiya
Ġd nt
Ġr ana
ĠðŁĻĤ ðŁĻĤ
Ġd ise
Ġr d
Ġr ot
Ġj adi
ta it
Ġcha man
ĠD I
Ġ0 7
o ti
Ġs uk
Ġh ta
Ġme e
Ġsab ha
man i
ĠF an
Ġbech ne
Ġan up
Ġ6 9
Ġtal ked
Ġud ar
Ġemb arrass
Ġbran ch
5 1
v ish
Ġka si
ĠP res
Ġatta ch
Ġqui et
Ġa za
is her
ad ha
Ġi mo
Ġrakh ti
Ġmaan te
tific ations
Ġz oom
Ġend s
Ġpoll s
Ġv ya
Ġhum a
lo o
Ġrup aye
Ġfing er
Ġsarcas m
c ut
Ġoffici ally
Ġbri ef
Ġman tra
Ġdra ft
in ary
Ġsho es
s ak
Ġh d
urn ame
ĠðŁ¤ ¬
Ġsus p
Ġnal li
urr ent
Ġhea ven
Ġchh up
Ġn ut
Ġpe ene
Ġek dam
Ġro ut
Ġcomment ary
Ġhand les
res pected
Ġly ing
ĠðŁĻ ģ
og raphy
Ġpi g
ðŁĮ¹ ðŁĮ¹
Ġguil ty
Ġho sh
ĠF a
Ġmad h
Ġnik lo
Ġhos tel
Ġene my
S h
Ġs ou
at ta
di wali
Ġcon cent
Ġshi pping
Ġdec ades
Ġrkh na
g ame
Ġru led
Ġsubsc ription
d eep
Ġ1 20
ĠA ir
__ _
Ġvac ation
Be ta
Ġdushman i
Ġkhub surat
Ġdefe at
s uch
Ġd d
Ġins ane
ze b
Ġ201 3
Ġwak t
S ach
n ishant
Ġd ara
us ted
Ġpar ega
tw are
Ġlak ho
Hind u
d uniya
ĠC hal
Ġoff end
Ġ7 8
Ġkara o
Ġkar v
cha t
Ġch lo
ba ar
Ġjan uary
Ġhelp s
Ġchho ta
Is ko
Ġko sis
bi gg
Ġrash tra
u h
Ġra vi
Ġbhi kari
Ġbe lt
ĠP A
ĠP o
ĠHo ga
Ġequ ality
Ġtarge ts
Ġkama al
Ġpor n
S C
d ari
Ġa un
Ġres our
be lie
Ġfe liz
Ġdan ge
Ġa ish
ĠD is
Ġcomp leted
Ġfe ll
ĠHum e
Ġchin di
Ġmas i
ke ts
Ġan padh
ol y
Ġ, ,,
Ġdon g
ĠG ust
Ġcar ing
Ġm all
Ġpar as
tum hari
Ġab ey
Ġal tern
ac tions
Ġtar as
Ġ9 1
Ġdar u
Ġneg lect
' ,
5 4
b on
Ġde ter
Ġsun ai
ðŁ¤£ðŁ¤£ ðŁ¤£ðŁ¤£ðŁ¤£
Ġdal ne
Ġcab inet
um ma
Ġker ta
Ġdik hi
Ġhaal at
Ġa and
Ġso ya
man shi
Ġbhi i
ĠB ata
Ġ0 6
Ġphil os
Ġd ish
Ġdi i
ĠK ing
Ġur ge
Ġdeta il
Ġnet flix
Ġindirect ly
Ġdisa gree
p la
Ġa isay
Ġbad hai
Ġfr m
Ġbha ad
Ġn eet
Ġgan ja
ĠðŁĺĴ ðŁĺĴ
ĠRaj iv
Ġhi nt
Ġlo op
li a
Ġnikal e
Ġcelebr ities
P P
ĠS M
ĠH I
ĠF e
ĠYa ha
Ġpractic al
B ol
N O
n s
Ġte z
op les
Ġas ks
Ġno ti
Ġil aj
Ġcricke ters
c os
Ġr atio
la h
ĠS orry
Ġrel ative
Ġrel ations
Ġro ot
Ġkisi ka
Ġbro ad
Ġchild hood
Ġrelie f
Ġmean while
ĠS ad
Ġsha reef
Ġsuppor ts
p able
Ġr kho
Ġg all
ĠK on
Ġpuch ne
ðŁĮ Ŀ
Ġattack s
Ġse mester
Ġst unt
ĠS w
Ġkha ana
Ġkam ane
Ġjan na
Ġjag ha
U ST
Ġcom fort
Ġban ati
Ġlikh ta
aap ne
Kh ud
Ġadvertise ment
ðŁ¤ ĵ
Ġpo se
Ġkisi ke
ble m
Ġche er
ĠY aar
Ġ9 7
Ġyaha an
Ġku c
Ġpoo cha
en cies
Ġba hen
hin di
Ġag gression
Ġgod s
Ġcra p
Ġwag era
O m
Ġd her
Ġli ghts
sh yam
Ġgr ateful
ĠðŁĲ į
Ġg ri
Ġst ardom
Ġgun ah
Ġaat ma
ol es
Ġhe at
ĠA ustralia
Ġsw i
Ġpah un
Ġp da
Ġmo ose
ĠIn dians
Ġfe ature
Ġgra ce
W E
Ġladki yan
Ġext end
ven ue
UR U
Ġm ishra
ĠA K
ĠS ach
op hi
Ġmo oh
Ġum p
Ġri ots
C B
ĠY es
Ġpri vi
Ġfe ver
ðŁĮ ¸
Ġuni vers
ĠNa waz
Ġtech ni
Ġga z
Ġcur rency
Ġkar r
ja z
Ġji ju
sa al
AN G
Ġkhul a
Ġgif ts
ðŁĳİ ðŁĳİ
B ha
at ra
Ġo ye
Ġcr os
Ġjay ga
Ġgrow ing
Ġc her
ĠðŁ Ĺ
ĠW ill
Ġben ch
Ġdiv ide
Ġgun da
Pe ople
ĠS outh
Ġreal ised
wat ch
Ġh t
Ġkar ate
ak at
Ġta il
ang zeb
ori a
ĠðŁĻı ðŁı¼
Ġasha med
y or
Ġcomp rom
q t
Ġover thin
know n
in ki
ĠS ai
Ġtak lif
Ġsh r
Ġjeet enge
EW ERS
Ġra ksha
Ġexp ensive
Ġkhat ra
Ġadvan tage
e le
Ġg hut
Ġrec ru
esha k
Ġref uge
Ġvari ous
Ġprat eek
Ġka yi
te ch
Ġpar esha
ĠS on
Ġtr s
Q u
b ang
Ġmo hammad
Ġdon ate
Ġsam ja
Ġam ar
Ġ4 3
Ġshi lpa
ĠGur us
ĠðŁĸ ¤
Ġchho do
Af ter
ug u
Ġlos er
Ġrub i
Ġp ink
Ġha tt
Ġba be
Ġtr o
Ġfa ad
ac in
Ġfi ghter
Ġislam abad
Ġdan cing
Ġinsp ired
pe trol
Ġkam zor
Ġsal es
ðŁı ¿
Ġbrah man
Ġli on
ĠðŁĺ «
ĠP olice
Ġt end
ka ash
Ġbta ye
Ġturn s
b ina
Ġh ori
Ġl il
Ġv ha
cha y
Ġbi as
gg y
ars han
Ġlear ned
: (
j am
Ġk or
Ġdil wa
Ġpriv acy
Ġmag na
Y our
ou te
cl ass
Ġdoc ument
Ġsens itive
Ġnaag in
A d
ba ch
Ġfriend ly
Ġ.... ...
Ġcustom ers
ĠT UM
ĠN or
Ġ5 4
Ġach che
Ġdum p
Ġghum a
Ġlab our
Ġw ard
Ġsa vage
st roke
Ġcho da
Ġpass ing
Ġtrans port
Ġâ ļ
Ġconfir med
off icial
m ony
Ġche st
Ġsw ing
ut t
ĠB ina
Ġsha hid
Ġsi ya
Ġri p
ks h
Ġvic ky
UJ HE
Ġhelicop ter
ye ar
Ġhas ta
Ġpuch h
Ġtr ha
fe ctive
ac chi
Ġsid es
Ġkah ne
est ly
act ing
Ġdisc rimin
ad d
Ġe urope
ĠB at
Ġ: /
ĠBen gal
Ġs urname
ĠO ur
Ġed ited
B u
it hout
Ġsh ukar
Ġexplan ation
Ġha zam
Ġit em
ow ing
Ġcon cl
Ġbo ost
Ġar m
Ġcome dian
a ve
Ġma hal
Ġsha urya
Ġd hara
Ġto k
Ġya i
ĠK YA
m uj
Ġbo oster
On ly
K ash
Ġa esi
Ġkid ding
Ġji m
ĠL ol
Ġad just
do st
Ġb other
Ġba yan
Ġmar ty
Ġsister s
Ġtum ari
Ġno se
Ġsi ght
ĠðŁ¤ ŀ
Ġda am
uk ari
Ġvar un
istic s
Ġcyl inder
Ġje b
t hik
Ġac know
Ġcon se
Ġbad he
uk r
tr end
ĠPar ty
Ġg upta
Ġtrip ura
ee ee
ĠM aa
ni fic
ĠL ot
an ya
ro hi
Ġbata in
Ġport al
v ision
Ġcha kar
ĠB adi
Ġsid d
Ġil aaj
Ġtele gram
Ġredu ce
Ġjhag da
B us
v ya
ll i
ult ure
i kh
Ġa isy
Ġpat ni
Ġra wat
Ġma id
Ġi yer
ĠF ar
Ġca hiye
Ġumm eed
ĠL ast
Ġsc otland
Ġsum mer
illa h
Ġno i
ari ous
Ġes se
Ġmam la
our t
Ġno k
Ġchi ze
Ġak bar
ðŁ§¿ ðŁ§¿
Ġkhara ab
Ġj une
Ġ0 8
Ġear ned
Ġiste mal
Ġpar ha
Ġsal vation
D elhi
p ok
Ġb di
un ning
dr op
Ġch uda
Ġ0 1
Ġcare ful
Ġrelation ships
Ġass ume
Ġza yada
r ol
Ġb isa
st al
ðŁĴ Ľ
Ġ4 4
Ġconf ession
Ġcontin ues
Ġdedic ated
ĠB ig
ĠðŁĺŃ âĿ¤
Ġins ul
Ġkid ney
eni x
ĠEng land
Ġmotiv ate
Ġbre ath
as am
Ġli ay
Ġwa hin
Ġlaga i
Ġmin i
ĠIn ke
Ġval u
ĠQ UE
mi es
Ġwork er
ðŁ¤¦ ðŁı»âĢįâĻĢï¸ı
Ġkar ny
Ġjan ata
Ġ7 1
g ue
Ġp ine
ðŁĺ ļ
Ġaap log
Ġlag enge
Ġaks hara
Ġc t
ðŁĺ ·
Ġla ke
Ġsha yd
Ġmahi na
Ġvap is
R aj
n h
Ġc ara
Ġe y
Ġnd tv
kyun ki
ĠðŁı Ĩ
omat o
s as
ab solute
Ġkh wab
M ar
a ches
ĠB ach
Ġmu habbat
ĠâĿ¤ âĿ¤âĿ¤
ug s
A a
ir ls
ĠK arachi
Ġri ver
Ġdr in
Ġet hi
Ġru ko
Ġreco very
n z
un ko
Ġcha ap
It ne
ĠðŁĺĶ ðŁĺĶ
Ġgradu ate
ĠCHO ICE
Ġta unt
Ġcar s
Ġaks hu
stop pable
Ġrap ist
Ġv ice
Ġ201 5
por ts
Ġkan pur
odh ya
Ġ: '
Ġfact ory
Ġhot star
Ġjam mu
Ġmare ga
ĠKAB AR
w ane
ak hir
Ġso y
ra ge
Ġdekh u
Ġad ha
ĠðŁĳį ðŁı»
W ahi
Ġl ama
Ġis rael
Ġman ane
Ġro y
Ġoff ensive
c hand
Ġja ck
qu iry
ĠF ollow
Ġhome work
ĠPr adesh
ĠUs ko
Ġpil ot
/ -
b ah
Ġcha se
wa g
Ġre make
gi e
ĠðŁĴ «
Ġyo ga
Ġm sp
ic ks
Ġvo y
Ġdefin ition
Ġdrop ped
ðŁĴĲ ðŁĴĲ
v able
Ġw ada
ĠS tar
ĠJ in
Ġbul ate
Ġsl ot
ĠðŁĺľ ðŁĺľ
Ġfit ness
mon th
Ġreview s
Ġha u
Ġw b
ĠA A
ĠE V
Ġtm he
J b
T era
Ġya heen
Ġ7 9
Ġaank hein
Ġreco gn
g ment
Ġra val
Ġta c
Ġfacil ities
v r
Ġli me
Ġdi et
Ġpe hn
Ġpe oples
Ġtr ash
Ġth he
Ġintellig ence
Ġbero j
Ġun it
Ġir on
ðŁĺ¡ðŁĺ¡ ðŁĺ¡ðŁĺ¡
p in
Ġr ates
ĠP yaar
Ġfa cing
Ġacha a
Ġjud ges
Ġind ic
Ġ3 70
Ġbn ta
Ma x
Ġle ap
ðŁĻı ðŁı¼
bab a
Ġr w
ĠP E
Ġdr am
aap ki
Ġchad di
Ġpurcha se
Ġrea ched
un he
ĠA ccha
Ġbar tan
Ġtum ara
ma a
Ġtr uck
Ġkut ti
o tic
Ġka hu
Ġaa a
ĠG reat
Ġda ya
Ġacc om
vers y
AT E
Ġsas te
L I
Ġbr ings
Ġappe al
Ġartic les
is ode
ari ya
Ġsc roll
Ġsakta y
-- --
Ġna ha
Ġgar ee
Ġval ues
Ġps l
ula ad
c ers
ya h
al d
Ġre ti
Ġpand ya
Ġprin cip
U B
Ġpr r
Ġne ck
Ġtr ouble
Ġz id
ĠðŁĺĬ ðŁĺĬ
R ight
Ġli ft
hum are
Ġsid he
urs day
Ġinst all
Ġtika it
at able
Ġman gi
Ġbi bi
ĠL F
Ġche en
Ġsome how
k har
Ġtum logo
Ġsho ts
Ġbur ger
ĠS ho
ĠðŁĺĨ ðŁĺĨ
Ġclim ate
u tions
Ġh ussain
ne ha
Ġcho de
Ġgal ati
Ġdab a
s ala
ĠG AYA
Ġlu v
Ġsla p
a unty
g il
Ġh ong
er na
Ġna in
Ġre li
ĠC ar
ĠðŁ¤ ²
Ġany body
Ġdevelop ed
na p
ĠðŁĺ Ī
Ġst y
Ġ5 1
Ġconst ant
ĠFir st
ĠT est
Ġdikha yenge
Ġgen i
sab ko
Ġsurg ery
ĠKat rina
Ġkr ungi
Ġst ree
wa fa
may be
b en
ro hit
Ġam or
Ġdy ing
ðŁĴ¥ ðŁĴ¥
w are
Ġpr int
Ġpar so
Ġmo ot
ĠP appu
Ġhind ustani
Ġbac chon
ĠD ar
cho ti
Ġyr r
Ġear ning
saf ed
gur uji
Ġw ide
Ġsa a
j ye
Ġin me
Ġli br
ou g
Ġ5 7
Ġasse mbly
b ht
an na
Ġma hol
ah ore
Ġau ction
Ġsign al
ĠC hin
Ġ5 000
chi stan
Ġord ers
C hal
te en
Ġun stoppable
T ime
Ġi v
Ġu ae
ĠðŁĺĮ ðŁĺĮ
Ġcommit tee
Ġmum ma
Ġpacka ge
Ġsa koon
Ġany time
Ġ8 1
Ġpen al
Ġregi on
Ġsele ctive
Ġconde mn
Ġm ala
ĠF IR
Ġhead er
S A
Ġna al
un i
Ġch uk
Ġsha uk
ĠR ep
Ġev iction
Ġrh ti
Ġd ust
Ġsa ko
Ġbacha o
Ġopp ose
Ġtejas wi
Ġhai ii
Ġhi na
Ġman na
ĠðŁĺŃ ðŁ¤£
og ical
Ġkhel enge
Ġutha na
Ġp vt
Ġkar l
Ġ0 2
ĠTe ju
au di
Ġidol s
Ġwr est
Ġb ale
am ond
na g
Ġap an
Ġintern al
Ġhor ror
8 9
ĠS how
Ġbhar ose
ĠE s
for ce
AN T
Ġprom oting
Ġpho enix
ĠðŁ§ Ĳ
ĠBhag wan
D r
ar th
Ġd ms
am ed
Ġis lie
ki e
Ġal though
Ġkaha an
Ġbs p
Ġwrit ers
Ġka mai
Ġman i
Ġkam jor
Ġ8 2
Ġben gali
ĠUn ke
ta bhi
Ġpr ati
Ġla zy
ri er
Ġsi va
Ġins urance
Ġdepos it
Ġsof tware
Y ahi
Ġf fs
Ġkar aya
ĠA RE
Ġmin t
a isi
id ays
Ġcho wk
Ġdal te
ĠMe dia
Ġgali yan
ĠLi fe
Ġgran ted
Ġho pes
ĠU K
Ġbach ho
Ġlevel s
Ġconne cted
absolute ly
Ġc ree
ir i
Ġre tweets
Ġwa ap
ĠðŁ¤ ¨
Ġkare y
Ġsu kh
Ġtemp orary
Ġmang ta
T a
Ġw er
Ġin for
Ġaa waz
ĠA si
ðŁĻ Ĩ
ðŁ¤© ðŁ¤©
ye hi
Ġba ik
Ġpe le
ĠA mir
Ġpat t
ðŁ¥º âĿ¤
Ġhata o
Ġthak ur
Ġsour ces
Ġencour age
ak ers
Ġex erc
Ġdis play
Ġ7 6
ky ou
Ġtha li
Ġla ut
Ġgu ard
d han
Ġr ts
en te
ĠA mb
Ġaap na
Ġkha m
Ġsuper b
Ġfranchi se
Ġn ala
ch le
Ġkeh ty
Ġsur vey
Ġface d
7 7
h Pa
t te
Ġk es
in c
am az
Ġma ane
Ġmo ck
Ġham en
Ġ6 00
kuch h
Ġpati ents
ĠT ar
Ġkaun si
Ġlet ting
ins ta
ĠðŁİ ¶
Ġp esa
Ġgaye e
Ġhard ly
Ġf lex
id ya
Ġbill s
ĠG et
Ġar ms
Ġpre pare
Ġjal ti
Ġprop os
ĠBa aki
Ġeh saas
Ġemploye e
p as
Ġha la
or tion
ĠBe cause
Ġst al
ĠM am
ĠJ ohn
Ġut ter
Ġsil ver
Ġtujh ko
Ġinsec urity
Ġdai kh
cha yat
not hing
Ġhoj ati
Ġacade my
Ġst or
ĠS ana
Ġpakistan is
Ġcould nt
Ġlge ga
Ġsepar ate
Ġw k
ati ya
Ġso ap
Ġbut t
ĠJ am
be ing
Ġshi pper
Ġmay or
Ġach chi
ĠDe vo
Ġlakh s
cu tive
Ġalleg ations
Ġâı °
Ġrout ine
Ġto ken
Ġg hee
Ġse p
ee v
Ġtar fa
Ġkhi ch
Ġgive away
ĠSa hab
Ġaq al
k itni
n al
at o
ĠM C
Ġag ya
ok s
ĠO ff
Ġext ension
Ġcrimin als
K ar
s ung
Ġmo ots
Ġze her
Ġj et
Ġthe rap
Ġno tifications
Ġgi a
ĠðŁĴ ļ
pr essed
Ġchar m
ĠTw eet
Ġha ma
Ġhi la
Ġke dar
Ġbat on
Ġadv oc
Ġsele cted
Ġash win
Ġpahu cha
Ġcha ho
ĠB aba
Ġvi ps
chi ll
Ġclaim s
ðŁĴĸ ðŁĴĸ
Ġloyal ty
Ġrid ic
Ġnikal ti
Ġho e
Ġst ood
ĠN ational
Ġshad ab
rid or
Ġcros sed
u z
Ġcha s
Ġun com
Ġji hadi
Ġfind ing
Ġnom ination
r ak
Ġpa ges
Ġhard work
Ġemp ower
ry pto
ĠC ent
ĠðŁĳı ðŁĳıðŁĳı
Ġreali zed
Ġli ved
ĠC har
Ġkho obs
ĠðŁ¤¦ âĢįâĻĤï¸ı
or der
Ġla ane
Ġham re
Ġganda gi
f az
Ġsa as
mb ol
ici es
Ġd ice
Ġsa j
Ġte es
Ġsp ine
form ation
Ġdig est
Ġros han
ar am
Ġye llow
ĠM andir
Ġ0 3
Ġjan war
Ġbus s
Ġsan jay
Ġbna o
Ġdeath s
Ġconst ruction
Ġamer ican
ĠKap oor
C or
p ress
Ġis l
Ġtabi yat
Y o
Ġwal let
Ġch ore
Ġthank u
ank wadi
Ġzam ane
Ġauth ority
ĠAmer ica
b eech
c m
Ġn ick
Ġki m
ĠT ake
Ġbho l
Ġmaar na
Ġru ined
Ġrequ ire
ĠZ indagi
? .
s ara
Ġwo od
Ġen sure
tum hara
Ġhal al
Ġsac hai
Ġsacri fic
astha mpton
mant ri
l in
Ġj aroori
ĠS AL
Ġaap as
ĠC hota
Ġthan di
Ġpeh cha
Ġtax es
ðŁĶ¥ðŁĶ¥ ðŁĶ¥
Ġkar re
re es
ĠH er
Bhai ya
Ġrecord ing
Ġmang te
Ġrev olution
Ġquali fied
Ġuttar akhand
M A
e la
Ġna ukari
Ġmar ji
Ġdel usion
Ġele cted
B B
H n
sa i
ðŁĳ Ĭ
Ġgen oc
Is ka
h mi
Ġb er
and an
Ġsab r
ka am
Ġdoc uments
Ġa ulaad
Ġha g
ĠðŁĺ ĸ
Ġbar y
ĠE N
Ġid enti
Ġaas an
Ġcontro versy
Ġt ah
Ġp ct
Ġy ani
ak s
Ġab ility
ci ent
Ġpak i
Ġbur st
Ġfestiv als
Ġrestaur ant
Ġpl astic
ĠD ena
Ġexp erts
ĠðŁĺĢ ðŁĺĢ
d n
Ġa int
Ġde leted
Ġtha i
ĠS had
Ġwal king
ĠP AR
Ġgu id
Ġkhe li
Ġiss liye
Al so
4 3
Ġp pp
ĠA me
ĠJ aan
ĠSS R
al ways
Ġv at
Ġsee kho
Ġjal te
Ġcour ts
Ġ201 1
6 9
p en
p olice
Ġcap t
oli o
Ġpregn ant
G reat
m om
Ġha vent
Ġli qu
Ġja on
Ġgun de
S ub
Ġl ata
Ġkar eeb
Ġde ya
Ġplay list
Ġcoin c
Ġdesper ate
Ġsaan p
ba aki
Ha hahaha
ðŁĴľ ðŁĴľ
L L
x it
Ġse wa
Ġas pir
Ġbi hari
Ġyoun ger
ðŁ¤® ðŁ¤®
Ġj ameen
Ġra e
Ġbo i
vo te
ig are
Ġdhan da
Ġirrit ate
ðŁİĤ ðŁİĤ
Ġk ph
Ġv log
Ġun block
od er
ard ari
Ġhy derabad
Ġpuch te
Ġef fective
Ġb reat
Ġe ternal
Ġpat ra
Ġep ic
ĠRa he
Ġconst antly
c all
ud hary
ĠH UM
Ġro ast
Ġpal la
break ing
Ġd anda
ta ar
re l
ga ir
Ġhum our
ĠM ad
Ġlag ayi
Ġremo ved
ĠME IN
Ġpossess ive
f un
Ġma haan
Ġar ent
Ġpass port
ham med
Ġaank he
Ġadmin istration
Ġkr k
ĠJ ana
Ġbl as
Ġawa j
Ġdedic ation
st ri
po st
Ġiti has
i o
z el
Ġhas si
ĠO h
Ġmen u
Ġpoet ry
t ry
z ir
re member
Ġro ya
Ġmar enge
Ġtele cast
Ġremain s
v ate
ĠðŁĻ Ĭ
Ġcl ue
Ġdhar na
illi am
ing le
ol er
ra g
h ha
n ame
Ġi i
Ġpol icies
Ġmaan ge
Ġkah ta
Ġlar ka
Ġneta o
Ġzam an
lad ki
Ġd ang
Ġdist ra
Ġb um
ĠA cc
ess i
ĠM ore
Ġno or
ðŁĮ Ł
Ġscrip ted
s uper
ar ently
Ġma ari
Ġbe ach
Ġ7 7
Ġcap able
ĠðŁĺı ðŁĺı
ĠðŁĺ¹ ðŁĺ¹
ðŁ¤ª ðŁ¤ª
L et
M ene
Ġma q
Ġdi gn
ĠK ai
mus lim
Ġd c
Ġd ict
Ġv os
ĠY A
Ġghal ti
4 2
H T
uj li
Ġmo ved
Ġbr own
Ġphoto g
ĠPl z
Ġrac ist
an ka
Ġso ye
ok hi
pr es
Sa are
Ġparesha an
C ho
Ġwill ing
ðŁĴ ĭ
ush ka
Ġara hi
Ġhas s
Ġshe et
oc al
Ġtm hare
Ġprodu cer
Ġs hy
Ġan il
be ar
Ġdar ta
ĠGo vernment
at least
ak ing
Ġas hi
ja ja
ĠðŁ¥º ðŁ¥ºðŁ¥º
Ġeconom ics
Ġdepend s
I P
k n
Ġ ult
Ġus y
ĠC EO
Ġ0 4
vid ha
Ġill ogical
Ġab using
Ġst reak
ĠA T
Ġbad tam
ant ra
Ġsome body
Ġcur se
dd en
Ġconv ince
Ġr itesh
ĠB tw
Ġvi ch
Ġche ese
Ġfi kr
Ġbhe em
Ġappreci ated
p agal
s oul
f b
ha al
Ġri val
Ġel ite
HAN T
b lo
Ġme at
Ġo g
ĠB rit
Ġvi jay
bab y
Ġfas c
Ġ âĺ¹
Ġj harkhand
Ġra w
ak in
ate l
ĠM AN
ĠC ON
Ġpad na
im s
Ġsus tain
Ġdam ad
Ġseed he
Ġaand olan
Ġb le
Ġna mas
Ġun known
Ġhon ga
ik r
Ġaye sha
b ts
Ġd era
ĠðŁĺ Ł
Ġch ora
Ġjab se
Ġcong ratul
Ġfund ament
Ġa x
Ġha bit
Ġg k
Ġya ara
Ġper haps
Ġes cap
Ġappe ase
Ġj ur
en ger
Ġim am
mak ers
Ġan khe
ĠK ay
Ġide al
Ġir res
Ġdisc ount
ĠWe ather
Ġsas ti
ujh se
b hut
p ublic
ra i
Ġad am
Ġkhe t
tle ast
Ġwonder ing
Ġfly ing
R aat
ud ge
Ġchar cha
Ġaaja ye
Ġchampion s
F ollow
S id
c hai
Ġm iya
ed uc
Ġkha ali
Ġpad enge
A ww
A ctually
Ġp ila
ðŁĺ µ
Ġan and
ent y
ĠS K
Ġdikh na
Ġtest ing
ĠQ ue
Ġpar ag
gi es
Ġro ye
ĠL ena
ðŁĴ ©
Ġ0 9
ĠðŁĴ ĵ
Ġran veer
Ġgho st
Ġni fty
chi t
Ġcent uries
ĠSt op
rap hi
Ġneglect ing
A k
S ee
Ġna w
ni e
Ġnami bia
Ġresour ces
p ie
w ide
Ġd udh
Ġde mean
Ġmar athi
Ġpaye gi
5 8
Ġham ko
Ġjan m
Ġhm ne
ĠThe se
Ġopp on
ex am
Ġghum ne
Ġaas hi
yak ti
Ġtre es
ĠðŁĳı ðŁĳı
G ET
Ġd j
Ġd iss
Ġr ush
ĠB HAI
ðŁ¤ Į
Ġkh tam
Ġag encies
do es
Ġgh ussa
Ġdeli vered
Ġinflu en
ĠInsta gram
Ġc p
Ġja pan
Ġprom ised
Ġinvest ors
Ġreme mb
crat ic
w ati
Ġkr un
ĠL agta
per o
Ġlea ves
ĠDon o
ðŁĴª ðŁĴª
ĠRas hid
Ġho li
and o
Ġqu a
Ġbat ch
Ġmad at
Ġhor rible
ĠBhar ath
ĠRis k
Ġas aan
Ġul ti
Ġkill er
ðŁĺ¬ ðŁĺ¬
s hal
al le
ĠT ra
Ġas an
ill er
ĠR ukh
ĠL ag
IN D
b ed
r os
Ġh c
Ġf lights
ut o
ĠK Y
Ġdr ame
Ġcancel led
Ġis t
ind ly
ĠV ery
Ġbless ing
Ġra o
ra ph
ĠK R
Ġtri gger
Ġthr u
Ġkuc ch
Ġc z
en ga
pp a
Ġu chal
Ġwould nt
ï¸ı âĢį
Ġpand ey
Ġdhund h
ðŁĴĥ ðŁĴĥ
d ad
e ms
Ġsa e
Ġre un
Ġthi n
Ġex it
Ġgovern ance
ĠÂ® Â®
IS T
Ġsem is
Ġsakh t
Ġpras ad
Ġj adeja
ur ate
Ġbhe d
Ġsy mbol
Ġd ak
Ġde h
Ġpa aya
Ġti m
Ġcere mony
L D
c ute
g est
l as
Ġya hin
oun der
Ġar chi
Ġtumhe in
ĠV ish
Ġprac har
Ap ni
Ġruk na
Ġsme ll
r c
Ġin saf
Ġv rna
ak er
ĠM iss
ist ered
Ġkho lo
Ġlimit s
Ġtre ated
Ġfing ers
1 000
Ġd ating
ĠG ha
Ġout rage
ree b
ĠU R
Ġdis like
Ġjaan ti
ĠMo st
Ġcri ed
K itna
k g
Ġg ane
Ġba as
ĠA UR
ĠCH OTA
Ġhospit als
Ġk esy
ĠS kin
ĠðŁĺħ ðŁĺħðŁĺħ
ĠðŁ¤£ðŁ¤£ðŁ¤£ ðŁ¤£ðŁ¤£
Ġsemi final
Ġvol ume
Ġmisunder standing
i magine
Ġg m
Ġko o
Ġbor ed
Ġdist rib
ĠðŁļ Ģ
Ġadhi kar
) :
z al
s ay
ðŁ Ĺ
ĠWe ll
Ġp ana
Ġho le
Ġad orable
Ġnee ch
olog ical
cr icket
8 3
f at
Ġin ner
Ġaa oge
Ġpa hale
ĠA ryan
ĠT op
Ġvo c
ĠW as
Ġunemplo yment
J an
n ge
w ish
Ġa ce
Ġpr ad
Ġya di
Ġwas im
Ġsc oot
Ġapp s
Ġsar ay
Ġur self
Ġincre ased
Ġmaster stroke
Ġnahe e
Ġfantas y
B aat
x x
Ġman di
ĠR R
ali zed
Ġbat t
Ġcra ze
ðŁĴĢ ðŁĴĢ
Ġsah b
Ġm f
am y
ri but
Ġmat al
hat t
ðŁĳı ðŁı»
Ġprab hu
Ġd hand
Ġkar on
Ġv u
ĠK eep
ap t
ĠH an
Ġtr ick
Ġfi erce
Ġinst itute
ðŁĺĺðŁĺĺ ðŁĺĺðŁĺĺ
Ġpers pective
Ġg us
Ġjaye in
Ġwar ner
Ġbit coin
ĠVI EWERS
is lam
ĠðŁĺ ļ
Ġacha y
Ġapologi ze
Ġtechni que
ĠS b
sa at
Ġter rible
ĠðŁĺĨ ðŁĺĨðŁĺĨ
K ha
f ather
Ġsp ending
Ġign ored
bab we
Ġpray er
Ġkhul i
Ġpremi um
Ġja ani
Ġre ci
ul s
ĠB rah
Ġmas hallah
oc ol
20 22
ï¸ı â
ĠNo vember
Ġbew koof
C he
M us
f ans
f olio
ĥ £
Ġg ather
ga on
Ġban ayenge
Ġbha j
Ġ5 9
Ġrah unga
Ġbaa har
ï¸ıâ ĥ£
k ur
k ut
Ġla c
ĠK k
Ġlaga ke
llow een
Ġpod cast
H ai
K am
s chool
Ġwa alon
Ġign oring
Ġbadha ne
Ġappro val
arre y
Ġpya are
Ġrepor ted
ĠB u
ĠD al
sha yad
Ġkat ora
ĠJan uary
ðŁĺĭ ðŁĺĭ
p g
en gl
ne ed
Ġun d
Ġgo at
ĠE X
Ġenjo yed
b ly
ĠH on
Ġfa ctor
Ġda ale
we ather
Ġinte gr
Ġjer sey
a w
a vi
Ġp eet
Ġper cen
ĠV icky
Ġresol ve
l ers
Ġn in
Ġc hen
Ġba y
ĠI ve
Ġcomp aring
Ġur ban
Ġpray ing
Ġoffici als
Ġkhoobs urat
ad ays
Ġhi dden
Ġdo h
Ġpic ked
ĠKar ne
ĠRe al
ðŁĺ¥ ðŁĺ¥
ĠðŁĺ µ
Ġkhud ke
Ġer ror
Ġdecl ared
6 5
n ational
ĠG ran
Ġbach ha
Ġaaja o
D esh
p oc
Ġk ong
Ġbol kar
Ġwale y
Ġpat ha
Ġcam er
Ġexpression s
CC I
Ġprepar ation
R ahul
T oday
in y
Ġki yu
te ll
ak es
Ġar nab
ĠE lection
fy ing
Ġmir za
Ġna ch
Ġna ach
Ġshi kay
ðŁĮ º
Ġmass age
ĠRaj asthan
ĠSid harth
ŀ ¡
Ġl ut
Ġka ar
Ġsa if
Ġle ty
Ġare e
Ġdekh le
Ġcl in
Ġ7 4
Ġautomat ically
Ġump ire
oug hout
Ġan cest
ĠK ashi
ud wara
ĠH aan
Ġlad o
Ġthan da
pakistan i
ĠI PL
Ġremind s
Ġan tar
Ġga urav
ap ke
ion s
ðŁĻ ģ
Ġchi t
Ġstu dio
Ġhor ahi
Ġsugges tions
b re
Ġc igare
Ġap as
ass ador
Ġsp ark
Ġgr p
bi e
Ġbhag at
chan di
Ġpremi er
Ġari jit
Ġod isha
it an
ĠH igh
Ġat y
go ing
ĠKar en
Ġmeh soos
Ġaank ho
Ġdoll ars
Ġprepar ed
Ġac qu
Ġtur ning
sing h
R es
an other
Ġsa ha
Ġaa che
ĠC ourt
Ġbi mar
Ġbadal ne
Ġpop at
tho se
Ġdoos ra
n l
z o
Ġt ala
ven tion
pa ir
b ow
Ġa is
Ġp on
Ġcha te
Ġhum or
ĠðŁĻ Ĩ
Ġcl oser
Ġbul let
???? ??
cl oud
ĠH u
ĠP lay
Ġum r
Ġ6 4
Ġmam le
Ġind ira
Ġcritic ise
Ġwild card
ĠVis hal
ó ł
Ġk s
Ġs ma
Ġf ay
ho k
ho o
ĠHA HAHA
Ġchair man
ĠAks hay
Ġglori ous
ół ģ
il ities
.... .....
Ġson ia
Ġnik ki
Ġnik ali
bhag wan
Ġde pressed
Ġdi vid
ĠJ aa
chi na
Ġcolle ges
Ġchur ch
D ekho
S eriously
w elcome
Ġho un
Ġsa ya
ĠB s
Ġkha ate
Ġgra ve
Ġp ora
Ġc urious
Ġpa ce
for d
Ġfore cast
Ġkan un
ak shan
Ġqu ota
ĠW C
Ġmar ti
Ġaj kal
Ġty pical
Ġva idya
Ġnik lega
Ġbit ha
Ġbaj ay
6 7
un ity
le ep
Ġye ss
Ġya m
ed e
ĠM i
Ġfa c
Ġal right
she k
Ġass am
Ġeffect s
Ġchip ka
Ġaans u
Ġuncom fortable
Ġbol d
Ġwa he
Ġbi ology
Ġkal e
Ġir re
ðŁļ ¨
Ġcommit ment
Ġlaf z
e in
w ash
Ġg est
ĠI ll
ĠB ank
Ġsha yari
Ġcr uel
tic al
gal at
Ya ha
kash mir
Ġb ite
hi i
Ġan o
Ġla u
st itution
ĠB ana
ĠP L
Ġro yal
Ġmen tions
Ġreligi ons
some times
Ġhil arious
Ġre verse
Ġbol ungi
Ġpo co
Ġrha a
Ġgi re
Ġhal ka
Ġhit ting
Ġpus hed
Ġcou ples
Ġm g
ya y
Ġj y
Ġst range
Ġ? !
Ġaw ar
Ġkho li
Be cause
Ġjun ior
Ġe ik
Ġy atra
li mit
ðŁ¤ ¢
ĠJ AN
Ġbat en
Ġband ar
Ġquick ly
B at
k ph
Ġc ro
Ġr in
ver si
Ġum a
aap ka
Ġbt c
Ġreg ul
Ġpercen tage
Ġan ur
Ġma ch
ĠK an
Ġout fit
lf are
Ġrah u
Ġmanif est
Ġp esh
Ġre venue
Ġas ide
her o
ĠV ir
ĠV ideo
Ġhat ho
ĠCha lo
Ġemotion ally
e u
ti ans
Ġde bt
om an
Ġi c
Ġpar ent
Ġaap ane
ĠP ay
Ġkh u
In dian
Ġexperience d
Ġpalla vi
Ġp hi
Ġw il
te mber
ĠB abar
Ġ0 5
Ġdur r
tern ational
IL L
ĠMon day
ĠFr iday
s harma
Ġpa hli
Ġassign ments
Ġcorpor ate
¦ ðŁĩ
Ġba az
ab ly
ĠN IS
ba ge
Ġopen ed
Ġdhi re
Ġawar eness
4 1
F T
a gain
b ata
ta d
Ġre hi
Ġ5 8
âľ Ĭ
Ġbho ok
Ġcommit ted
Ġthe ka
Ġse ar
ed a
Ġsub sid
Ġaw k
ĠKa han
Ġguj rat
Ġakh tar
Ġtad ap
ĠChris tian
P hone
w ese
Ġb und
ck er
Ġta e
cess arily
Ġemp ty
Ġcine mas
Ġfemin ist
Ġshikay at
. ðŁĺĤ
D id
Ġre et
ag ing
ĠðŁ¤¦ âĢįâĻĢï¸ı
Ġchuti a
in n
Ġi it
Ġda an
Ġsamajh ne
Ġsamjha o
Ġbache ga
w hats
Ġs light
ot y
op y
ĠT ony
ðŁĺ± ðŁĺ±
A c
I l
S b
ĠS ath
Ġad itya
Ġown ers
Ġfandom s
Ġe gg
Ġbhi m
Ġpar r
Ġpar le
pe h
ĠD ont
ĠSe c
ĠAL LAH
Ġsadi q
Ġlan ka
Ġn urs
Ġkar nataka
me dia
ĠS ushant
ĠD id
Ġ3 000
ĠL ahore
Ġva han
AT A
Ġvirtu al
Ġt ya
Ġj en
Ġkho la
Ġbho o
ðŁĺĤðŁĺĤðŁĺĤðŁĺĤ ðŁĺĤðŁĺĤðŁĺĤðŁĺĤ
Ġr g
Ġnahi i
Ġus ers
Ġdis ci
uf act
Ġdhand ha
at ani
Ġba hat
Ġand roid
Ġpa aji
ĠH ua
ĠG URU
pl us
Ġsamjh ta
ĠON E
v ideo
al am
Ġdi amond
Ġthr oughout
Ġhol idays
Ġsuspend ed
U p
Ġhi ll
ĠSt ate
Ġemplo yment
Ġgaz ab
e lection
Ġb iden
Ġba wal
Ġof c
ĠS HO
ĠD us
Ġspe ll
Ġdign ity
l akh
Ġp mo
Ġki o
Ġmil y
ĠJ al
Ġpat ta
Ġbaja ye
Ġlime light
Ġun able
ĠSa are
Ġpit aji
Ġhaz aro
Ġawk ward
ðŁ¤ «
Ġtime pass
Ġsal on
Ġsen i
k ers
Ġz r
ĠW arna
Ġsec ure
ĠTe am
Ġopportun ities
Ġorgan ic
ĠW ala
Ġda ir
Ġtra p
Ġwind ow
Ġbacha y
Ġutha o
ĠRa wat
Ġhat ya
Be hen
v est
ª Ķ
Ġto e
ĠðŁĴ ©
tum ne
ze aland
Ġhan uman
Ġhi manshi
ĠC O
Ġkit no
Ġcl ar
Ġbul ao
In ko
Ġdh ona
Ġass ump
Ġimag ination
Ġa kar
Ġdoos ri
ðŁ¤¡ ðŁ¤¡
K k
Ġlag ati
Ġji ye
Ġtho k
ĠW ar
ai re
Ġrhe a
ĠF rom
Ġmehn ga
Ġgenoc ide
e ll
y ers
Ġb unch
Ġf are
Ġan us
Ġgreat er
Ġnational ist
Ġcolour s
Ġrememb ered
Ġp harma
en ch
Ġbe ard
ĠP re
Ġqu al
ĠJ A
Ġ8 00
Ġthank ful
Ġ30 2
com o
Ġdiv ine
Ġgeni us
Ġv amp
ĠT am
Ġat ankwadi
ĠD es
Ġqu otes
ĠO m
ran gi
Ġarg uments
Ġfemin ism
na a
ĠN et
Ġlad e
esha war
Ġret ur
Ġcheeze in
Ġf ate
om i
ĠH OTA
pl an
Ġexcl usive
G I
Ġk hai
Ġr khe
Ġj ute
Ġta q
Ġbee f
Ġemo jis
Ġwhe el
j d
Ġn ations
Ġba ant
Ġv ent
Ġwo o
Ġkh ujli
Ġpan chayat
Ġhero es
Ġchall en
Ġcommunic ation
v ad
Ġle li
ĠA gr
ĠP aisa
Ġex ception
Ġat ya
ĠJ aye
Ġtoo ta
ĠðŁİ Ħ
Ġpros per
W hi
b ish
Ġka ushal
âĿ Į
Ġperson s
Ġcol ony
ĠðŁĺĤðŁĺĤðŁĺĤ ðŁĺĤðŁĺĤðŁĺĤ
Ġgen re
Ġusme in
pot ism
Ġinstig ate
Ġchuda il
t ou
Ġk uda
Ġan ak
Ġde ed
ge ous
ĠðŁĺ ¾
ĠT A
Ġsir ji
wo hi
Ġsac cha
ĠAS IM
Ġmanipul ate
º ðŁĩ
fe w
Ġsam asya
Ġprot ocol
c ongrats
p apa
ĠM LA
wa ha
ans h
Ġvi ve
Ġkhel ti
iction ary
Ġtro ops
B est
is ki
ya a
Ġj ar
ĠW est
Ġ5 3
Ġaf fected
Ġaad har
Ġfeed back
luck y
G od
h oni
w eek
â ŃĲ
Ġba hadur
Ġus es
Ġcomp ens
Ġbl m
Ġcap acity
Ġkhushi yan
Ġfool s
m and
ðŁĺ Ł
ap ki
cha he
Ġbu zz
Ġvis ited
ii ii
Ġport folio
Ġevent ually
Ġcorre ction
un cle
Ġcha al
Ġsha q
Ġmak er
ades hi
Ġkno ck
Ġmurd ered
( (
J A
Ġf ro
Ġma alik
Ġad hik
ĠU tt
Ġdar pok
Ġpat ch
Ġaja ye
Ġcow ard
Ġprovid ed
Ġdaar u
Ġzub an
O ur
f ill
Ġan okhi
Ġpe da
Ġpe lo
Ġbhai yya
Ġda ali
Ġdho op
Ġmaz aa
Ġmir ac
sta y
Ġk und
Ġp hn
an di
Ġja haan
Ġwe lfare
ĠD han
Ġjan y
ada v
Ġbn ate
ĠBa ad
ĠðŁ¤Ķ ðŁ¤Ķ
Ġm st
al maan
Ġna d
Ġe ligi
me i
Ġor din
the m
ĠUs ka
rib ed
ĠBi gg
ĠKab ir
Ġdeew ana
Ġsha yed
og ni
Ġcheck ing
Ġple asure
g ya
l g
is mat
Ġac ts
ver ty
ĠS y
ðŁ¤ Ł
Ġpata a
Ġisme in
Ġflip kart
D E
Ġhu gs
Ġor r
Ġkarti k
Ġdiv ision
Ġintellect ual
n esday
Ġthe me
ol o
Ġro cket
Ġtar f
Ġjan ne
Ġshi ksha
Ġsac chi
ðŁĺŃðŁĺŃðŁĺŃðŁĺŃ ðŁĺŃ
Ġinst ru
Ġrecru it
ĠNIS HANT
Ġj k
Ġso ta
p se
ho os
ĠA mit
ĠS ame
rit es
ðŁĴĻ ðŁĴĻ
Ġmot or
ĠWhats App
out ube
ĠðŁĴ ĥ
ri a
ĠM ila
Ġsun ti
Ġold er
Ġcut ting
ĠðŁĺľ ðŁĺľðŁĺľ
Ġnic ha
Ġfaz ool
A ny
p on
Ġfor give
Ġperfect ly
Ġarrog ant
ha me
ol ute
nd er
Ġbat ayenge
Ġes p
Ġge y
Ġpun ch
ðŁ¤¦ ðŁ¤¦
Te mp
Re ally
Ġorgani zation
Ġisl ye
Ġto mar
Ġdes ai
Ġbu eno
Ġpun ya
ĠðŁĻĦ ðŁĻĦðŁĻĦ
Ġiniti ative
ĠGur uji
c hara
Ġs n
Ġr ant
Ġin box
am ar
Ġno ise
Ġpres han
Ġyo jna
Ġju ly
Ġoverthin king
b oth
Ġat tain
mo on
Ġsal ah
Ġfil hal
war na
rap her
Ġwarri ors
Ġfay de
K K
i pl
in ting
Ġl ara
Ġlo vers
Ġsab ak
Ġal co
ĠF il
âľ ħ
Ġnorm ally
N ice
Ġr ud
Ġg rey
Ġas hram
Ġair tel
Ġinf in
Ġfix er
ĠKe jriwal
Ġjind gi
s haram
is hi
Ġr oute
ya ad
Ġas pect
Ġche cked
Ġve dio
Ġchup ke
Ġrul a
ĠYa han
Ġsas ural
ĠChin ese
ĠGran th
Ġf ish
Ġe mi
Ġre tail
ĠB UT
hat ma
ull a
Ġ201 2
Ġku ki
Ġedit or
Ġkey board
Ġja iye
Ġre ward
Ġre jected
Ġstrong ly
ĠKuch h
Ġgrand e
ĠðŁĺĢ ðŁĺĢðŁĺĢ
ĠSikh s
Ġakh ri
Ġappo intment
Ġaffair s
Ġt s
Ġj ad
Ġdon ation
his m
ĠHo ti
Wa ah
Ġnala yak
R Y
Ġk her
Ġv yakti
Ġpar cel
Ġal am
ba az
du llah
Ġimp ression
Ġcomm and
Ġart ists
Ġcompli ment
3 00
Ġd w
ĠF eel
Ġpas a
ĠIt ne
Ġatta ched
ti ck
ĠðŁĺ ¼
ĠT H
Ġchal ay
Ġbar ometer
Ġsw im
Ġsur aj
Ġmaar te
Ġopen er
Ġprop het
Ġvic ti
l ong
v ic
ap u
Ġband o
dd at
Ġple as
T hen
t es
ad ers
Ġe th
Ġbol do
Ġkis san
Ġcan adian
Ġdikha wa
Ġdar wa
ĠHind ustan
Ġess a
« Ĥ
Ġma ulana
Ġban enge
Ġhero ine
Ġla aya
Ġtop ics
ici ent
ĠRo ad
Ġrev enge
Ġgif ted
Ġfreak ing
8 6
j he
Ġt n
Ġv isible
Ġcor ridor
bs olute
Ġmind ed
ĠMa ha
Ġcra ft
Ġinsp ire
Ġf ad
ðŁĺĤ ðŁĺŃ
Ġbhai yon
Ġchal ata
Ġmana ged
Ġform ula
Ġqui z
Li ke
P ta
Ġra ah
Ġjis s
Ġmonth ly
Ġhan s
sr k
Ġmo ves
Ġlag ay
Ġsp iderman
Ġapp arently
Ġover conf
20 14
Ġcas a
Ġbeha s
Ġcame o
ĠTho da
Ġpub l
Ġs ali
Ġr al
Ġsa v
Ġi a
Ġi ch
ĠB T
Ġfa ye
sh u
Ġud h
Ġed ge
Ġtm hari
Ġaja o
d ude
Ġw ht
Ġj esy
Ġbe wafa
Ġ- --
Ġincre dible
Ġdemo tivate
Ġvish wanath
Ġsecret ary
Pl z
7 9
k rit
id hi
Ġun o
Ġte m
Ġman u
Ġda wood
go vt
ĠSa fe
Ġbomb ay
Ġinspir ing
Ġsuperi or
Ġr ow
Ġr hy
Ġr henge
ĠS adiq
ist ure
Ġkam ar
Ġsc ale
ĠIn ter
Ġata y
Ġexperi ment
ĠNe xt
Ġp cb
is iliye
ul der
Ġpa ane
Ġat m
Ġman ufact
Ġbha av
ous e
Ġwin ners
mat ure
Ġbak ri
ici ous
Ġcheez o
ðŁĴ¯ ðŁĴ¯
Ġtele vision
i al
Ġf iction
ved an
Ġutha ye
Ġtam bi
Ġvar an
jan ta
Ġha zaar
Ġc n
Ġman ana
Ġup to
Ġsun ni
ĠV el
Ġbc s
Ġmer ry
Ġdem on
Ġnt pc
sib ly
w ant
ar nak
Ġlog in
Ġmar yam
so ch
Ġco ins
Ġchah ne
Ġmuj se
Ġjin nah
Ġbadal te
Ġconv in
pie ce
Ġaa gaye
kh s
Ġfa altu
Ġal pha
ari f
ĠG e
Ġpre c
Ġul timate
Ap na
Ġcover age
Ġp her
Ġd ates
Ġw ine
Ġmaan ta
ĠðŁĮ ¸
kr am
Ġrat na
Ġkol kata
Ġboun ce
Ġexerc ise
b ade
Ġp ori
st art
Ġhu kum
ĠH im
less ly
H Y
id ity
ra ce
ĠP an
Ġpo verty
Ġhigh way
Ġah mad
ĠSR K
C hutiya
ak ki
ĠL ive
Ġty po
Ġbacha ya
ðŁĺī ðŁĺī
Modi ji
ĠHE AR
Ġshub h
Ġcoinc idence
Ġha lloween
Ġit ny
Ġq at
Ġstrugg ling
Ġa lex
Ġd ot
Ġki lo
Ġtab se
Ġrec ogni
Ġlar gest
Ġremind er
ðŁĺ ¼
Ġin logo
Ġkab il
Ġban akar
Ġmil ay
Ġdekh unga
Ġmeet ha
Ġtarge ted
Ġpret end
Ġk udh
Ġwa fa
Ġno ida
Ġag y
Ġman ner
Ġkal am
Ġmin or
Ġsw ord
Ġinv itation
Ġlu x
Ġint rovert
Ġdraw ing
T m
ĠA zam
Ġkisi ki
Ġad ult
hal le
Ġsamajh na
Ġva ale
Aap ko
Ġenc ore
Ġ ub
Ġm d
he never
Ġl ame
Ġr and
Ġho uses
Ġo dd
Ġja ari
Ġbo ut
Ġvehi cle
Ġsubsid y
Ġj hat
Ġg w
Ġma hin
Ġja kr
Ġne il
ĠA C
Ġult ra
? )
b n
Ġd ictionary
ak shi
ate in
ash n
va ise
Ġ200 7
Sha mita
Ġbon us
b ul
t re
v ance
Ġt ong
Ġt eek
Ġab used
Ġla aye
Ġtum ah
Ġhon or
Ġhad h
sp eed
Ġcertain ly
K e
Ġmar gin
Ġbir d
Ġje ans
Ġaag ye
Ġdad hi
Ġjhan da
Ġne potism
fi eld
ĠðŁĳį ðŁĳį
Om g
Ġdiscrimin ation
9 5
ĠS im
Ġmain u
ĠJ ane
Ġour selves
hh hh
Ġinterview s
Ġfeat ures
ĠPres ident
v ah
Ġpr akash
ĠH un
ada che
Ġgha reeb
Ġwi fi
Ġcri mes
Ġser ver
Ġlega cy
ĠMay be
Ġpis sed
m ous
Ġha j
Ġv ad
Ġpa int
Ġcomp lic
?! ?!
Ġmajbo ori
Ġjh uk
Ġw ra
or ation
Ġcha ka
Ġsur ya
Ġwaq ar
Ġwash room
n as
p art
Ġd k
ud es
ok en
ci ence
ai ye
Ġdan ga
Ġdiscuss ing
Ne xt
ye ars
Ġdo sh
Ġwho ever
ĠO R
Ġsamjh na
Ġutha te
Ġpoo cho
Ġrok ne
Ġspin ner
ĠTR P
Ġpatt har
la w
ĠC OM
Ġpri or
min s
Ġpee ch
8 5
l os
Ġbe gging
Ġkk k
Ġsex ual
Ġzar orat
S hi
Ġty ping
Ġru ke
Ġ11 0
Ġsher ni
Ġmb bs
s una
ha il
Ġm im
Ġpa agal
Ġkha bri
Ġaas man
Ġcritic al
Ġphys ically
Ġsoul s
Ġreti red
Ġmaq sad
te es
Ġli ar
her n
Ġtak at
Ġtri al
Ġcas o
Ġmet hod
Ġtur key
Ġamb assador
Ġchad h
ĠMor ning
phe my
ĠCap tain
Ġguid ance
o C
ga ad
Ġla z
Ġpa o
ĠT er
ĠðŁĺĤ âĿ¤
Ġpat na
Ġhan si
Ġsil ly
Ġph d
A m
Ġkr ain
ĠN ight
Ġbana a
haha h
Ġbest friend
ðŁ¤¦ ðŁı»âĢįâĻĤï¸ı
Ġanup ama
G a
Ġp ity
lo k
Ġfl ash
Ġslog an
Ġs ons
ĠðŁ¤ ĵ
Ġrak esh
Ġcomm er
ĠðŁĮ Ł
ĠBol a
olitic s
Ġ ing
Ġsc ored
Ġdek hen
Ġsamjh ne
Ġaar ha
Ġsig nific
Ġphilos ophy
in st
ĠS chool
Ġno vel
ĠðŁ¤ ®
Ġaga ye
Ġtas veer
Ġsamjha ye
Ġgra cias
Ġbhat t
ĠSAL MAN
b ling
sc reen
s gh
Ġb am
ĠP ad
ali ze
ĠðŁ¤ Ŀ
za am
br ing
Ġtm hara
Ġmys tery
d har
Ġfr ance
Ġsc ary
Ġkho ya
Ġdise ase
Ġappease ment
Ġne pal
ĠS ur
ĠH U
ĠP and
ĠðŁ¥ ±
Ġmind s
Ġx D
Ġadv is
Ġlab el
Ġten u
Ġna sh
om y
ĠS W
de kha
Ġ19 71
Ġhear ted
Ġtroll s
s ale
Ġma uj
Ġdekh ungi
ĠIn ko
Ġ6 2
Tum hare
Ġreg istration
Ġpya ara
Ġvaran asi
f ri
Ġ1 30
Ġman ti
Ġoff ers
sha llah
rit hik
Ġdy nam
Ġgari bo
Ġcontinu ously
Ġpenal ty
Y ess
Ġb read
Ġle ya
ĠB CCI
ĠT hats
Ġbs dk
Ġbacha na
ðŁİ Ħ
Ġamb ul
Ġswag at
Ġjind abad
Ġde t
Ġcha ts
Ġaap ni
Ġkhat arnak
OU R
m are
ha tever
Ġm h
is ta
or ical
Ġus ay
st ra
Ġhu ay
ni k
Ġpo k
Ġ6 3
jal di
Ġgor geous
Ġeld er
, .,
Ġla x
ĠP ura
Ġall ot
here d
20 19
ĠMo vie
p unjab
Ġp t
Ġle ge
st ory
ka hi
sa ala
ĠF ace
Ġhy per
Ġ6 8
AR E
Ġforgot ten
Ġmoun tain
b ile
n is
he m
Ġka e
as hed
Ġsp okes
ori al
Ġgy ani
ĠHam are
Ġconsider ing
Ġankh on
c ere
Ġs ry
Ġw esy
Ġhi a
pa wali
Ġ7 3
Ġbhej ne
Ġay odhya
Ġgh ulam
Ġlam be
Ġrad d
Ġjes us
Ġpropos al
d one
Ġis han
Ġra aste
Ġpe y
st y
ðŁ¤ ĺ
Ġar ha
ĠF riend
Ġsamajh ta
Ġdaal na
Ġbeha lf
ĠNe ha
Ġsap no
D ont
Ġm ong
Ġl ya
Ġre vi
ak o
ĠJ ag
Is me
Ġghum te
Ġtap i
Ġbic hare
Ġmanz il
A pa
E asthampton
c p
Ġi in
ĠF ree
cra ft
Ġtai yari
Ġguil t
L ad
Ġaa ise
Ġcha ra
Ġya kin
Ġbo dies
man yu
Ġpak ar
Ġhas na
Ġgener ally
ĠAk hilesh
Ġelim inate
Ġ âĿĵ
Ġs alian
ir l
Ġit aly
od o
Ġwa jh
Ġdef ensive
Ġsw ami
Ġbach cho
Ġbhej te
ĠðŁĺĳ ðŁĺĳ
Ġb id
Ġsa in
me ko
ĠM UJHE
ĠR adhe
Ġjan ay
Ġcheez on
ĠGo a
ĠGen eral
Ġapr il
r ub
Ġe o
la ude
ĠN Z
Ġhas n
Ġamb edkar
Ġbudd ha
Ġredu ced
sho uld
9 6
h g
u han
v oh
Ġm ol
Ġha ts
Ġsa ad
Ġsab kuch
ri k
ĠB c
ĠY ahi
Ġshi ddat
Ġsitu ations
sub ah
A cc
ĠB TS
oun ter
aj id
Ġpak a
Ġam rit
Ġkat ne
Ġchat room
Ġtay ar
P S
S p
ĠS har
Ġqu ant
ĠW ale
Ġcl os
ðŁİ Ī
m ummy
Ġs ue
Ġc sk
Ġan ime
Ġv k
ĠB l
Ġbas hed
ham ara
Ġdaal ne
Ġmaster mind
ĠCor ona
Ġka ali
ĠA y
ĠS uper
ka han
ma chal
Ġpat har
Ġbach y
Ġser ved
i mp
te ju
Ġor ang
Ġham se
Ġdr unk
Ġpho d
Ġinv ited
Ġbelie ves
???? ????
onal do
ĠAh med
A chha
Ġp une
har d
ct s
ĠJ O
Ġwat an
Ġmas ters
Ġaage y
ĠðŁĺį âĿ¤
Ġuni form
Ġint oler
p ure
z adi
it am
ĠðŁĺ ®
Ġor ange
Ġran di
Ġiq bal
ĠðŁĴĶ ðŁĴĶ
Ġun pe
ĠB aap
Ġro se
hy ung
ĠV e
Ġpaid al
Ġinfr ont
Ġaakh ri
Ġsach me
Ġâ ŀ¡
Ġauth or
Ġvicti ms
Ġk p
Ġt ank
an ces
Ġsa ga
Ġja akar
Ġsho ulder
Ġman hoos
pa isa
Ġsb ka
Ġreg ards
Ġâľ Ķ
jis ko
G O
r akhi
y up
Ġde di
Ġz ameer
Ġdil o
Ġmar s
ĠY adav
Ġ6 6
Ġmaan o
The se
Ġquestion ing
Ġuth na
8 7
l al
p ath
Ġj ug
Ġso od
ĠS tay
Ġni vedan
tum ko
Ġmal ini
Ġtrans late
bhar ath
F ake
p hle
Ġme ta
Ġba ath
hen tic
Ġprom ises
Ġsad ly
Ġutha ke
ðŁĶ¥ðŁĶ¥ ðŁĶ¥ðŁĶ¥
Ġtre asure
gir ls
iter ate
Ġveri fy
Ġka di
ĠP ublic
ĠC hutiya
ĠG ang
Ġkhud ka
Ġtra ve
Ġmu di
Ġmu lla
Ġnews paper
Ġpart ition
Ġil zam
w on
Ġt c
Ġf is
ut ation
Ġcha hiya
Ġfir m
Ġbha jan
Ġjan ch
Ġ10 1
Ġgr ab
Ġene mies
Ġmusk ura
b et
g ic
Ġr khi
ay en
ap ka
Ġsha ke
oun ce
Ġgr oss
Ġatta cked
Ġk ushi
ut ure
ĠT HAT
ber t
Ġrak henge
Ġscholar ship
Ġcigare tte
f o
Ġk ul
se a
Ġkhud ki
Ġchod ke
ussi an
H ope
n ya
he j
Ġka se
Ġhi ke
id o
Ġca used
Ġtaree ka
Ġaara hi
Ġp has
Ġin ta
Ġkr iye
os ti
ag ues
hum an
Ġsamj hi
Ġhonest y
Li fe
Ġpsych ology
9 3
Ġg ini
Ġna kh
Ġsa che
Ġba zar
Ġpa al
ðŁĴ Ŀ
ani el
Ġpublic ly
Ġnok ri
cloud y
' '
l ot
p and
Ġe g
Ġap ky
Ġprab has
r er
ĠW ah
Ġshar ab
let es
Ġpow ers
Ġincom pet
ĠSHO W
I I
K O
Ġsa is
Ġkar m
Ġme di
pp ers
Ġreg istered
Ġrele vant
Ġsmo ke
har mi
ĠM alik
ish ya
Ġkaun se
Ġhad di
akh pur
Ġkama ya
Ġhos akta
Ġprim ary
v or
Ġw ade
Ġab usive
Ġla h
ĠB S
ĠL uck
Ġche ers
shi ne
cc hai
Ġmana o
Ġss c
Ġlear nt
Ġbrain less
J ee
Ġl und
ap an
Ġpro ves
Ġdec re
Ġnika h
ĠSan ta
Ġkham osh
Ġkar dia
ac ted
Ġfar z
Ġsw ara
Ġtay yar
ĠðŁĺĺ ðŁĺĺ
ðŁĴŀ ðŁĴŀ
Ġcontro versi
Ġse d
ĠS till
ĠR ak
Ġri ya
Ġcr op
Ġreal me
Ġcons cious
Ġprodu ce
Ġ14 0
ĠAap ko
Ġconst ru
( )
N ah
h te
Ġdi jo
ĠIs se
ĠLa ga
Ġmasi h
Ġfac ility
Ġko k
ga h
Ġnow adays
Ġsu cks
Ġhoja o
Ġhaf ta
ĠAP A
Ġcous ins
Ġfru it
Ġb p
Ġha ting
Ġsa var
ĠT HA
oll ing
Ġsb ki
Ġati f
Ġberoj gari
+ +
w ing
Ġke a
ot ally
Ġya aar
ĠS hari
op en
ck ers
Ġda ur
mo vie
Ġpta a
Ġgovern or
Ġdemo cratic
Ġvol un
list en
acc ording
Ġa loo
Ġka aran
Ġse es
Ġe V
Ġtw it
Ġwor kout
ji b
mi m
Ġ' '
bo ys
Ġsur f
ank an
kr iti
Ġblack mail
Ġdesc ribe
Ġconcent rate
Ġ:' )
Ġpa isay
ĠW here
Ġshow er
ĠV ento
Ġstart up
Ġjaan ch
AS E
ater al
ĠAL L
Ġnomin ated
Ġimprove ment
Ġupd ated
T V
T hats
m ast
Ġki ra
ĠK er
ĠP ls
Ġover acting
Ġchala ya
Ġhigh lights
Ġlga ya
ĠBar om
Ġcy ber
Un ke
ĠðŁĻıðŁĻıðŁĻı ðŁĻı
Ġrestric tions
ĠWi Ch
s us
Ġs yste
ĠH ol
Ġbha u
Ġbhar ne
Ġkarwa i
Ġgar bage
Ġkahe ga
Ġwis dom
Ġph ones
Ġcompe te
Ġstree ts
c ake
Ġs se
Ġn erv
Ġra z
Ġab road
ĠG ar
Ġjus tification
Ġrepe ated
Ġchad ha
Ġpag la
Ġcomprom ise
s il
Ġn ft
ĠA amir
Ġfa uj
Ġman j
Ġpo cha
tw o
fi z
ĠST R
Ġr ussia
Ġka hen
Ġit ta
ĠT MC
Ġar gu
Ġpun ish
Ġhur ting
ĠUs ne
Ġtan ha
Ġstupid ity
sar kar
Ġsalam at
ab y
Ġthi i
ce le
Ġdo gi
Ġag ric
Ġlag g
Ġco o
Ġdh ul
bsolute ly
Ġto ti
Ġch hut
Ġwas ting
Ġbr idge
Ġmak an
Ġbaj rang
Di di
Ġcomb ination
Ġme dium
Ġi ps
pe hli
Ġban kar
Ġhar der
Ġhal wa
Ġremo te
Ġworth y
ĠMahar ashtra
M i
v ida
Ġv ak
Ġcha sh
pa ise
Ġsy n
Ġcelebr ations
ĠKh ush
Ġinclud ed
mme dar
ĠCr icket
Ġridic ulous
Ġpar is
ĠK ING
ub ai
Ġpro ven
Ġmas ks
Ġstop ping
most ly
ĠLO L
Ġnear ly
Ġculpr its
V I
Ġ uber
Ġa qi
Ġb ff
Ġhe adache
id ing
Ġsho k
Ġpo ison
Ġro cks
Ġover rated
va is
Ġjob less
Ġadv ise
Ġsala am
hel p
ĠJan ta
' Â©
E t
p ret
Ġan cient
om ar
Ġja gh
Ġye ha
Ġz ra
Ġbat ati
Ġtoday s
ĠSa ath
G ur
Ġap ology
ĠA maz
ĠB aar
ĠD ON
Ġmar g
Ġoff ense
Ġdev il
Ġpain ting
Ġhahaha haha
Ġsig ned
Ġb eshak
ho sh
om a
ĠH as
ĠO ther
Ġjus tified
Ġsl aying
Ġcelebr ated
âĺ ķ
Ġ:- )
Ġaccep table
Ġfu cked
Ġsenti ments
Ġblan ket
Ġalco hol
P O
Ġhe al
me dar
ĠðŁ¤ į
Ġbha bi
je ctive
Ġbelie f
Ġbhej ta
IT A
ĠAr ab
Ġblind ly
Ġlen gth
Don o
Ġinten tions
ĠOT T
Ġap k
ĠP al
Ġz omato
Ġup par
esh war
mi x
Ġsb i
Ġconst itu
ĠYa ad
Ġb cha
Ġf ata
it ors
Ġko m
ol f
and h
Ġpar te
ĠS te
Ġjo har
ck le
Ġno us
Ġsweet heart
Ġdeep ak
Ġhoj ate
Ġsoc hiye
9 1
m ade
Ġse ts
Ġapne y
Ġmil o
Ġabhi nav
Ġpat ti
Ġfe b
Ġsin cere
Ġhead ing
Ġpain ful
ðŁĺĲ ðŁĺĲ
olitic al
illiam son
4 00
Ġi maan
ĠB hut
Ġji mmedar
Ġ10 23
Ġpay ers
Ġbole ge
Ġgad hi
ĠAap ke
Ġbub ble
Ġhala at
Ġaaj ata
Ġhim at
az ar
ĠV ote
Ġbhag wa
ĠKh ushi
Ġaza adi
H H
P er
s are
op ho
Ġcomp uls
Ġmad ar
Ġdur ga
bha kti
Ġleg s
ip in
OO D
on line
Ġmus almaan
Ġfav s
Ġside line
Ġwaj ha
Ġtrad ition
ðŁĺĤðŁ¤£ ðŁĺĤðŁ¤£
ĠðŁķ ¯
Ġg ila
ĠA R
ĠA sh
Ġmo ut
ĠP uri
Ġgl ory
Ġguest s
Ġha ya
ol led
ĠM ER
Ġex ists
Ġpad ai
Ġth us
ĠTum hare
Ġful fill
Â®Â® Â®Â®
Ġpostp one
ĠD ekho
ĠG ayi
Ġshe ikh
Ġpas nd
Ġent ered
bha kt
Ġtax pay
ĠMu hammad
ĠGuj arat
Ġattach ment
Ġcommer cial
g m
es us
un ka
Ġand aza
Ġpr erna
Ġpad ma
Ġbhar ta
Ġbare me
Ġsat guru
Ġchod h
OR E
OR T
Ġscen ario
ĠIN D
Ġf le
Ġye sa
Ġhum ili
Ġgo bind
Ġti e
ðŁĺŃ ðŁ¤£
Ġji ya
Ġtal war
oc ation
Ġdep th
com ment
Ġsaab it
Ġsum mit
Ġdress ing
l iterally
Ġh wa
Ġf en
st ud
Ġpa cket
ĠM I
Ġcr us
Ġbana yega
ĠO UT
udd in
Ġbed room
bol lywood
N ai
Ġh k
Ġde bo
Ġal leged
ĠðŁĴ Ľ
ham ari
pr oud
bl ings
W here
k umar
Ġha v
Ġg op
us han
Ġma hesh
ak r
Ġsir aj
Ġjud ging
ph ones
Ġdha yan
Ġprogram me
Ġadhi kari
Ġassoci ation
Ġra ga
ĠB anda
aya d
Ġsur at
Ġkarw ate
alk ot
Y ogi
d al
z an
Ġr oles
Ġbe et
Ġam al
Ġir ada
ar l
Ġit ems
Ġpar da
gi a
Ġbaat en
Ġhar ry
Ġtho ok
Ġeas ier
Us ko
Ġcoun ting
Mo st
p yar
ha el
Ġg ab
it ar
re ts
Ġap man
Ġit nay
Ġsho cking
ass i
Ġsee ma
Ġnew zealand
Ġsh ru
Ġlad a
ĠY o
Ġoff ered
Ġunder rated
Ġaut hentic
Ġlegend s
Ġpus hing
Ġs es
en os
Ġkar li
Ġv ada
ve en
Ġkrta y
Ġmom o
br uary
tiv ity
Ġear s
Ġjam in
Ġyoun gs
ĠLog o
ur o
ĠB aj
ĠT U
Ġes ko
Ġmi an
Ġbeing s
Ha ve
Ġtrans lation
Ġhat es
Ġattack ing
Ġrub bish
Ġtheat res
Ġiste maal
s ong
Ġs hir
Ġto pper
Ġsa cchai
am er
ðŁ¤ ¯
Ġmat he
Ġpak ki
Ġ?? ???
IN E
Ġcons ult
Ġstudy ing
Ġ500 00
Ġtaree ke
Ġbrand s
ĠUS A
ĠNO W
ĠShi v
Ġnerv ous
O hhh
ing o
ho ol
ee la
Ġus par
Ġal wa
Ġhis se
Ġcr it
ĠU se
Ġx i
Ġorig in
Ġgradu ation
Ġflo od
Ġpar king
ja han
ðŁĴ °
Ġsamjha na
Ġtod na
osh ni
Ġclar ity
Ġambul ance
Ġan ch
Ġlo u
Ġre forms
ish q
mi ghty
Ġid her
Ġjal ta
hab ra
Ġtri es
Ġsuna o
Ġhead s
wor king
ĠLog on
AC K
Ġbic hara
Ġconse qu
Ġg zel
ye a
Ġba ata
ri e
Ġwa hh
ĠD P
Ġup s
Ġta ang
Ġres olution
Ġfan base
Ġur gent
Ġdub a
Ġdeep ly
ðŁĸ Ĳ
Ġdham aka
Ġsarcas tic
Ġspons or
limit ed
Ġatya char
s abhi
po tify
Ġdaal te
Ġweak ness
Ġc ds
Ġin si
Ġof course
Ġham la
bi har
ðŁĺĤðŁĺĤðŁĺĤðŁĺĤ ðŁĺĤðŁĺĤ
Ġdan cer
belie vable
d p
u ed
Ġa de
Ġp han
Ġso le
Ġhum ain
Ġcomp le
Ġbu ht
itu tions
ici an
Ġmed als
Ġreplace ment
Ġmos que
Ġlic ense
t f
Ġme chan
Ġhi ding
Ġchi diya
Ġgr ant
Ġliter ature
Ġcoun se
Ġcoll ab
Ġgo ver
Ġaj ata
Ġkarwa ye
Ġsikh na
EN D
P o
u gg
Ġpr ag
ĠM aj
Ġperform ing
P C
Ġv el
ĠK hal
Ġpa ison
Ġkit aab
Ġstay ing
Ġmaster piece
Ġlaun ched
b il
ti ye
Ġle ct
gi ving
Ġban ger
Ġman ne
ĠJ eet
Ġsoc henge
Ġancest ors
Ġral lies
ha as
Ġt all
Ġe lla
Ġperfor med
Ġbis cuit
ðŁĺ ²
ka ala
Ġjo king
ĠM RE
ðŁ¤ ¤
Ġjan o
Ġjai pur
Ġpredic t
Ġchuti ye
Ġpow der
Ġscient ist
ĠBrit ish
s ang
Ġka if
ĠP i
Ġghar wale
adi es
Ġsama an
Ġhelp less
Ġ6 7
Ġside l
Ġclo ut
ĠNi kal
Ġpartners hip
% .
F inally
Ġg ita
ĠT aliban
cha in
Ġrel atable
Ġchaha te
s her
Ġb uk
ĠA ri
si le
AI SE
Sha me
Ġnas al
Ġveri fied
J aise
y og
Ġlog g
Ġte ena
Ġz ardari
Ġum med
Ġ6 1
Ġhand ed
ĠSo ch
Ġju ice
l at
Ġk ane
Ġja z
Ġsab ji
Ġcon tain
Ġch ord
Ġkaro o
Ġbhe ji
Ġdar na
ull u
Ġud hr
Ġacknow ledge
Ġempower ment
C r
Ġl ayi
Ġan k
Ġaa h
Ġwas hing
wa iting
ĠR ub
Ġay ush
Ġkard ena
g b
hi gh
Ġg ens
Ġe ager
Ġap olog
Ġab tak
Ġun ho
ĠR ight
ĠL ord
Ġgr own
Ġkhila ya
Ġcommun ist
Ġbaj wa
Ġkaren gi
Ġangre zi
V ID
k uf
er ves
Ġf ang
Ġna ki
Ġme han
Ġan kho
Ġba gal
ĠS r
Ġni yat
Ġsun kar
Ġq adar
Ġdar o
Ġsur round
Ġbul ana
Ġappro ved
ĠLa ude
Ġadop t
gas us
Ġfundament al
Ġin active
Ġre ham
Ġaaj ate
Ġvo hi
Ġbha shan
Ġass um
mor ning
Ġgam ing
ĠKyun ki
ðŁĴĹ ðŁĴĹ
ĠRE AL
Ġsequ ence
Ġshre ya
Ġreun ion
M r
m ur
Ġl mao
Ġra ising
ĠðŁ Ľ
ul si
Ġst om
ĠP ress
ang g
ĠðŁ¥ µ
ug hal
Ham are
Ġiz at
S an
Ġna aa
om b
ĠS pe
Ġwas ted
Ġkha uf
Ġbo ca
Ġtra uma
Ġmag ical
bl ue
Ġdhak ke
Some one
Ġaa kr
Ġz o
oh t
Ġjal ane
Ġfocus ed
!!!! !!
Ġscript ures
Ġhung ry
d t
¬ ĩ
Ġa os
Ġd ant
ma ar
ub ali
Ġsak u
Ġkam ine
Ġusse y
Ġcut est
AM E
Ġprotest s
Ġaar ti
cap tain
ðŁķ º
Ġfaye da
P rime
T une
ar as
Ġg reet
ĠD uniya
ðŁĮ ¼
ĠKr ishna
Ġmuk t
Ġchaha ta
Ġlala ch
Ġpig hal
Ġmahin o
Ġban ani
Ġsta ble
vo ke
Ġok k
mere ko
Ġmed itation
AM A
Ġhypoc rites
Ka ha
ðŁķ ī
Ġembarrass ing
c ti
ĠF ake
Ġtam atar
van gi
ĠAf rica
pro f
bra him
M uje
Ġs allu
Ġg ro
ðŁĺ ®
ut ta
Ġbe er
est yle
hin andan
Ġkh un
Ġhar shad
Ġdikha ti
Ġrele asing
ophi es
U CK
b ing
c kets
ĠC DS
Ġmar wa
Ġid s
Ġ100 00
ĠIs ko
Ġkur ta
Ġcru ise
Ġordin ary
l ow
v y
Ġho mes
ðŁĺ °
st ream
Ġmo halle
Ġsh orts
Ġbr on
Ġtou ching
Ġdekho ge
âĢį ðŁĴ«
Ġchar ging
ĠRaha ne
ta bi
Ġbol un
ĠC urrent
Ġco oper
aro hi
Ġtri gg
ðŁİ ģ
Ġref lect
ĠIslam ic
Ġregi me
B hag
D K
Ġn n
Ġi am
Ġre pair
Ġwe t
ĠR ed
art han
Ġchi l
Ġdhanya wad
Ġeligi ble
ba hot
Ġshi a
Is se
Ġdho ke
Ġpares an
Ġf ara
Ġna az
Ġkar sak
un ki
ĠP ic
Ġchan da
Ġbhar tiya
Ġfl ower
ig ned
Ġchak ki
Ġbeha ving
bum ps
. '
7 8
b hir
w ed
Ġd eri
Ġba gh
ĠS uch
Ġcho ices
ĠL iya
ĠF in
Ġth ursday
Ġpeh ne
Ġemp ire
ðŁĲ į
Ġflir ting
p appu
s ince
Ġm undo
Ġis land
Ġja en
Ġfor est
ĠM ana
Ġsha pe
ja ane
Ġsm s
lic ate
Ġweek ly
s si
Ġh s
ĠðŁĺ °
li b
Ġgo ons
Ġjao gi
Ġtel ugu
Ġregi onal
Ġpran am
Ġtac tics
# @
m umbai
he li
le vant
Ġre y
Ġpe han
ĠB IR
Ġsho q
Ġsh yad
Ġ201 0
Ġconcl usion
Ġethi cs
Ġko s
Ġse ven
ĠB lack
ap e
de c
aa v
ex pected
Ġinst itutions
Ap ko
Ġlay out
Ġprovid ing
Ġt asty
Ġjo int
Ġmo o
ĠP C
ĠP as
Ġkis a
Ġbet hi
ðŁĮ »
Ġmaj b
ĠNe hru
AK E
Ġphe k
L ocal
Ġha fiz
Ġf ounder
Ġna ina
ĠH ome
af ghanistan
Ġlin ks
Ġgang uly
Ġeh saan
Ġsharm inda
Ġdisappo int
Ġthrow ing
, .
6 2
W A
Ġf lee
ĠA pa
ri g
Ġsh ona
ðŁĳ »
Ġbl ank
Ġraj eev
ĠðŁĺŃðŁĺŃðŁĺŃ ðŁĺŃðŁĺŃðŁĺŃ
Ġsamjha ne
Ġpin ned
Ġclari fy
ĠJAN TA
er jee
id ad
kh ya
Ġbol ra
ĠM ag
Ġno on
Ġworld wide
Ġdh ong
Ġset t
ĠKa am
ĠðŁĺİ ðŁĺİ
Ġthreat s
Ġadvoc ate
ðŁĺ ¾
Ġme as
um ps
ĠN am
Ġser ving
ĠUn ited
Ġassist ant
Ġtherap y
Ġblas phemy
s har
ot al
Ġtar h
pa id
Ġrep utation
Ġpre cap
Ġhold s
Ġcoun cil
Ġdeni ed
Ġprincip al
Ġkedar nath
N ishant
f uck
ha ir
ni a
Ġsamj henge
Ġdal ta
Ġdisc us
Ġbeg ins
Ġguz ara
O K
Z indagi
Ġa id
Ġb ord
ĠA g
Ġsome time
hum ne
Ġunder es
Ġgener ations
Ġai ims
Ġconveni ence
Ġt and
Ġs ata
Ġd yan
Ġj ine
ĠS ong
Ġsc ope
Ġpee th
Ġagree ment
Ġpra ising
ĠKyu ki
Ġdul han
Ġdrin king
r adhe
en tific
Ġja adu
Ġch li
Ġman gal
ang le
Ġ19 84
Ġboo ked
Ġb ast
Ġn it
Ġw ud
Ġj st
Ġy k
hr s
und ar
Ġbak ra
Ġhat ane
Ġkill ers
Ġsatis fied
Bi gg
Ġaltern ative
Ġt ed
Ġs hara
Ġl on
Ġka ka
Ġe ve
Ġbe ating
Ġsha ming
Ġz ain
ĠD harm
Ġsun ega
Ġsun aya
Ġhun ger
Ġadd ing
Ġpich li
ðŁĺįðŁĺį ðŁĺį
Ġâ ĸ
Ġfield ing
Ġsuit case
sim ba
Ġn ath
Ġj uth
Ġsha de
Ġut hi
oo ja
ĠV ik
Ġdu o
Ġchala o
Ġsucc eed
Ġrac ism
ðŁļ¶ âĢįâĻĢï¸ı
Ġghat na
U K
ri ate
gh ters
Ġman ate
Ġkhan i
ĠJ UST
Ġjis m
Ġsakte y
Ġran bir
Ġext ended
Ġkap da
ĠNe ver
Ġt are
Ġl m
ĠM ur
Ġsam sung
Ġmus i
Ġsar y
ĠIs ka
ĠðŁ¤¦ ðŁı»âĢįâĻĢï¸ı
f am
z en
Ġj n
Ġhu u
Ġpa ata
ĠC hu
Ġhas ne
con s
Ġwap si
âĺº âĺº
ðŁĻĮ ðŁı»
omat ic
b ass
Ġrep la
Ġter min
ĠBa har
Ġkhol ne
vis hal
Ġdisci pl
om ething
ĠP apa
Ġsam arthan
Ġreply ing
Ġlist ing
Ġbadha o
Ġtrad itional
Ġsang at
Wa it
A g
Ġt ub
Ġn rc
Ġaa isa
Ġvo cal
Ġad he
Ġche ater
ĠO ut
Ġsad hna
