{"<|endoftext|>":0,"<|pad|>":1,"<|unk|>":2,"!":3,"\"":4,"#":5,"$":6,"%":7,"&":8,"'":9,"(":10,")":11,"*":12,"+":13,",":14,"-":15,".":16,"/":17,"0":18,"1":19,"2":20,"3":21,"4":22,"5":23,"6":24,"7":25,"8":26,"9":27,":":28,";":29,"<":30,"=":31,">":32,"?":33,"@":34,"A":35,"B":36,"C":37,"D":38,"E":39,"F":40,"G":41,"H":42,"I":43,"J":44,"K":45,"L":46,"M":47,"N":48,"O":49,"P":50,"Q":51,"R":52,"S":53,"T":54,"U":55,"V":56,"W":57,"X":58,"Y":59,"Z":60,"[":61,"\\":62,"]":63,"^":64,"_":65,"`":66,"a":67,"b":68,"c":69,"d":70,"e":71,"f":72,"g":73,"h":74,"i":75,"j":76,"k":77,"l":78,"m":79,"n":80,"o":81,"p":82,"q":83,"r":84,"s":85,"t":86,"u":87,"v":88,"w":89,"x":90,"y":91,"z":92,"{":93,"|":94,"}":95,"~":96,"¡":97,"¢":98,"£":99,"¤":100,"¥":101,"¦":102,"§":103,"¨":104,"©":105,"ª":106,"«":107,"¬":108,"®":109,"¯":110,"°":111,"±":112,"²":113,"³":114,"´":115,"µ":116,"¶":117,"·":118,"¸":119,"¹":120,"º":121,"»":122,"¼":123,"½":124,"¾":125,"¿":126,"À":127,"Á":128,"Â":129,"Ã":130,"Ä":131,"Å":132,"Æ":133,"Ç":134,"È":135,"É":136,"Ê":137,"Ë":138,"Ì":139,"Í":140,"Î":141,"Ï":142,"Ð":143,"Ñ":144,"Ò":145,"Ó":146,"Ô":147,"Õ":148,"Ö":149,"×":150,"Ø":151,"Ù":152,"Ú":153,"Û":154,"Ü":155,"Ý":156,"Þ":157,"ß":158,"à":159,"á":160,"â":161,"ã":162,"ä":163,"å":164,"æ":165,"ç":166,"è":167,"é":168,"ê":169,"ë":170,"ì":171,"í":172,"î":173,"ï":174,"ð":175,"ñ":176,"ò":177,"ó":178,"ô":179,"õ":180,"ö":181,"÷":182,"ø":183,"ù":184,"ú":185,"û":186,"ü":187,"ý":188,"þ":189,"ÿ":190,"Ā":191,"ā":192,"Ă":193,"ă":194,"Ą":195,"ą":196,"Ć":197,"ć":198,"Ĉ":199,"ĉ":200,"Ċ":201,"ċ":202,"Č":203,"č":204,"Ď":205,"ď":206,"Đ":207,"đ":208,"Ē":209,"ē":210,"Ĕ":211,"ĕ":212,"Ė":213,"ė":214,"Ę":215,"ę":216,"Ě":217,"ě":218,"Ĝ":219,"ĝ":220,"Ğ":221,"ğ":222,"Ġ":223,"ġ":224,"Ģ":225,"ģ":226,"Ĥ":227,"ĥ":228,"Ħ":229,"ħ":230,"Ĩ":231,"ĩ":232,"Ī":233,"ī":234,"Ĭ":235,"ĭ":236,"Į":237,"į":238,"İ":239,"ı":240,"Ĳ":241,"ĳ":242,"Ĵ":243,"ĵ":244,"Ķ":245,"ķ":246,"ĸ":247,"Ĺ":248,"ĺ":249,"Ļ":250,"ļ":251,"Ľ":252,"ľ":253,"Ŀ":254,"ŀ":255,"Ł":256,"ł":257,"Ń":258,"Ġk":259,"ha":260,"Ġt":261,"Ġa":262,"Ġs":263,"Ġb":264,"hi":265,"čĊ":266,"Ġm":267,"in":268,"ar":269,"Ġh":270,"Ġp":271,"Ġn":272,"Ġha":273,"Ġd":274,"he":275,"an":276,"Ġl":277,"er":278,"on":279,"Ġc":280,"at":281,"is":282,"Ġw":283,"ðŁ":284,"..":285,"Ġr":286,"ya":287,"Ġhai":288,"al":289,"Ġto":290,"Ġj":291,"Ġg":292,"en":293,"or":294,"ye":295,"Ġf":296,"it":297,"Ġho":298,"es":299,"Ġka":300,"Ġna":301,"ur":302,"Ġsa":303,"us":304,"ta":305,"ðŁĺ":306,"as":307,"Ġthe":308,"Ġkar":309,"un":310,"Ġme":311,"Ġki":312,"ch":313,"le":314,"Ġko":315,"ing":316,"ad":317,"um":318,"Ġo":319,"Ġse":320,"re":321,"Ġin":322,"ti":323,"Ġe":324,"am":325,"te":326,"ke":327,"Ġhi":328,"ne":329,"Ġke":330,"ho":331,"il":332,"Ġan":333,"Ġde":334,"Ġba":335,"ut":336,"Ġis":337,"Ġnahi":338,"Ġra":339,"ol":340,"ay":341,"Ġbhi":342,"Ġli":343,"Ġma":344,"ir":345,"Ġaa":346,"na":347,"ga":348,"om":349,"Ġtha":350,"Ġv":351,"Ġlo":352,"Ġja":353,"Ġy":354,"Ġi":355,"Ġcha":356,"Ġbe":357,"uch":358,"ic":359,"ve":360,"Ġand":361,"ou":362,"Ġre":363,"ge":364,"Ġye":365,"Ġap":366,"Ġof":367,"di":368,"...":369,"ee":370,"ise":371,"Ġhe":372,"Ġdi":373,"ĠðŁĺ":374,"ak":375,"Ġus":376,"ly":377,"ab":378,"Ġpr":379,"Ġit":380,"han":381,"me":382,"Ġne":383,"Ġab":384,"Ġthi":385,"Ġaur":386,"ot":387,"se":388,"ent":389,"Ġkya":390,"har":391,"ll":392,"Ġkuch":393,"ati":394,"ow":395,"uj":396,"Ġla":397,"Ġkr":398,"Ġle":399,"id":400,"Ġpe":401,"ĠðŁ":402,"hai":403,"Ġnhi":404,"Ġon":405,"ere":406,"Ġga":407,"ce":408,"ul":409,"Ġyou":410,"ter":411,"Ġfor":412,"Ġdo":413,"ate":414,"Ġac":415,"Ġtum":416,"Ġya":417,"li":418,"st":419,"ko":420,"ata":421,"kh":422,"Ġtoh":423,"ujhe":424,"Ġun":425,"up":426,"Ġhota":427,"Ġst":428,"and":429,"Ġhu":430,"Ġpar":431,"Ġlog":432,"Ġliye":433,"Ġso":434,"la":435,"ra":436,"Ġ1":437,"Ġbol":438,"ver":439,"ĠK":440,"ðŁĺĤ":441,"Ġpa":442,"ĠA":443,"od":444,"Ġor":445,"one":446,"Ġhain":447,"Ġsab":448,"ĠS":449,"ka":450,"Ġjo":451,"Ġaap":452,"ki":453,"ĠI":454,"ed":455,"ri":456,"ud":457,"Ġmein":458,"Ġek":459,"Ġhum":460,"gi":461,"Ġwo":462,"are":463,"Ġkab":464,"Ġkoi":465,"gh":466,"Ġbhai":467,"Ġte":468,"ana":469,"ess":470,"ma":471,"op":472,"est":473,"Ġ2":474,"ĠB":475,"ct":476,"ap":477,"Ġbut":478,"end":479,"ck":480,"ĠT":481,"ĠM":482,"ation":483,"hir":484,"ist":485,"Ġas":486,"Ġthat":487,"ðŁ¤":488,"Ġapne":489,"da":490,"Ġwal":491,"Ġmo":492,"Ġgaya":493,"tion":494,"Ġcon":495,"ers":496,"Ġky":497,"Ġgo":498,"Ġare":499,"Ġthis":500,"ath":501,"Ġmujhe":502,"Ġni":503,"our":504,"Ġraha":505,"ni":506,"pe":507,"??":508,"Ġwa":509,"Ġmain":510,"ith":511,"Ġcom":512,"ts":513,"ĠH":514,"cha":515,"....":516,"os":517,"Ġwe":518,"Ġtw":519,"ust":520,"'s":521,"Ġbad":522,"Ġti":523,"Ġtr":524,"ah":525,"Ġrahe":526,"Ġch":527,"ĠP":528,"Ġnot":529,"ill":530,"Ġphir":531,"Ġkis":532,"qu":533,"her":534,"!!":535,"Ġ,":536,"Ġwith":537,"Ġsha":538,"Ġmere":539,"lo":540,"hiye":541,"Ġmat":542,"Ġsir":543,"eri":544,"th":545,"ĠðŁĺĤ":546,"Ġmai":547,"Ġex":548,"Ġ.":549,"Ġbaat":550,"hin":551,"Ġban":552,"mp":553,"Ġkiya":554,"Ġkh":555,"kha":556,"Ġno":557,"Ġwas":558,"hat":559,"wa":560,"Ġmil":561,"Ġz":562,"Ġfa":563,"Ġkaise":564,"Ġal":565,"Ġsho":566,"ment":567,"Ġat":568,"ght":569,"ld":570,"Ġchahiye":571,"Ġdekh":572,"Ġall":573,"ro":574,"eet":575,"Ġag":576,"ja":577,"et":578,"Ġkabhi":579,"Ġkha":580,"Ġlag":581,"dia":582,"00":583,"Ġdon":584,"Ġmy":585,"nd":586,"ðŁĺŃ":587,"Ġhar":588,"Ġpl":589,"ore":590,"ub":591,"Ġlike":592,"Ġbo":593,"Ġaaj":594,"Ġman":595,"ion":596,"Ġfr":597,"Ġhoga":598,"'t":599,"Ġtu":600,"hen":601,"ind":602,"ase":603,"ĠD":604,"Ġtime":605,"Ġtak":606,"ari":607,"ara":608,"Ġabhi":609,"ry":610,"Ġji":611,"era":612,"ant":613,"ast":614,"ity":615,"ong":616,"ðŁ¤£":617,"ine":618,"isa":619,"Ġpro":620,"Ġup":621,"enge":622,"ĠC":623,"Ġaise":624,"Ġwor":625,"Ġhave":626,"ort":627,"che":628,"amp":629,"ðŁĺĤðŁĺĤ":630,"pp":631,"Ġu":632,"Ġpo":633,"ally":634,"Ġta":635,"Ġcan":636,"ane":637,"ĠR":638,"ali":639,"ĠN":640,"ure":641,"Ġwill":642,"Ġkhan":643,"Ġro":644,"Ġyour":645,"ass":646,"man":647,"hy":648,"Ġtho":649,"Ġ-":650,"Ġcho":651,"Ġvo":652,"Ġthey":653,"Ġpad":654,"Ġbi":655,"Ġqu":656,"ard":657,"Ġsak":658,"ayi":659,"ĠG":660,"ans":661,"Ġyeh":662,"de":663,"Ġdin":664,"vi":665,"Ġkaro":666,"Ġdiya":667,"Ġhua":668,"Ġpata":669,"ide":670,"ome":671,"oll":672,"Ġhis":673,"oun":674,"kar":675,"ice":676,"Ġkisi":677,"Ġhone":678,"Ġsahi":679,"ish":680,"fe":681,"Ġ..":682,"Ġ3":683,"Ġ&":684,"Ġfrom":685,"Ġfir":686,"sa":687,"Ġdil":688,"Ġhon":689,"now":690,"ted":691,"day":692,"hing":693,"esh":694,"Ġuske":695,"Ġsi":696,"istan":697,"ok":698,"ðŁĻ":699,"ĠW":700,"ty":701,"Ġmar":702,"ci":703,"ĠJ":704,"Ġen":705,"ac":706,"Ġsam":707,"nk":708,"hle":709,"aj":710,"Ġpak":711,"Ġhas":712,"hut":713,"ai":714,"Ġam":715,"âĿ":716,"ame":717,"ue":718,"Ġ?":719,"Ġrahi":720,"uru":721,"lease":722,"out":723,"ena":724,"Ġkyun":725,"to":726,"Ġsup":727,"ĠðŁĻ":728,"Ġher":729,"ĠL":730,"Ġwho":731,"Ġjust":732,"ble":733,"Ġum":734,"Ġby":735,"Ġad":736,"Ġ(":737,"all":738,"Ġham":739,"Ġvi":740,"Ġrha":741,"Ġknow":742,"Ġkarte":743,"Ġjab":744,"Ġlove":745,"Ġlogo":746,"Ġsay":747,"Ġone":748,"Ġbas":749,"ĠðŁ¤":750,"Ġsp":751,"âĿ¤":752,"Ġjaye":753,"Ġkam":754,"Ġtweet":755,"Ġshe":756,"Ġper":757,"Ġout":758,"Ġkarna":759,"der":760,"Ġkarne":761,"ene":762,"Ġbha":763,"Ġkare":764,"ang":765,"Ġkal":766,"Ġindia":767,"Ġar":768,"Ġchal":769,"ji":770,"Ġkhud":771,"Ġbar":772,"Ġhim":773,"ven":774,"Ġbat":775,"Ġgayi":776,"ff":777,"kin":778,"ous":779,"si":780,"Ġsath":781,"Ġda":782,"Ġche":783,"Ġshow":784,"ĠðŁĺŃ":785,"so":786,"Ġitna":787,"Ġagar":788,"Ġri":789,"ag":790,"ðŁĴ":791,"Ġkyu":792,"very":793,"ence":794,"Ġwhat":795,"Ġ5":796,"Ġgi":797,"Ġcr":798,"Ġchan":799,"ile":800,"Ġres":801,"mo":802,"Ġbaad":803,"kal":804,"ani":805,"Ġacc":806,"use":807,"Ġsun":808,"yaar":809,"Ġkit":810,"Ġsal":811,"port":812,"ree":813,"Ġ...":814,"eed":815,"ays":816,"Ġwoh":817,"art":818,"ress":819,"ollow":820,"Ġsee":821,"Ġnai":822,"Ġ:":823,"Ġany":824,"Ġnew":825,"Ġif":826,"Ġumar":827,"Ġsh":828,"Ġsirf":829,"Ġlad":830,"Ġ4":831,"ew":832,"ople":833,"Ġnow":834,"Ġtere":835,"Ġwale":836,"Ġabout":837,"Ġaf":838,"ĠU":839,"Ġwala":840,"hr":841,"Ġrhe":842,"ber":843,"Ġbana":844,"ting":845,"Ġ20":846,"Ġlaga":847,"Ġsc":848,"Ġreh":849,"ĠY":850,"und":851,"Ġplease":852,"atik":853,"ðŁĺŃðŁĺŃ":854,"Ġgal":855,"yada":856,"Ġgu":857,"mi":858,"ount":859,"Ġget":860,"Ġuse":861,"Ġmera":862,"Ġhind":863,"Ġgood":864,"Ġsome":865,"Ġhoti":866,"Ġkaha":867,"ks":868,"Ġpeople":869,"Ġbata":870,"Ġdek":871,"ush":872,"Ġbola":873,"Ġbahut":874,"Ġtab":875,"ther":876,"Ġonly":877,"Ġchi":878,"ba":879,"Ġfollow":880,"ðŁ¤£ðŁ¤£":881,"jh":882,"Ġcomp":883,"Ġevery":884,"Ġ0":885,"Ġour":886,"Ġkaam":887,"Ġtar":888,"eel":889,"ction":890,"Ġjan":891,"Ġoff":892,"bhai":893,"Ġmodi":894,"Ġkaran":895,"Ġpehle":896,"Ġapni":897,"Â©":898,"Ġband":899,"ĠF":900,"Ġbaar":901,"Ġdesh":902,"Ġ10":903,"ese":904,"Ġpakistan":905,"ala":906,"Ġteam":907,"ura":908,"Ġmeri":909,"Ġghar":910,"Ġhapp":911,"Ġbhar":912,"Ġmore":913,"Ġthem":914,"Ġlekin":915,"Ġaga":916,"Ġco":917,"be":918,"Ġgya":919,"Ġpyaar":920,"uk":921,"Ġkhe":922,"pa":923,"hot":924,"Ġfi":925,"im":926,"Ġthink":927,"ash":928,"ys":929,"Ġbec":930,"Ġins":931,"Ġaisa":932,"ĠE":933,"ould":934,"ðŁ¥":935,"Ġiss":936,"Ġpass":937,"Ġpol":938,"ket":939,"Ġyear":940,"Ġgaye":941,"ite":942,"Ġinke":943,"Ġtujhe":944,"Ġhote":945,"Ġtheir":946,"riend":947,"sh":948,"Ġkarta":949,"Ġpas":950,"Ġhow":951,"Ġjis":952,"Ġdikha":953,"Ġaccha":954,"Ġpratik":955,"Ġtumhe":956,"ðŁı":957,"king":958,"Ġgr":959,"Ġkaun":960,"ahi":961,"Ġlife":962,"Ġsupport":963,"Ġcl":964,"Ġagain":965,"Ġut":966,"Ġfeel":967,"Ġwhen":968,"ek":969,"itter":970,"ðŁĳ":971,"lf":972,"gn":973,"Ġrep":974,"Ġkeh":975,"Ġjaise":976,"Ġnaam":977,"Ġapna":978,"ng":979,"Ġjaa":980,"Ġpic":981,"ðŁĻı":982,"Ġplay":983,"Ġeven":984,"Ġday":985,"ĠO":986,"Ġmus":987,"Ġcont":988,"Ġsaal":989,"Ġmin":990,"iti":991,"Ġlagta":992,"Ġid":993,"Ġyaar":994,"ĠðŁĴ":995,"ning":996,"Ġsu":997,"Ġback":998,"shi":999,"ina":1000,"Ġapp":1001,"Ġsaath":1002,"ĠKhan":1003,"tu":1004,"Ġwhi":1005,"Ġliya":1006,"Ġdid":1007,"ery":1008,"ily":1009,"ood":1010,"ep":1011,"ory":1012,"Ġchu":1013,"Ġtoo":1014,"Ġraat":1015,"Ġop":1016,"cho":1017,"Ġbh":1018,"jp":1019,"adi":1020,"iss":1021,"my":1022,"ran":1023,"Ġguru":1024,"og":1025,"Ġsaare":1026,"the":1027,"oh":1028,"Ġshi":1029,"el":1030,"Ġhy":1031,"Ġsb":1032,"je":1033,"Ġthen":1034,"led":1035,"haha":1036,"yi":1037,"do":1038,"Ġdis":1039,"Ġbl":1040,"af":1041,"Ġother":1042,"no":1043,"Ġsama":1044,"Ġsakta":1045,"Ġwhy":1046,"Ġth":1047,"Ġsm":1048,"Ġsame":1049,"Ġbest":1050,"Ġthere":1051,"erson":1052,"Ġfriend":1053,"ful":1054,"yega":1055,"iya":1056,"Ġes":1057,"Ġsar":1058,"isi":1059,"Ġnikal":1060,"Ġmad":1061,"Ġsaid":1062,"Ġsk":1063,"Ġalso":1064,"Ġjata":1065,"Ġusko":1066,"ause":1067,"ĠIn":1068,"Ġque":1069,"reat":1070,"Ġdr":1071,"tw":1072,"ms":1073,"az":1074,"Ġexp":1075,"ated":1076,"mit":1077,"Ġunke":1078,"bhi":1079,"Ġfam":1080,"Ġneed":1081,"Ġhel":1082,"Ġreal":1083,"for":1084,"Ġbr":1085,"ale":1086,"Ġover":1087,"Ġ9":1088,"ves":1089,"Ġbhe":1090,"Ġhindu":1091,"uld":1092,"Ġ7":1093,"abhi":1094,"Ġinter":1095,"ving":1096,"ada":1097,"ason":1098,"Ġkia":1099,"ĠðŁĳ":1100,"Ġq":1101,"Ġperson":1102,"ute":1103,"Ġdena":1104,"Ġpta":1105,"ori":1106,"Ġmatch":1107,"Ġwant":1108,"Ġvide":1109,"Ġbadi":1110,"Ġkro":1111,"Ġmile":1112,"Ġacha":1113,"Ġhona":1114,"Ġsoch":1115,"va":1116,"ways":1117,"Ġrhi":1118,"ary":1119,"Ġbus":1120,"Ġdono":1121,"Ġits":1122,"Ġhelp":1123,"ond":1124,"Ġdete":1125,"Ġsakte":1126,"Ġmaine":1127,"ance":1128,"Ġwat":1129,"Ġ6":1130,"chi":1131,"Ġnahin":1132,"oo":1133,"gg":1134,"Ķ¥":1135,"Ġshould":1136,"Ġkon":1137,"Ġdun":1138,"Ġpre":1139,"rong":1140,"bi":1141,"ft":1142,"Ġ8":1143,"hum":1144,"Ye":1145,"hone":1146,"iye":1147,"Ġfar":1148,"Ġafter":1149,"Ġsub":1150,"Ġtwitter":1151,"Ġmovi":1152,"Ġhun":1153,"uri":1154,"Ġgame":1155,"Ġcol":1156,"tic":1157,"Ġtra":1158,"aa":1159,"Ġ!":1160,"Ġmei":1161,"tain":1162,"ĠV":1163,"here":1164,"ĠðŁĺĤðŁĺĤ":1165,"pl":1166,"oss":1167,"jo":1168,"Ġmuch":1169,"Ġteja":1170,"liye":1171,"Ġtal":1172,"âĻ":1173,"Ġdekha":1174,"aise":1175,"Ġthank":1176,"Ġpost":1177,"Ġlast":1178,"Ġdu":1179,"pect":1180,"Ġim":1181,"Ġhad":1182,"Ġbir":1183,"lab":1184,"sir":1185,"Ġfans":1186,"Ġaaya":1187,"Ġdus":1188,"Ġkhel":1189,"Ġdar":1190,"age":1191,"ents":1192,"Ġbjp":1193,"Ġgalat":1194,"own":1195,"Ġindi":1196,"gar":1197,"Ġdes":1198,"Ġunder":1199,"int":1200,"Bhai":1201,"za":1202,"his":1203,"Ġgir":1204,"ĠðŁĻı":1205,"ult":1206,"ens":1207,"Ġel":1208,"xt":1209,"Ġitni":1210,"Ġwali":1211,"rat":1212,"Ġvery":1213,"Ġmu":1214,"vel":1215,"Ġthan":1216,"ach":1217,"tiya":1218,"till":1219,"ĠðŁ¤£":1220,"Ġyaad":1221,"inda":1222,"lic":1223,"Ġparty":1224,"Ġacche":1225,"hal":1226,"Ġmay":1227,"Ġrakh":1228,"Ġmon":1229,"Ġjal":1230,"Ġproble":1231,"Ġsing":1232,"Ġtrend":1233,"Ġwould":1234,"tum":1235,"ord":1236,"ona":1237,"Ġthing":1238,"Ġhogi":1239,"Ġwin":1240,"Ġvideo":1241,"???":1242,"ss":1243,"du":1244,"Ġbc":1245,"Ġfan":1246,"Ġdec":1247,"Ġchah":1248,"Ġmas":1249,"Ġright":1250,"oc":1251,"Ġur":1252,"Ġimp":1253,"ked":1254,"Ġalways":1255,"Ġkarke":1256,"Ġaj":1257,"Ġsid":1258,"Ġlook":1259,"20":1260,"itic":1261,"hara":1262,"Ġbu":1263,"Ġworld":1264,"Ġbecause":1265,"hari":1266,"Ġmuj":1267,"act":1268,"Ġkrna":1269,"Ġsong":1270,"ition":1271,"icket":1272,"Ġbeen":1273,"Ġcomment":1274,"Ġfin":1275,"Ġuska":1276,"Ġjyada":1277,"ðŁĩ":1278,"ðŁı»":1279,"Ġjeet":1280,"Ġseri":1281,"Ġvote":1282,"Ġaata":1283,"dar":1284,"Ġala":1285,"Ġkrte":1286,"Ġway":1287,"Ġsec":1288,"Ġbet":1289,"Ġbee":1290,"Ġcong":1291,"Ġrah":1292,"hant":1293,"ĠðŁ¥":1294,"Ġkk":1295,"lim":1296,"Ġyaha":1297,"Ġdoes":1298,"Ġdeta":1299,"Ġjao":1300,"Ġstop":1301,"eek":1302,"Ġjay":1303,"Ġmake":1304,"Ġbro":1305,"we":1306,"'m":1307,"other":1308,"Ġfirst":1309,"read":1310,"ors":1311,"Ġpos":1312,"Ġtemp":1313,"Ġ'":1314,"ude":1315,"gal":1316,"Ġrak":1317,"Ġagainst":1318,"Ġstill":1319,"Ġunhe":1320,"Ġkrne":1321,"Ġsy":1322,"ny":1323,"Ġbb":1324,"Ġpm":1325,"Ġspe":1326,"yan":1327,"Ġtoday":1328,"Ġreply":1329,"Ġhappy":1330,".....":1331,"ain":1332,"thday":1333,"jab":1334,"pt":1335,"mes":1336,"Ġcount":1337,"Ġname":1338,"Ġexam":1339,"Ġmovie":1340,"Â®":1341,"Ġproblem":1342,"!!!":1343,"ze":1344,"tr":1345,"Ġrec":1346,"Ġjayega":1347,"Ġmre":1348,"Ġwere":1349,"hare":1350,"Ġbs":1351,"ĠðŁĺĤðŁĺĤðŁĺĤ":1352,"Ġnever":1353,"ations":1354,"Ġfamily":1355,"sed":1356,"Ġjit":1357,"Ġce":1358,"ama":1359,"fi":1360,"Ġstart":1361,"Ġtake":1362,"lection":1363,"Ġwar":1364,"Ġnews":1365,"ega":1366,"Ġblo":1367,"aro":1368,"yar":1369,"line":1370,"mujhe":1371,"Ġhere":1372,"Ġ100":1373,"Ġaw":1374,"kuch":1375,"mat":1376,"ister":1377,"Ġdikh":1378,"mber":1379,"Ġaaye":1380,"Ġhoon":1381,"Ġbeech":1382,"cial":1383,"uck":1384,"Ġcall":1385,"sha":1386,"tam":1387,"Ġchange":1388,"Ġtou":1389,"Ġinc":1390,"Ġbaap":1391,"Ġdekho":1392,"Ġshar":1393,"Ġreally":1394,"vt":1395,"red":1396,"Ġcor":1397,"kya":1398,"Ġ....":1399,"AR":1400,"âĢ":1401,"Ġtwee":1402,"Ġsalman":1403,"Ġthese":1404,"ull":1405,"Ġmatlab":1406,"able":1407,"Ġchale":1408,"urn":1409,"hab":1410,"Ġhui":1411,"Ġcap":1412,"Ġaapko":1413,"Ġach":1414,"Ġfree":1415,"Ġsta":1416,"orry":1417,"Ġwait":1418,"ps":1419,"Ġfil":1420,"Ġmi":1421,"Ġpat":1422,"thing":1423,"Ġdost":1424,"aaj":1425,"Ġpri":1426,"Ġyahi":1427,"vo":1428,"ham":1429,"Ġmedia":1430,"Ġkitna":1431,"Ġhue":1432,"Ġbirthday":1433,"Ġladki":1434,"cy":1435,"Ġmost":1436,"Ġge":1437,"ner":1438,"aya":1439,"Ġwell":1440,"Ġtry":1441,"Ġchala":1442,"ved":1443,"Ġjaan":1444,"Ġbot":1445,"Ġlg":1446,"Ġtop":1447,"Ġlena":1448,"Ġbeing":1449,"âĢį":1450,"Ġwind":1451,"Ġitne":1452,"ode":1453,"Ġfav":1454,"Ġdef":1455,"Ġconf":1456,"ora":1457,"Ġisliye":1458,"Ġbolo":1459,"bo":1460,"aur":1461,"ĠâĿ¤":1462,"Ġsw":1463,"Ġgot":1464,"ds":1465,"Ġfake":1466,"Ġlogon":1467,"Ġweek":1468,"Ha":1469,"Ġkhar":1470,"Ġuski":1471,"bs":1472,"Ġstar":1473,"Ġmila":1474,"als":1475,"AN":1476,"ug":1477,"Ġlead":1478,"ublic":1479,"Ġwork":1480,"mag":1481,"Ġbetter":1482,"Ġet":1483,"Ġ202":1484,"esha":1485,"Ġkho":1486,"Ġsamajh":1487,"Ġpi":1488,"Ġwhich":1489,"wal":1490,"unga":1491,"per":1492,"Ġhm":1493,"ky":1494,"¸ı":1495,"ï¸ı":1496,"ðŁĶ¥":1497,"âľ":1498,"Ġje":1499,"go":1500,"Ġlet":1501,"Ġtarah":1502,"pr":1503,"Ġcle":1504,"Ġsur":1505,"Ġkarti":1506,"Ġfe":1507,"nt":1508,"Ġ??":1509,"Ġread":1510,"hu":1511,"Ġlage":1512,"Ġsol":1513,"Ġteri":1514,"wan":1515,"ĠTe":1516,"Ġep":1517,"Ġhand":1518,"Ġpay":1519,"Ġjaga":1520,"Ġlist":1521,"Ġaccount":1522,"Ġmany":1523,"Ġbig":1524,"lete":1525,"Ġtweets":1526,"Ġdont":1527,"ik":1528,"Ġlikh":1529,"Ġsach":1530,"Ġdel":1531,"min":1532,"self":1533,"Ġtera":1534,"ace":1535,"Ġtas":1536,"Ġnext":1537,"gr":1538,"get":1539,"Ġyears":1540,"Ġchota":1541,"Ġpolitic":1542,"amne":1543,"Ġmen":1544,"chool":1545,"Ġgen":1546,"Ġsamj":1547,"Ġmor":1548,"po":1549,"Ġend":1550,"Ġcomm":1551,"Ġbahar":1552,"cc":1553,"kul":1554,"Ġok":1555,"Ġgod":1556,"Ġkrta":1557,"Ġrel":1558,"Ġprom":1559,"Ġbole":1560,"ðŁ¥º":1561,"less":1562,"tice":1563,"Ġpaas":1564,"Ġcome":1565,"rit":1566,"Ġmiss":1567,"ctor":1568,"aap":1569,",,":1570,"Ġak":1571,"Ġpaise":1572,"gt":1573,"reak":1574,"Ġmt":1575,"Ġalag":1576,"ffer":1577,"Ġnum":1578,"Ġgovt":1579,"Ġindian":1580,"Ġwon":1581,"aki":1582,"Ġkeep":1583,"tions":1584,"Ġhope":1585,"Ġtag":1586,"Ġclass":1587,"Ġthoda":1588,"Ġbehen":1589,"Ġvir":1590,"âĢįâĻ":1591,"Ġplz":1592,"Ġcare":1593,"Ġstand":1594,"ters":1595,"Ġbolte":1596,"zar":1597,"Ġkhi":1598,"Ġapko":1599,"Ġgye":1600,"Ġusse":1601,"Ġunko":1602,"ten":1603,"Ġker":1604,"arur":1605,"Ġstud":1606,"Ġsuch":1607,"ĠThe":1608,"Ġlive":1609,"Ġdown":1610,"ism":1611,"Ġpho":1612,"Ġthou":1613,"Ġkre":1614,"ilkul":1615,"but":1616,"Ġpan":1617,"Ġkhatam":1618,"Ġdal":1619,"Ġcongress":1620,"indagi":1621,"ough":1622,"Ġstate":1623,"Ġcal":1624,"ower":1625,"Ġlete":1626,"Ġsaamne":1627,"Ġmom":1628,"Ġkarenge":1629,"une":1630,"Ġgreat":1631,"Ġsaf":1632,"br":1633,"ĠHum":1634,"Ġkabar":1635,"Ġbina":1636,"yad":1637,"vers":1638,"Ġter":1639,"Ġchee":1640,"hli":1641,"Ġ!!":1642,"Ġty":1643,"Ġpublic":1644,"Ġbhag":1645,"jiye":1646,"Ġsad":1647,"Ġev":1648,"ade":1649,"Ġjee":1650,"Ġgive":1651,"Ġtumhare":1652,"Ġbohot":1653,"Ġcar":1654,"Ġbab":1655,"Ġbta":1656,"Ġacchi":1657,"ical":1658,"Ġgoing":1659,"Ġbach":1660,"alman":1661,"akistan":1662,"Ġmean":1663,"Ġwit":1664,"Ġmuslim":1665,"Ġgirl":1666,"Ġschool":1667,"ship":1668,"lie":1669,"lam":1670,"Ġpart":1671,"au":1672,"Ġpura":1673,"Ġnehi":1674,"erv":1675,"Ġau":1676,"Ġnation":1677,"Ġmaa":1678,"Ġpla":1679,"Ġcase":1680,"vern":1681,"Ġzyada":1682,"Ġjana":1683,"Ġgand":1684,"Ġwaise":1685,"Ġaage":1686,"Ġact":1687,"mita":1688,"ody":1689,"hn":1690,"Ġcountry":1691,"uth":1692,"Ġaati":1693,"round":1694,"Ġcour":1695,"ric":1696,"Ġ$":1697,"Ġseason":1698,"mar":1699,"Ġusne":1700,"tive":1701,"Ġaad":1702,"Ġbaki":1703,"ating":1704,"Ġjanta":1705,"Ġmonth":1706,"Ġbada":1707,"Ġchor":1708,"yes":1709,"ces":1710,"con":1711,"ĠMo":1712,"Ġguys":1713,"Ġhonge":1714,"Ġjagah":1715,"Ġbho":1716,"IN":1717,"Ġpolice":1718,"res":1719,"Ġdenge":1720,"ative":1721,"Ġadd":1722,"Ġwan":1723,"Ġaya":1724,"Ġnh":1725,"Ġkhush":1726,"Ġhawa":1727,"stand":1728,"Ġview":1729,"ida":1730,"Ġinko":1731,"kes":1732,"Ġelection":1733,"fic":1734,"Ġhay":1735,"Ġrain":1736,"wn":1737,"Ġud":1738,"Ġjin":1739,"Ġduniya":1740,"fa":1741,"Ġ12":1742,"par":1743,"oup":1744,"les":1745,"Ġvis":1746,"Ġmaar":1747,"Ġsorry":1748,"Ġblock":1749,"Ġdene":1750,"ream":1751,"Ġbacha":1752,"Ġepis":1753,"Ġlit":1754,"Ġaapke":1755,"Ġhein":1756,"Ġmana":1757,"Ġques":1758,"Ġpaisa":1759,"Ġpee":1760,"Ġclear":1761,"Ġjate":1762,"Ġ201":1763,"Ġwalo":1764,"Ġthik":1765,"Ġkuchh":1766,"Ġnaa":1767,"Ġopen":1768,"Ġsabse":1769,"hh":1770,"Ġ15":1771,"ĠKar":1772,"Ġfun":1773,"Ġcele":1774,"Ġpasand":1775,"Ġtell":1776,"__":1777,"Ġjob":1778,"Ġsen":1779,"itu":1780,"Ġdhar":1781,"Ġgha":1782,"Ġachi":1783,"Ġpuch":1784,"nel":1785,"Ġstrong":1786,"Ġsin":1787,"Ġfl":1788,"ĠðŁĻĤ":1789,"Ġwhere":1790,"Ġsamjh":1791,"Ġhamare":1792,"Ġtri":1793,"Ġbare":1794,"fore":1795,"Ġkarega":1796,"Ġyr":1797,"Ġsarkar":1798,"Ġpadh":1799,"Ġdays":1800,"Ġside":1801,"Ġjai":1802,"Ġdoing":1803,"Ġgovern":1804,"ðŁĺį":1805,"ously":1806,"HA":1807,"if":1808,"Ġwahi":1809,"Ġnumber":1810,"Ġmis":1811,"Ġlol":1812,"Ġkitne":1813,"Ġmade":1814,"Ġbura":1815,"Ġsaying":1816,"Ġcricket":1817,"Ġsus":1818,"ose":1819,"Ġdur":1820,"Ġthr":1821,"mm":1822,"gl":1823,"Ġface":1824,"Ġcheck":1825,"Ġhume":1826,"its":1827,"Ġent":1828,"Ġrespect":1829,"Ġboss":1830,"Ġsom":1831,"Ġchoti":1832,"Ġmum":1833,"Ġdekhna":1834,"ather":1835,"Ġdiye":1836,"Ġpun":1837,"yeh":1838,"Ġjati":1839,"Ġkahan":1840,"Ġfull":1841,"war":1842,"Ġpur":1843,"app":1844,"Ġphone":1845,"Ġtk":1846,"Ġdia":1847,"ĠYe":1848,"Ġwrong":1849,"ER":1850,"Ġpower":1851,"Ġrun":1852,"Ġwatch":1853,"Ġprof":1854,"Ġjaldi":1855,"ons":1856,"Ġdiffer":1857,"Ġhigh":1858,"Ġgur":1859,"Ġhate":1860,"Ġkhus":1861,"Ġwish":1862,"Ġkiye":1863,"tra":1864,"tiv":1865,"Ġve":1866,"Ġutha":1867,"oney":1868,"Ġnight":1869,"was":1870,"iness":1871,"Ġyes":1872,"ðŁĮ":1873,"Ġplan":1874,"form":1875,"Ġgyi":1876,"Ġemo":1877,"Ġkahi":1878,"ready":1879,"saan":1880,"Ġmorning":1881,"Ġisko":1882,"Ġallah":1883,"oud":1884,"hank":1885,"Tum":1886,"Ġru":1887,"Ġraho":1888,"ality":1889,"Ġvac":1890,"Ġpyar":1891,"Ġdone":1892,"Ġphoto":1893,"Ġinv":1894,"Ġbolna":1895,"ia":1896,"Ġcould":1897,"ĠÂ®":1898,"Ġbht":1899,"Ġwap":1900,"Ġprop":1901,"hout":1902,"Mujhe":1903,"Ġbul":1904,"Ġpres":1905,"Ġ11":1906,"Ġbolne":1907,"Ġunderstand":1908,"Ġsomeone":1909,"Ġraj":1910,"agar":1911,"Ġpls":1912,"ular":1913,"Ġchar":1914,"ething":1915,"haan":1916,"Ġmal":1917,"sab":1918,"Ġtrue":1919,"Ġaate":1920,"mere":1921,"Ġva":1922,"ject":1923,"ligi":1924,"ick":1925,"Ġsabko":1926,"cted":1927,"Ġstory":1928,"Ġiska":1929,"Ġreason":1930,"Ġlong":1931,"ogi":1932,"ings":1933,"mb":1934,"Ġaye":1935,"Ġmilega":1936,"Ġgovernment":1937,"ig":1938,"Ġyahan":1939,"Ġfact":1940,"you":1941,"Ġmaj":1942,"rect":1943,"wali":1944,"Ġwaq":1945,"ank":1946,"Ġupar":1947,"Ġchannel":1948,"Ġmind":1949,"llah":1950,"lb":1951,"cle":1952,"Ġbefore":1953,"eeb":1954,"ĠDe":1955,"Ġwom":1956,"Ġriaz":1957,"Sir":1958,"Ġbhul":1959,"Ġram":1960,"wab":1961,"Ġline":1962,"Ġata":1963,"Ġepisode":1964,"Ġchup":1965,"Ġlevel":1966,"Ġlaw":1967,"sp":1968,"15":1969,"ĠIndia":1970,"In":1971,"ĠAur":1972,"Ġshare":1973,"Ġpoint":1974,"Ġthose":1975,"Ġsomething":1976,"Ġbak":1977,"ðŁĻıðŁĻı":1978,"Ġkharab":1979,"Ġign":1980,"ĠIs":1981,"Ġwaj":1982,"Ġtask":1983,"ates":1984,"Ġactu":1985,"Ġfriends":1986,"Ġnor":1987,"Ġheart":1988,"Ġzindagi":1989,"Ġalready":1990,"Ġshuru":1991,"Ġss":1992,"ĠHe":1993,"**":1994,"Ġ19":1995,"Ġbac":1996,"Ġbook":1997,"pne":1998,"Ġyar":1999,"ror":2000,"this":2001,"Ġjud":2002,"med":2003,"ici":2004,"Ġinto":2005,"ger":2006,"Ġsure":2007,"Ġmoney":2008,"urs":2009,"Ġson":2010,"ĠðŁĺŃðŁĺŃ":2011,"ðŁĺħ":2012,"Ġear":2013,"ĠðŁĺŃðŁĺŃðŁĺŃ":2014,"Ġown":2015,"ards":2016,"Ġcheez":2017,"ju":2018,"ĠIt":2019,"ðŁİ":2020,"Ġboth":2021,"Ġjaisa":2022,"Ġopp":2023,"ishant":2024,"ĠðŁĺħ":2025,"Ġeveryone":2026,"mal":2027,"Ġsakti":2028,"Ġdelhi":2029,"Ġjus":2030,"ht":2031,"log":2032,"Ġlak":2033,"Ġtumhari":2034,"000":2035,"yed":2036,"Ġagr":2037,"ching":2038,"Ġbreak":2039,"ðŁĺģ":2040,"Ġlikha":2041,"Ġcent":2042,"Ġil":2043,"Ġdeser":2044,"Ġpromo":2045,"Ġbelie":2046,"Ġdh":2047,"Ġnik":2048,"Ġfilm":2049,"Ġuss":2050,"ities":2051,"Ġdekhne":2052,"Ġminister":2053,"koi":2054,"Ġdusre":2055,"30":2056,"ungi":2057,"mir":2058,"Ġdaal":2059,"Ġfight":2060,"Are":2061,"Ġleke":2062,"Ġjb":2063,"Ġaane":2064,"Ġshame":2065,"Ġcaptain":2066,"Ġgai":2067,"Ġrakha":2068,"ĠKuch":2069,"Ġkidar":2070,"Ġsat":2071,"Ġasim":2072,"Ġshamita":2073,"sible":2074,"ru":2075,"ned":2076,"Ġaapne":2077,"av":2078,"Ġking":2079,"yo":2080,"ĠBhai":2081,"Ġmuh":2082,"Ġed":2083,"Ġtm":2084,"Ġjarur":2085,"cept":2086,"Ġset":2087,"Ġtest":2088,"Ġreligi":2089,"Ġthings":2090,"Ġmess":2091,"ph":2092,"Ġmaan":2093,"Ġbra":2094,"Ġbeta":2095,"ered":2096,"way":2097,"Ġdum":2098,"ident":2099,"The":2100,"Ġfollowers":2101,"Ġgalti":2102,"Ġpahle":2103,"itna":2104,"Ġbt":2105,"10":2106,"Ġdik":2107,"Ġbatao":2108,"Ġkm":2109,"had":2110,"Ġtheek":2111,"bar":2112,"Ġdm":2113,"Ġnee":2114,"Ġpeh":2115,"Ġwha":2116,"ĠMe":2117,"Ġwithout":2118,"Ġhn":2119,"esa":2120,"Ġsan":2121,"Ġchutiya":2122,"'re":2123,"ĠðŁ¥º":2124,"tle":2125,"Ġhappen":2126,"Ġhear":2127,"wood":2128,"Ġide":2129,"mas":2130,"Ġlin":2131,"Ġpapa":2132,"Ġbilkul":2133,"wo":2134,"Ġdou":2135,"any":2136,"Ġair":2137,"Ġchoice":2138,"hit":2139,"apne":2140,"Ġcalled":2141,"ĠBut":2142,"ĠðŁĮ":2143,"Ġkara":2144,"ero":2145,"ube":2146,"Ġhard":2147,"Ġsare":2148,"vid":2149,"ches":2150,"Ġden":2151,"Ġmilta":2152,"Ġchho":2153,"Ġthodi":2154,"oi":2155,"Ġkarwa":2156,"ive":2157,"ĠðŁĺį":2158,"ĠKa":2159,"maz":2160,"Ġali":2161,"Ġisse":2162,"Ġexc":2163,"Ġwajah":2164,"Ġhamesha":2165,"Ġinf":2166,"ex":2167,"Ġbn":2168,"Ġneg":2169,"ĠHai":2170,"bha":2171,"co":2172,"Ġmam":2173,"Ġind":2174,"Ġwaqt":2175,"Ġlene":2176,"Ġimran":2177,"Ġiske":2178,"Ġgar":2179,"Ġir":2180,"Ġbor":2181,"Ġbna":2182,"Ġunki":2183,"por":2184,"Ġpuri":2185,"Ġdidn":2186,"ĠModi":2187,"view":2188,"Ġunka":2189,"Ġthanks":2190,"Ġmm":2191,"Ġwaha":2192,"Ġtune":2193,"ight":2194,"alth":2195,"ĠPakistan":2196,"ghts":2197,"Ġchod":2198,"of":2199,"Ġvia":2200,"mer":2201,"Ġmodiji":2202,"Ġms":2203,"ĠTum":2204,"Ġtumhara":2205,"cer":2206,"Ġgad":2207,"Ġbade":2208,"Ġpure":2209,"Ġgali":2210,"ession":2211,"Ġbait":2212,"Ġaction":2213,"Ġhal":2214,"Ġpal":2215,"Ġinsaan":2216,"ital":2217,"ĠðŁĺģ":2218,"Ġshayad":2219,"Ġold":2220,"Ġny":2221,"Ġtv":2222,"Ġatta":2223,"Ġhara":2224,"Ġboy":2225,"Ġtwo":2226,"Ġkah":2227,"phir":2228,"Ġroad":2229,"Ġcas":2230,"Ġjaate":2231,"Ġcry":2232,"Ġ30":2233,"Ġquestion":2234,"Ġans":2235,"zz":2236,"ðŁĺ¡":2237,"Ġaayega":2238,"Ġsamne":2239,"ita":2240,"Ġhome":2241,"Ġbla":2242,"Ġgol":2243,"Ġjoin":2244,"ĠIm":2245,"Ġsl":2246,"Ġbolta":2247,"Ġdimag":2248,"ðŁĻĤ":2249,"âĿ¤âĿ¤":2250,"Ġpagal":2251,"Ġmust":2252,"Ġever":2253,"joy":2254,"Ġaapki":2255,"ĠðŁĶ¥":2256,"Ġkay":2257,"ution":2258,"Ġval":2259,"ĠMa":2260,"ðŁĺĤðŁĺĤðŁĺĤ":2261,"main":2262,"Ġbal":2263,"Ġcons":2264,"Ġbharat":2265,"Ġage":2266,"tim":2267,"Ġmed":2268,"ĠðŁĻĦ":2269,"ling":2270,"Ġcute":2271,"Ġimport":2272,"Ġcre":2273,"Ġsafed":2274,"Ġcolle":2275,"Ġpadta":2276,"Ġkhila":2277,"Ġbhut":2278,"Ġdam":2279,"Ġ2021":2280,"fect":2281,"odu":2282,"Ġhur":2283,"Ġjaaye":2284,"Ġfal":2285,"Ġtara":2286,"Ġrequ":2287,"Ġbhej":2288,"Ġsamaj":2289,"Ġfew":2290,"Ġcard":2291,"Ġkhushi":2292,"Ġaisi":2293,"Ġdoesn":2294,"ðŁĴĶ":2295,"Ġreg":2296,"Ġput":2297,"ĠAb":2298,"ited":2299,"ness":2300,"Ġskta":2301,"ĠSha":2302,"Ġnd":2303,"Ġx":2304,"Ġdeti":2305,"Ġetc":2306,"abe":2307,"ĠHind":2308,"Ġuni":2309,"âĻ¥":2310,"andom":2311,"Ġarmy":2312,"Ġself":2313,"Kuch":2314,";&":2315,"It":2316,"Ġlot":2317,"Ġdega":2318,"Ġmand":2319,"yal":2320,"Ģï¸ı":2321,"âĢįâĻĢï¸ı":2322,"yam":2323,"ghan":2324,"Ġkat":2325,"Ġaik":2326,"Ġdiwali":2327,"Ġhist":2328,"Ġmene":2329,"ĠYou":2330,"lywood":2331,"Ġcelebr":2332,"Ġchill":2333,"Ġshadi":2334,"Ġtb":2335,"Ġnar":2336,"Ġjitna":2337,"Is":2338,"Ġpadega":2339,"Ġsays":2340,"Ġhouse":2341,"Ġlga":2342,"Ġchaiye":2343,"Ġgetting":2344,"not":2345,"Ġdep":2346,"Ġbigg":2347,"Ġamp":2348,"Ġku":2349,"Ġmatter":2350,"Ġchahe":2351,"Ġfo":2352,"Ġfut":2353,"ues":2354,"umar":2355,"Ġmak":2356,"ĠPr":2357,"Ġaayi":2358,"Ġhan":2359,"Ġdisc":2360,"Ġonline":2361,"Ġnothing":2362,"Ġwarna":2363,"Ġkut":2364,"aye":2365,"Ġwi":2366,"Ġng":2367,"Ġbaare":2368,"afi":2369,"Ġchalega":2370,"Ġignore":2371,"Ġest":2372,"Ġlagi":2373,"Ġyout":2374,"ĠJo":2375,"AT":2376,"'ll":2377,"Ġactually":2378,"Ġfore":2379,"Ġeverything":2380,"Ġcur":2381,"Ġhit":2382,"ision":2383,"ont":2384,"Ġvacc":2385,"Ġtroll":2386,"Ġstay":2387,"Ġcup":2388,"fy":2389,"Ġwords":2390,"ĠKya":2391,"Ġmujh":2392,"Ġanything":2393,"Ġrehta":2394,"ii":2395,"endra":2396,"kabhi":2397,"HI":2398,"ĠAnd":2399,"Ġ/":2400,"auti":2401,"He":2402,"Ġapke":2403,"Ġgener":2404,"Ġkind":2405,"lain":2406,"Ġ50":2407,"Ġadv":2408,"Ġbaro":2409,"Ġake":2410,"âĺ":2411,"she":2412,"Ġly":2413,"Ġbow":2414,"ension":2415,"Ġjane":2416,"Ġword":2417,"nahi":2418,"Ġlgta":2419,"Ġghatiya":2420,"JP":2421,"Ġkyuki":2422,"Ġsingle":2423,"Ġcop":2424,"reen":2425,"what":2426,"Ġdekhte":2427,"Ġplayer":2428,"Ġfail":2429,"Ġgl":2430,"ign":2431,"Ġthought":2432,"ON":2433,"Ġbadal":2434,"Ġmul":2435,"een":2436,"Ġluck":2437,"Ġdho":2438,"trol":2439,"Ġkitni":2440,"zi":2441,"Ġplayers":2442,"ĠHo":2443,"member":2444,"Ġjho":2445,"ðŁĻĦ":2446,"Ġcomplete":2447,"Ġsingh":2448,"Ġhey":2449,"Ġref":2450,"com":2451,"kr":2452,"ority":2453,"Ġkrti":2454,"Ġdoctor":2455,"Kya":2456,"Ġbelieve":2457,"Ġscene":2458,"Ġhaar":2459,"Ġenjoy":2460,"Ġsocial":2461,"Ġresp":2462,"Ġsahab":2463,"Ġaapka":2464,"Ġache":2465,"Ġkyo":2466,"No":2467,"gu":2468,"ayenge":2469,"Ġbaaki":2470,"Ġfuture":2471,"autiful":2472,"actly":2473,"Ġchalta":2474,"wer":2475,"Ġtax":2476,"tt":2477,"ano":2478,"kt":2479,"rac":2480,"Ġsuna":2481,"olog":2482,"Ġhumare":2483,"Ġleta":2484,"Ġhpa":2485,"Ġnazar":2486,"Ġhin":2487,"Ġpaper":2488,"Ġhath":2489,"Ġlar":2490,"ists":2491,"ĠðŁĺĬ":2492,"Ġrelation":2493,"Ġmeet":2494,"sc":2495,"lt":2496,"Ġgyan":2497,"Ġhead":2498,"Ġaudi":2499,"Ġpop":2500,"Ġrest":2501,"Ġdate":2502,"Ġusme":2503,"Ġhero":2504,"Ġspace":2505,"Ġfinal":2506,"Ġbanda":2507,"Ġsr":2508,"ently":2509,"Ġlea":2510,"Ġislam":2511,"Ġapa":2512,"Ġsuper":2513,"ges":2514,"Ġnishant":2515,"Ġissue":2516,"Ġused":2517,"tention":2518,"Ġlang":2519,"Ġlate":2520,"Ġkohli":2521,"Ab":2522,"henge":2523,"Ġvot":2524,"Ġkash":2525,"Ġproud":2526,"dian":2527,"ussa":2528,"Ġteac":2529,"gram":2530,"Ġtaraf":2531,"Ġsince":2532,"Ġment":2533,"pan":2534,"Ġyehi":2535,"Ġinka":2536,"Ġsoon":2537,"ĠRa":2538,"Ġapki":2539,"Ġjayenge":2540,"Ġisme":2541,"Ġsamjha":2542,"lect":2543,"Ġ@":2544,"udd":2545,"Ġvic":2546,"Ġste":2547,"Ek":2548,"Ġhee":2549,"date":2550,"ĠTemp":2551,"Ġang":2552,"Ġmahi":2553,"hed":2554,"Ġjaata":2555,"Ġfix":2556,"ual":2557,"Ġass":2558,"ĠðŁĺĮ":2559,"ĠNa":2560,"que":2561,"Ġcourt":2562,"Ġdekhe":2563,"reed":2564,"Ġbhaiya":2565,"Ġhealth":2566,"ĠGuru":2567,"Ġjaane":2568,"aroor":2569,"Ġsher":2570,"Ġhog":2571,"Ġexpect":2572,"illi":2573,"Ġskte":2574,"ins":2575,"Ġplace":2576,"hil":2577,"Ġgroup":2578,"oge":2579,"Ġinsan":2580,"ĠÂ©":2581,"Ġachha":2582,"time":2583,"Ġtalk":2584,"ĠSa":2585,"Ġwhile":2586,"tific":2587,"ational":2588,"Ġhame":2589,"Ġrahul":2590,"Ġjayegi":2591,"how":2592,"Ġbaate":2593,"ðŁĳį":2594,"Ġsabhi":2595,"Ġkrke":2596,"Ġjail":2597,"Ġsecond":2598,"Ġinsta":2599,"yste":2600,"ðŁĩ³":2601,"Ġorder":2602,"Ġtrans":2603,"Ġclo":2604,"Ġrecord":2605,"Ġ:)":2606,"Ġcontest":2607,"Ġbanaya":2608,"ung":2609,"ake":2610,"ler":2611,"Ġlaude":2612,"Ġhaal":2613,"????":2614,"Ġcomments":2615,"Ġtarget":2616,"Ġcontr":2617,"kho":2618,"Ġleft":2619,"Ġinte":2620,"Ġkhana":2621,"Ġsim":2622,"Ġmer":2623,"Ġwhole":2624,"duc":2625,"Ġengl":2626,"mai":2627,"Ġmast":2628,"Ġeas":2629,"Ġbahot":2630,"Ġbeautiful":2631,"Ġmur":2632,"sahi":2633,"Ġhaan":2634,"itive":2635,"cked":2636,"Ġfavour":2637,"Ġhistory":2638,"Ġ+":2639,"ars":2640,"ren":2641,"Ġfind":2642,"cr":2643,"Ġpress":2644,"ratul":2645,"aar":2646,"Ġtimes":2647,"Ġkarni":2648,"Ġlie":2649,"orts":2650,"Ġ*":2651,"Ġinki":2652,"Ġseries":2653,"Abhi":2654,"Ġaag":2655,"Ġmaza":2656,"Ġgan":2657,"Ġcommun":2658,"Ġhuman":2659,"Ġliter":2660,"Ġmtlb":2661,"Ġrahega":2662,"ĠBJP":2663,"ĠðŁİ":2664,"ĠLe":2665,"Ġproject":2666,"Ġdos":2667,"Ġreligion":2668,"Ġcra":2669,"Ġchahte":2670,"ĠðŁĺĶ":2671,"Ġjawab":2672,"ĠðŁĩ":2673,"Hum":2674,"Ġtod":2675,"Ġdukh":2676,"Ġlat":2677,"Ġbaby":2678,"iliye":2679,"uss":2680,"Ġbank":2681,"ments":2682,"Ġpati":2683,"bat":2684,"Ġvs":2685,"ĠðŁ¤£ðŁ¤£ðŁ¤£":2686,"19":2687,"Ġsana":2688,"Ġmaking":2689,"Ġguy":2690,"Ġjaati":2691,"Ġandar":2692,"ĠPM":2693,"Ġ13":2694,"Ġthrough":2695,"Ġwomen":2696,"ðŁĳı":2697,"Ġjaana":2698,"Sahi":2699,"Ġshaadi":2700,"Ġanyone":2701,"Ġseen":2702,"ics":2703,"ched":2704,"Ġpetrol":2705,"Ġcri":2706,"Ġimportant":2707,"Ġhat":2708,"hand":2709,"Ġchak":2710,"ðŁĺľ":2711,"......":2712,"ĠNo":2713,"ban":2714,"Ġterror":2715,"Ġstudents":2716,"Ġtabhi":2717,"®ðŁĩ³":2718,"ĠSo":2719,"Ġball":2720,"Ġcharac":2721,"12":2722,"Ġform":2723,"Ġbusiness":2724,"Ġras":2725,"Ġdem":2726,"Ġmn":2727,"Ġnon":2728,"Ġtalking":2729,"iv":2730,"ĠRe":2731,"Ġdifferent":2732,"Ġpoo":2733,"Ġresult":2734,"unty":2735,"ocus":2736,"Ġrehte":2737,"Ġprodu":2738,"Ġkyon":2739,"Ġatt":2740,"Ġssr":2741,"ety":2742,"Ġdra":2743,"Ġleader":2744,"pm":2745,"Ġob":2746,"Ġrakhi":2747,"Ġpanch":2748,"Ġviewers":2749,"ĠWe":2750,"Ġask":2751,"Ġmarket":2752,"Ġghan":2753,"Ġchaar":2754,"ystem":2755,"ĠAbhi":2756,"happ":2757,"Ġsamay":2758,"Ġspeak":2759,"Ġshit":2760,"Ġmuje":2761,"HE":2762,"Ġtuj":2763,"Ġspecial":2764,"Ġjustice":2765,"Ġremember":2766,"ture":2767,"Ġbit":2768,"Ġserv":2769,"Ġbhagwan":2770,"Ġgaali":2771,"most":2772,"Ġnat":2773,"Ġpade":2774,"Ġsucc":2775,"Ġkese":2776,"Ġ14":2777,"AL":2778,"Ġpersonal":2779,"hele":2780,"llo":2781,"ef":2782,"Ġmang":2783,"Ġdrama":2784,"Ġtrust":2785,"Ġvirat":2786,"Ġagree":2787,"Ġkhat":2788,"mad":2789,"Ġdidi":2790,"21":2791,"Ġcm":2792,"Ġkyunki":2793,"Ġhours":2794,"Ġothers":2795,"Ġbaba":2796,"Ġtype":2797,"Ġ200":2798,"Ġay":2799,"Ġlight":2800,"Ġpriv":2801,"gan":2802,"50":2803,"Ġattack":2804,"Ġtumse":2805,"ðŁĺĺ":2806,"Ġchance":2807,"Ġaana":2808,"Ġnam":2809,"Ġtumne":2810,"Ġsend":2811,"Mere":2812,"ĠNahi":2813,"Ġris":2814,"Ġtrain":2815,"velop":2816,"Ġfeeling":2817,"uji":2818,"Ġwapas":2819,"ðŁĺĨ":2820,"Ġdard":2821,"cel":2822,"'ve":2823,"bab":2824,"ased":2825,"Ġsushant":2826,"Ġapka":2827,"pur":2828,"Ġeduc":2829,"Ġâľ":2830,"Ġsimp":2831,"Ġfocus":2832,"Ġbuy":2833,"bt":2834,"tar":2835,"Ġmadam":2836,"kari":2837,"Ġanother":2838,"Ġgandhi":2839,"Ġlos":2840,"ding":2841,"Ġbel":2842,"least":2843,"Ĥï¸ı":2844,"âĢįâĻĤï¸ı":2845,"ret":2846,"Ġchahta":2847,"Ġran":2848,"Ġmakers":2849,"Ġlear":2850,"em":2851,"Ġneta":2852,"Ġmeans":2853,"ertain":2854,"Ġpolitics":2855,"Ġlogic":2856,"Ġpunjab":2857,"Ġkid":2858,"Ġhei":2859,"Ġrequest":2860,"arch":2861,"Ġready":2862,"Ġrul":2863,"why":2864,"alla":2865,"Ġrespon":2866,"Ġphr":2867,"Ġisi":2868,"ats":2869,"una":2870,"Ġidol":2871,"Ma":2872,"rs":2873,"ures":2874,"ump":2875,"Ġesa":2876,"Ġben":2877,"kil":2878,"Ġlekar":2879,"fir":2880,"Ġteacher":2881,"Ġdharm":2882,"anda":2883,"ĠUs":2884,"ged":2885,"Ġsikh":2886,"ðŁ¤¦":2887,"Ġhamara":2888,"Ġcompany":2889,"hes":2890,"Ġpiche":2891,"accha":2892,"ĠðŁĳį":2893,"Ġaway":2894,"Ġexperi":2895,"Ġtot":2896,"Ġtrying":2897,"Ġghum":2898,"Ġjese":2899,"Ġchuka":2900,"Ġnaya":2901,"ility":2902,"ustr":2903,"Ġhamari":2904,"Ġcopy":2905,"ire":2906,"ĠZ":2907,"ratulations":2908,"Ġbrother":2909,"ĠEk":2910,"ots":2911,"Ġnational":2912,"Ġbeha":2913,"bad":2914,"Ġseriously":2915,"Ġbhool":2916,"Ġpoll":2917,"Ġese":2918,"some":2919,"adesh":2920,"ony":2921,"Ġonce":2922,"Ġsuppor":2923,"ĠSe":2924,"Ġaround":2925,"Ġroz":2926,"good":2927,"Ġmandir":2928,"Ġnice":2929,"Ġ18":2930,"Ġoh":2931,"Ġpakistani":2932,"bai":2933,"Ġkaroge":2934,"Ġhoni":2935,"wi":2936,"Ġsmjh":2937,"Ġjarurat":2938,"11":2939,"cess":2940,"tern":2941,"Ġhindi":2942,"ðŁĶ¥ðŁĶ¥":2943,"Ġlisten":2944,"rd":2945,"Ġrt":2946,"ĠQ":2947,"Ġdhan":2948,"ðŁ¤Ķ":2949,"Ġlost":2950,"Ġgh":2951,"harth":2952,"Ġsense":2953,"ised":2954,"Ġaudience":2955,"Ġcant":2956,"Ġaadmi":2957,"Ġtl":2958,"ophy":2959,"waz":2960,"Ġmood":2961,"Ġmarri":2962,"Ġmaz":2963,"Ġrup":2964,"Ġbaje":2965,"lling":2966,"ini":2967,"Ġpor":2968,"ING":2969,"inion":2970,"Ġtumko":2971,"Ġmph":2972,"Ġinterest":2973,"Ġlenge":2974,"Ġemp":2975,"kat":2976,"Ġwrit":2977,"Ġhurt":2978,"Ġdoor":2979,"AI":2980,"idence":2981,"ĠSalman":2982,"ced":2983,"Ġreport":2984,"icke":2985,"Ġblack":2986,"Ġgay":2987,"Ġafghan":2988,"Ġret":2989,"Ġdri":2990,"cent":2991,"Ġcut":2992,"Ġkbhi":2993,"Ġdev":2994,"Ġparents":2995,"Ġidea":2996,"Ġser":2997,"Ġkehte":2998,"Ġsystem":2999,"ðŁĺĬ":3000,"Ġul":3001,"Ġbusy":3002,"ES":3003,"ryan":3004,"Ġmehn":3005,"Ġidhar":3006,"Ġbur":3007,"Ġprice":3008,"ĠMujhe":3009,"Ġdream":3010,"Ġbache":3011,"Me":3012,"Ġrelease":3013,"Ġppl":3014,"Ġchild":3015,"Ġcontrol":3016,"row":3017,"Ġsocha":3018,"Ġeach":3019,"Ġenough":3020,"Ġfarm":3021,"Ġlu":3022,"ĠCha":3023,"Ġchin":3024,"Ġaas":3025,"Ġliterally":3026,"Ġsikha":3027,"Ġcollege":3028,"Ġdevelop":3029,"Ġperfor":3030,"Ġkaru":3031,"Ġhaath":3032,"onna":3033,"rup":3034,"ission":3035,"Ġdelete":3036,"Ġcame":3037,"Ġfandom":3038,"Ġsuccess":3039,"ĠBa":3040,"Ġbill":3041,"hahaha":3042,"abad":3043,"Ġmob":3044,"OR":3045,"don":3046,"gether":3047,"lims":3048,"happy":3049,"Aaj":3050,"oday":3051,"Ġrash":3052,"Ġsac":3053,"Ġps":3054,"Ġrehna":3055,"Ġopinion":3056,"Ġsitu":3057,"nay":3058,"ðŁĺĢ":3059,"Ġdecision":3060,"Ġedit":3061,"ugh":3062,"hay":3063,"Ġsubah":3064,"ctive":3065,"load":3066,"ense":3067,"Ġiski":3068,"Ġshri":3069,"light":3070,"gy":3071,"Ġmahar":3072,"ĠðŁĺĴ":3073,"Yeh":3074,"ðŁĺĮ":3075,"Ġsara":3076,"Ġwah":3077,"Ġqui":3078,"ili":3079,"Ġinse":3080,"ĠWind":3081,"Ġplaying":3082,"Aap":3083,"Ġphle":3084,"ology":3085,"Ġcoming":3086,"Ġdijiye":3087,"Ġpu":3088,"ðŁĺĶ":3089,"just":3090,"Ġchalo":3091,"Ġhot":3092,"thank":3093,"Ġrish":3094,"bas":3095,"Ġbollywood":3096,"sam":3097,"Ġcontin":3098,"Ġjudge":3099,"Ġbtw":3100,"ĠGo":3101,"unch":3102,"Ġoffice":3103,"Ġatleast":3104,"ork":3105,"body":3106,"Ġmili":3107,"ĠTo":3108,"tere":3109,"oni":3110,"gaya":3111,"Ġdear":3112,"Ġhisab":3113,"ĠSab":3114,"ĠImran":3115,"Ġleg":3116,"Ġusi":3117,"Ġchina":3118,"Ġelse":3119,"Ġkafi":3120,"Ġbaj":3121,"hanks":3122,"ression":3123,"Ġtogether":3124,"Ġtam":3125,"Ġmoment":3126,"Ġ???":3127,"Ġparti":3128,"ðŁĺĤðŁĺĤðŁĺĤðŁĺĤ":3129,"Ġdist":3130,"Ġhuye":3131,"new":3132,"Ġext":3133,"india":3134,"Ġwatching":3135,"Ġsake":3136,"urity":3137,"ĠðŁ¤£ðŁ¤£":3138,"Ġlia":3139,"ukla":3140,"AY":3141,"Ġjhoot":3142,"Ġkashmir":3143,"Ġcharacter":3144,"vert":3145,"Ġdeath":3146,"ider":3147,"pet":3148,"Ġtold":3149,"Ġyeah":3150,"Ġnegative":3151,"!!!!":3152,"Ġprot":3153,"Ġlow":3154,"ĠBe":3155,"Ġbless":3156,"Ġanswer":3157,"ĠAap":3158,"Ġnormal":3159,"Ġkahin":3160,"ĠHindu":3161,"chan":3162,"mu":3163,"Ġsaw":3164,"Ġisiliye":3165,"Ġbane":3166,"Ġdefend":3167,"mor":3168,"Ġmummy":3169,"Ġhogaya":3170,"Ġproper":3171,"come":3172,"Ġcam":3173,"band":3174,"ĠðŁĺľ":3175,"val":3176,"Ġyoutube":3177,"Ġaam":3178,"Ġjam":3179,"cks":3180,"alik":3181,"Ġdp":3182,"Ġgonna":3183,"essed":3184,"ris":3185,"Ġbhot":3186,"Ġbaith":3187,"Ġyogi":3188,"Ġacting":3189,"Ġdue":3190,"Ġ24":3191,"Ġtrp":3192,"ove":3193,"Ġbadh":3194,"tweet":3195,"Ġsave":3196,"Ġlink":3197,"Ġdeserve":3198,"Ġmir":3199,"ðŁļ":3200,"aan":3201,"Ġhoo":3202,"has":3203,"Ġvar":3204,"ĠTw":3205,"Ġgussa":3206,"ayda":3207,"ound":3208,"Ġwr":3209,"Ġrakho":3210,"Ġwhats":3211,"Ġpara":3212,"yon":3213,"Ġrang":3214,"yat":3215,"Ġteju":3216,"Ġless":3217,"conom":3218,"action":3219,"Ġsharam":3220,"let":3221,"Ġbody":3222,"tire":3223,"Ġgrand":3224,"Ġann":3225,"Ġbohat":3226,"Ġbech":3227,"Ġvip":3228,"Ġamaz":3229,"Ġallow":3230,"when":3231,"tage":3232,"Ġsil":3233,"Aur":3234,"dil":3235,"Ġbakwas":3236,"Ġplus":3237,"pend":3238,"Ġpeace":3239,"Ġfaltu":3240,"Ġmann":3241,"Ġsle":3242,"ĠOr":3243,"ðŁĺĴ":3244,"Ġkijiye":3245,"Ġrs":3246,"Ġdiv":3247,"Ġcred":3248,"Ġbanane":3249,"Ġdha":3250,"Ġmet":3251,"ledge":3252,"ip":3253,"Ġmud":3254,"Ġgift":3255,"Ġsafe":3256,"Ġknows":3257,"Ġkai":3258,"Ġlooking":3259,"Ġpain":3260,"Ġincre":3261,"Ġmonths":3262,"hru":3263,"Ġroom":3264,"Ġrelationship":3265,"Ġwinner":3266,"ĠRain":3267,"ĠPar":3268,"Ġlagti":3269,"Yes":3270,"ward":3271,"Ġsabke":3272,"Ġactor":3273,"Ġdata":3274,"Ġshah":3275,"Ġmovies":3276,"Ġder":3277,"Ġati":3278,"Ġhosp":3279,"ament":3280,"Ġjaha":3281,"Ġtension":3282,"Ġwaiting":3283,"Ġperforman":3284,"Ġclose":3285,"Ġaz":3286,"Ġokay":3287,"cially":3288,"Ġdekhi":3289,"Ġlakh":3290,"Ġchat":3291,"Ġmr":3292,"Ġsai":3293,"EN":3294,"idd":3295,"Ġstarted":3296,"Ġfall":3297,"Ġmilli":3298,"Ġabb":3299,"Ġguess":3300,"Ġwahan":3301,"To":3302,"Ġkaafi":3303,"hyan":3304,"Ġreality":3305,"ney":3306,"khe":3307,"ĠAn":3308,"oul":3309,"Ġemotion":3310,"Ġserious":3311,"Ġanti":3312,"Ġsweet":3313,"Ġsona":3314,"ĠBar":3315,"yak":3316,"AS":3317,"ination":3318,"Ġmove":3319,"Ġsale":3320,"Ġoption":3321,"Ġbetw":3322,"Ġbetween":3323,"ĠðŁĺİ":3324,"ually":3325,"Ġayega":3326,"Ġ16":3327,"Ġhold":3328,"Ġcontent":3329,"they":3330,"Ġgold":3331,"Ġjoke":3332,"tty":3333,"Ġgiving":3334,"Ġchhod":3335,"Ġaao":3336,"side":3337,"Ġshows":3338,"Ġ25":3339,"Ġsituation":3340,"Ġcorona":3341,"%,":3342,"Ġattention":3343,"Ġyo":3344,"Ġbring":3345,"Ġrub":3346,"Ġupdate":3347,"Ġlaal":3348,"OU":3349,"Ġgirls":3350,"Ġmod":3351,"Ġpaida":3352,"anch":3353,"reci":3354,"Ġpand":3355,"Nahi":3356,"Ġfuck":3357,"Ġduring":3358,"Ġaryan":3359,"Ġkahe":3360,"Ġmessage":3361,"eech":3362,"ðŁ¤Ń":3363,"Ġtrophy":3364,"ury":3365,"ton":3366,"Ġasli":3367,"Ġzaroor":3368,"cember":3369,"Ġconst":3370,"Ġconne":3371,"Ġleast":3372,"Ġmagar":3373,"Ġneeds":3374,"hind":3375,"Ġyah":3376,"Ġkhane":3377,"ie":3378,"ron":3379,"hta":3380,"Ġexperience":3381,"'d":3382,"kyun":3383,"Ġ.....":3384,"Ġthinking":3385,"Ġwohi":3386,"Ġpares":3387,"Ġdunga":3388,"Ġdaily":3389,"Ġbecome":3390,"inke":3391,"Ġmau":3392,"ðŁ¤£ðŁ¤£ðŁ¤£":3393,"Ġwaale":3394,"Ġpossible":3395,"ongress":3396,"ww":3397,"ĠAllah":3398,"Ġoppos":3399,"please":3400,"Ġah":3401,"Ġloc":3402,"Ġrakhna":3403,"where":3404,"Ġrohit":3405,"istmas":3406,"Ġsaaf":3407,"wat":3408,"Ġpositive":3409,"Ġdevo":3410,"Ġchandi":3411,"Ġinhe":3412,"Haan":3413,"Ġlangu":3414,"Ġaunty":3415,"ðŁĺŃðŁĺŃðŁĺŃðŁĺŃ":3416,"Ġpolitical":3417,"Ġchali":3418,"Ġtech":3419,"Ġish":3420,"Ġrona":3421,"Ġkan":3422,"bb":3423,"Ġcat":3424,"Ġloss":3425,"Ġbolti":3426,"ðŁ¥²":3427,"Ġobs":3428,"oz":3429,"Ġdima":3430,"Ġneela":3431,"ðŁ¤§":3432,"Ġdirect":3433,"13":3434,"Ġleave":3435,"Ġdhyan":3436,"van":3437,"Ġmush":3438,"dic":3439,"Ġmag":3440,"Ġintern":3441,"Ġmehnat":3442,"Ġaccept":3443,"Ġmara":3444,"Ġjada":3445,"Ġcancel":3446,"Ġ)":3447,"Ġeconom":3448,"Ġsari":3449,"Ġpray":3450,"ope":3451,"IT":3452,"mera":3453,"Ġeyes":3454,"Ġbond":3455,"Ġleaders":3456,"Ġfark":3457,"Ġbuil":3458,"Ġtari":3459,"Ġenglish":3460,"Abe":3461,"Ġnic":3462,"Ġdrug":3463,"follow":3464,"Ġdefin":3465,"Ġgurus":3466,"inal":3467,"OT":3468,"Ġjourn":3469,"AM":3470,"Ġstu":3471,"Ġidar":3472,"Ġprac":3473,"Ġgam":3474,"Ġperformance":3475,"Ġmusic":3476,"Ġtaking":3477,"Ġpich":3478,"Ġfunny":3479,"Ġlooks":3480,"Ġdance":3481,"Ġhr":3482,"Ġkhilaf":3483,"ils":3484,"You":3485,"Ġipl":3486,"Ġsawal":3487,"abar":3488,"ices":3489,"ĠðŁĴĶ":3490,"Ġdy":3491,"Ġfund":3492,"osa":3493,"Ġdan":3494,"ðŁı¼":3495,"Ġwife":3496,"ĠUmar":3497,"cing":3498,"used":3499,"ĠðŁĺ¡":3500,"Ġnay":3501,"Ġbes":3502,"ðŁ¥°":3503,"Ġusing":3504,"Ġequ":3505,"Ġcool":3506,"uty":3507,"We":3508,"Ġvoice":3509,"Ġkap":3510,"Ġthats":3511,"ĠSt":3512,"ĠðŁĺı":3513,"Ġuna":3514,"Aise":3515,"Ġ17":3516,"Ġvisit":3517,"Ġdrop":3518,"Ġdad":3519,"Ġart":3520,"ila":3521,"Ġproof":3522,"Ġprivate":3523,"frat":3524,"Ġaks":3525,"Ġcrush":3526,"Ġwaste":3527,"arey":3528,"ĠSir":3529,"sol":3530,"Ġtill":3531,"Ġyhi":3532,"Ġtreat":3533,"zzat":3534,"ĠApne":3535,"jis":3536,"Ġise":3537,"Ġyoun":3538,"Ġkhol":3539,"Ġpapp":3540,"Ġbanana":3541,"ĠKe":3542,"Ġwc":3543,"Ġlagte":3544,"ĠSahi":3545,"Ġchakkar":3546,"Ġbeti":3547,"kaise":3548,"bc":3549,"Ġbye":3550,"ote":3551,"Ġfavourite":3552,"shish":3553,"Ġkhul":3554,"This":3555,"Ġsleep":3556,"Ġrahen":3557,"ahut":3558,"Ġjake":3559,"gen":3560,"athy":3561,"Ġcurr":3562,"ðŁ§":3563,"Ġprote":3564,"sta":3565,"Ġ2022":3566,"Ġinst":3567,"Ġcredit":3568,"Ġconcer":3569,"Ġdusro":3570,"Ġblame":3571,"ories":3572,"Ġservice":3573,"Ġsongs":3574,"yu":3575,"Ġhaving":3576,"Ġimag":3577,"Ġmobile":3578,"cep":3579,"Ġwants":3580,"Ġlittle":3581,"Ġav":3582,"ĠTeja":3583,"Ġlam":3584,"ĠðŁĺĨ":3585,"Ġappreci":3586,"kan":3587,"Ġbaithe":3588,"Ġmakes":3589,"Ġpani":3590,"reme":3591,"Ġfeels":3592,"Ġfood":3593,"Ġca":3594,"lip":3595,"ðŁĺı":3596,"bal":3597,"Ġnu":3598,"Ġyet":3599,"lu":3600,"adu":3601,"Ġcrore":3602,"Ġasked":3603,"Ġforever":3604,"Ġmeh":3605,"Ġver":3606,"versity":3607,"Ġmention":3608,"Ġjournal":3609,"san":3610,"Ġsex":3611,"Ġbhakt":3612,"Ġmushkil":3613,"enti":3614,"ðŁĺ¡ðŁĺ¡":3615,"Ġsymp":3616,"Ġkarlo":3617,"Ġnafrat":3618,"Ġdiscuss":3619,"Ġleti":3620,"ĠAr":3621,"Ġmight":3622,"Ġjae":3623,"Ġwis":3624,"ls":3625,"Ġghr":3626,"Ġfair":3627,"Ġlanguage":3628,"Ġtur":3629,"Ġaake":3630,"ĠAp":3631,"Ġlimit":3632,"Ġprotest":3633,"rap":3634,"Ġdub":3635,"Ġhoja":3636,"ĠJi":3637,"Ġaward":3638,"Ġchai":3639,"Ġpah":3640,"Ġdikhta":3641,"Ġkehna":3642,"ral":3643,"ries":3644,"Ġ!!!":3645,"Ġpaid":3646,"cl":3647,"lag":3648,"Ġhonest":3649,"Ġentertain":3650,"Ġpicture":3651,"De":3652,"eni":3653,"set":3654,"Ġsmile":3655,"Ġzarur":3656,"ĠRo":3657,"tak":3658,"Ġkaisa":3659,"Ġwalon":3660,"tead":3661,"modi":3662,"Ġknowledge":3663,"Ġcla":3664,"Ġrakhe":3665,"Ġthough":3666,"that":3667,"Ġinvest":3668,"ogle":3669,"ðŁĺİ":3670,"Ġfas":3671,"wards":3672,"Ġhearts":3673,"Ap":3674,"AB":3675,"Ġuth":3676,"Ġvaccine":3677,"Ġwonder":3678,"jan":3679,"Ġdeli":3680,"tie":3681,"ĠUn":3682,"Ġhandle":3683,"Ġwent":3684,"ĠJa":3685,"Ġizzat":3686,"ĠðŁĺĢ":3687,"Ġcoup":3688,"Ġsit":3689,"Ġdire":3690,"vity":3691,"Ġafghanistan":3692,"Ġmaybe":3693,"Ġpeeche":3694,"ĠðŁ¤Ķ":3695,"ature":3696,"Ġdemand":3697,"Ġkaregi":3698,"Ġcorrup":3699,"IS":3700,"hys":3701,"Oh":3702,"itne":3703,"Ġsto":3704,"tho":3705,"Ġcult":3706,"odh":3707,"Ġkl":3708,"toh":3709,"Ġrate":3710,"Ġpast":3711,"Ġsign":3712,"Ġgun":3713,"Ġfayda":3714,"Ġdosti":3715,"Sab":3716,"Ġlagega":3717,"Ġpareshan":3718,"ortun":3719,"Ġground":3720,"ither":3721,"Ġfavor":3722,"Ġhospital":3723,"Ġcity":3724,"Ġannoun":3725,"Ġpoor":3726,"14":3727,"Ġhumne":3728,"Ġhindus":3729,"Ġyha":3730,"Ġworry":3731,"Ġcoz":3732,"ðŁ¤Ĺ":3733,"ĠGaya":3734,"Ġkoshish":3735,"Ġchuke":3736,"lol":3737,"Ġoffici":3738,"Ġincl":3739,"mission":3740,"Ġsister":3741,"Ġik":3742,"ĠMus":3743,"ĠUP":3744,"But":3745,"ĠMai":3746,"Ġchl":3747,"Ġmujhse":3748,"Ġneend":3749,"Ġai":3750,"aruri":3751,"Ġamazing":3752,"Ġrad":3753,"Ġdecide":3754,"Ġhus":3755,"Ġwest":3756,"Ġmilti":3757,"Ġtruth":3758,"Ġjisko":3759,"Ġpressure":3760,"Ġeng":3761,"Ġgiven":3762,"Ġinterview":3763,"Ġeducation":3764,"Ġsmall":3765,"Ġdua":3766,"ĠDil":3767,"ically":3768,"Ġmuslims":3769,"âľ¨":3770,"Ġperfect":3771,"ĠNe":3772,").":3773,"Ġhen":3774,"habbat":3775,"Ġsoci":3776,"Ġalmost":3777,"Us":3778,"Ġstudent":3779,"fer":3780,"esi":3781,"ukat":3782,"ants":3783,"table":3784,"Ġpaye":3785,"xic":3786,"Ġhor":3787,"Ġland":3788,"Ġsidharth":3789,"pected":3790,"ĠThey":3791,"ĠPhir":3792,"Ġmax":3793,"Ġsala":3794,"Ġgrow":3795,"Ġkardo":3796,"Ġmsg":3797,"Ġjahan":3798,"itni":3799,"Ġcomes":3800,"cb":3801,"Ġutna":3802,"Ġnan":3803,"ender":3804,"Ġactive":3805,"ĠTwitter":3806,"Ġroj":3807,"ĠAaj":3808,"maine":3809,"22":3810,"ately":3811,"shan":3812,"Tu":3813,"ĠThis":3814,"Ġworking":3815,"Ġfather":3816,"bl":3817,"Ġfound":3818,"ĠYa":3819,"RE":3820,"Ġdouble":3821,"ĠAs":3822,"ffic":3823,"ording":3824,"Ġbass":3825,"Ġdeep":3826,"Ġpaanch":3827,"Ġdemo":3828,"Ġkaren":3829,"itely":3830,"iday":3831,"ĠðŁĺĤðŁĺĤðŁĺĤðŁĺĤ":3832,"rib":3833,"ĠHa":3834,"Ġcritic":3835,"Ġachie":3836,"Ġprime":3837,"Ġcareer":3838,"Ġslow":3839,"Ġtook":3840,"chal":3841,"like":3842,"Ġseat":3843,"Ġsaab":3844,"Ġrehti":3845,"Ġmulk":3846,"Ġeasy":3847,"Ġhaq":3848,"ĠSh":3849,"?!":3850,"dd":3851,"aisa":3852,"Be":3853,"Ġstat":3854,"Ġsum":3855,"So":3856,"Ġalawa":3857,"yun":3858,"Ġpappu":3859,"Ġpari":3860,"Ġteen":3861,"Ġshyam":3862,"Ġcum":3863,"ervation":3864,"Ġfarak":3865,"rom":3866,"cip":3867,"Ġtan":3868,"Ġhyp":3869,"Ġgang":3870,"guru":3871,"Ġeh":3872,"Ġsrk":3873,"kk":3874,"Ġmc":3875,"aab":3876,"Ġthy":3877,"Ġdeal":3878,"Ġbrain":3879,"Ġkey":3880,"Ġjitne":3881,"Ġwanted":3882,"Ġsans":3883,"Ġticket":3884,"Ġhappened":3885,"itude":3886,"Ġpit":3887,"alous":3888,"Ġport":3889,"Ġdest":3890,"Ġyourself":3891,"Ġrole":3892,"uske":3893,"jay":3894,"haa":3895,"Koi":3896,"utes":3897,"),":3898,"pping":3899,"fied":3900,"room":3901,"Ġcommunity":3902,"til":3903,"Ġoutside":3904,"fully":3905,"Ġbaatein":3906,"aran":3907,"Ġhimmat":3908,"Ġuncle":3909,"Ġyad":3910,"Ġcond":3911,"Ġrok":3912,"gs":3913,"acha":3914,"Ġgari":3915,"Ġdoubt":3916,"Ġskill":3917,"Ġspo":3918,"Ġspeed":3919,"Agar":3920,"gement":3921,"ðŁĺ¹":3922,"Ġsimple":3923,"Ġada":3924,"alog":3925,"Ġlega":3926,"Ġpadha":3927,"ðŁ¥³":3928,"oom":3929,"cra":3930,"tha":3931,"nam":3932,"Ġmass":3933,"Ġretweet":3934,"ĠðŁĺĳ":3935,"Ġsud":3936,"Ġbande":3937,"ĠKaran":3938,"Ġfeed":3939,"ĠKoi":3940,"Ġscreen":3941,"Ġmaster":3942,"key":3943,"Ġlikes":3944,"ison":3945,"Ġrepe":3946,"ink":3947,"Ġboli":3948,"ob":3949,"eep":3950,"ging":3951,"Ġreturn":3952,"Ġfit":3953,"Ġ40":3954,"Ġinform":3955,"Ġcourse":3956,"Ġplayed":3957,"Ġdifference":3958,"gree":3959,"Ġshort":3960,"meri":3961,"Ġbday":3962,"Ġcu":3963,"Ġune":3964,"ao":3965,"Ġzara":3966,"Ġmilte":3967,"Ġpet":3968,"Ġmaang":3969,"--":3970,"right":3971,"Ġjaake":3972,"ming":3973,"ared":3974,"ĠPe":3975,"Ġnote":3976,"upid":3977,"Ġissues":3978,"ending":3979,"Ġcust":3980,"jri":3981,"diya":3982,"Ġboht":3983,"ural":3984,"maan":3985,"Ġunse":3986,"land":3987,"Ġvoh":3988,"Ġmilna":3989,"ðŁĻĪ":3990,"Ġvideos":3991,"Ġruk":3992,"bro":3993,"Ġles":3994,"Ġinn":3995,"down":3996,"Ġgave":3997,"Ġspread":3998,"fit":3999,"Ġjaisi":4000,"rip":4001,"Ġhalf":4002,"ulation":4003,"Ġcommon":4004,"ĠKAR":4005,"Ġbheja":4006,"Ġmilne":4007,"Ġnae":4008,"ĠKi":4009,"Ġwanna":4010,"Ġrehne":4011,"dear":4012,"Ġbadha":4013,"Ġstr":4014,"Ġaurat":4015,"Ġfast":4016,"Ġsci":4017,"Wo":4018,"Ġdeb":4019,"illa":4020,"Ġrom":4021,"ĠKo":4022,"dr":4023,"jid":4024,"ĠKal":4025,"ðŁĺįðŁĺį":4026,"uda":4027,"Ġexamp":4028,"hra":4029,"Ġexplain":4030,"Ġhogya":4031,"Ġhell":4032,"Ġhumara":4033,"pto":4034,"Ġphys":4035,"morrow":4036,"hid":4037,"Ġpoora":4038,"ĠðŁĲ":4039,"Ġbolega":4040,"ped":4041,"ker":4042,"Ġwapis":4043,"Ġtomorrow":4044,"Ġmazak":4045,"Ġaukat":4046,"Ġmit":4047,"Ġfine":4048,"Ġtrad":4049,"kaar":4050,"Ġmare":4051,"Ġyaa":4052,"Ġtujh":4053,"jriwal":4054,"Ġcamera":4055,"Ġcoun":4056,"Ġhumari":4057,"ought":4058,"eld":4059,"Ġlock":4060,"iddle":4061,"Ġajeeb":4062,"Ġhuwa":4063,"Ġtrack":4064,"Ġrat":4065,"Ġgets":4066,"Ġqueen":4067,"ĠIndian":4068,"Ġsharm":4069,"Ġflop":4070,"Ġreach":4071,"Ġmahine":4072,"Ġnotice":4073,"ðŁĺĳ":4074,"Ġbataya":4075,"Ġcover":4076,"Ġsoul":4077,"ðŁĺĿ":4078,"Ġisn":4079,"Ġaapse":4080,"Ġviol":4081,"Ġchalu":4082,"Ġpy":4083,"Ġsecular":4084,"ðŁĳĮ":4085,"ĠIf":4086,"Ġpolitici":4087,"cture":4088,"Ġinde":4089,"Ġunhone":4090,"Ġasking":4091,"Ġgho":4092,"ĠðŁĺī":4093,"Ġsympathy":4094,"Ġze":4095,"hik":4096,"Ġforget":4097,"Ġred":4098,"km":4099,"Ġom":4100,"Ġhusband":4101,"Ġâ":4102,"âĺº":4103,"25":4104,"Ġdarr":4105,"Ġtre":4106,"Ġmath":4107,"iler":4108,"Ġgoes":4109,"vail":4110,"Ġmumbai":4111,"woh":4112,"Ġaut":4113,"Ġtarge":4114,"Ġconvers":4115,"aliban":4116,"Ġloves":4117,"Ġfoot":4118,"Ġ21":4119,"Ġhimself":4120,"Ġdimaag":4121,"Ġbacche":4122,"mein":4123,"Ġgf":4124,"ĠDew":4125,"yle":4126,"alia":4127,"Ġ70":4128,"Ġhata":4129,"Ġkonsa":4130,"Ġsmart":4131,"iled":4132,"Ġmilegi":4133,"Ġsang":4134,"ðŁĩ®ðŁĩ³":4135,"Phir":4136,"Ġjealous":4137,"ĠLi":4138,"ica":4139,"Ġbail":4140,"ĠTO":4141,"Ġsna":4142,"Ġbanta":4143,"Ġinstead":4144,"Ġcompare":4145,"Ġfat":4146,"Ġmalik":4147,"Ġjisne":4148,"Ġnya":4149,"Ġakele":4150,"hag":4151,"Ġnarendra":4152,"ðŁ¤£ðŁ¤£ðŁ¤£ðŁ¤£":4153,"Ġkisne":4154,"Ġfd":4155,"Ġfamous":4156,"ĠShe":4157,"Ġkarein":4158,"ðŁ¥ºðŁ¥º":4159,"aji":4160,"Ġrahenge":4161,"Ġwhatsapp":4162,"ested":4163,"Ġcouple":4164,"Ġexams":4165,"Ġdas":4166,"tify":4167,"ukri":4168,"mind":4169,"akh":4170,"ĠHain":4171,"Ġdialog":4172,"Ġkisan":4173,"Ġsimba":4174,"Mo":4175,"Ġladke":4176,"Ġpada":4177,"Ġaab":4178,"Ġstupid":4179,":-":4180,"Ġsaari":4181,"Ġvers":4182,"Ġsouth":4183,"Ġbeg":4184,"Ġbud":4185,"hey":4186,"solute":4187,"ickets":4188,"Ġrail":4189,"Ġgeneral":4190,"Ġsugg":4191,"dam":4192,"Ġchand":4193,"Ġwhite":4194,"Ġguruji":4195,"Te":4196,"khan":4197,"Ġprove":4198,"Ġdig":4199,"Ġill":4200,"Ġlearn":4201,"Ġmun":4202,"Ġcolors":4203,"ĠðŁ¥²":4204,"Jo":4205,"Ġint":4206,"Ġfire":4207,"Ġsecurity":4208,"Ġgyaan":4209,"Ġ90":4210,"Ġvale":4211,"Ġbehind":4212,"Ġextra":4213,"ĠTu":4214,"IL":4215,"Ġmeko":4216,"Ġconfir":4217,"vir":4218,"Ġsocho":4219,"ĠðŁ¤¦":4220,"Ġshoot":4221,"Ġcause":4222,"isha":4223,"Ġpehli":4224,"Ġmarne":4225,"ĠAgar":4226,"Ġfriendship":4227,"ĠAl":4228,"take":4229,"ĠGod":4230,"Ġinsp":4231,"Ġdedo":4232,"Ġfollowing":4233,"Ġjante":4234,"Ġstudy":4235,"Ġfinally":4236,"Ġton":4237,"ustan":4238,"Ġ29":4239,"Ġpakka":4240,"Ġkarunga":4241,"Ġmother":4242,"appy":4243,"oor":4244,"Ġhumko":4245,"ĠChr":4246,"omin":4247,"Ġ99":4248,"Ġkaala":4249,"Ġrule":4250,"Ġwoman":4251,"Ġju":4252,"Ġbolenge":4253,"ĠPR":4254,"Ġdidnt":4255,"Ġpics":4256,"Ġprofession":4257,"nhi":4258,"tact":4259,"Ġcy":4260,"Ġindust":4261,"Ġsociety":4262,"Ġpadi":4263,"star":4264,"Ġgt":4265,"And":4266,"Ġdekhta":4267,"Ġtopic":4268,"Ġaja":4269,"Ġgra":4270,"Ġhalat":4271,"ott":4272,"ampal":4273,"Ġmillion":4274,"ĠPratik":4275,"Ġarg":4276,"hip":4277,"Ġmaharaj":4278,"ĠRaj":4279,"Ġsound":4280,"ĠHar":4281,"oth":4282,"Ġhahaha":4283,"Ġbete":4284,"ĠToday":4285,"Ġshan":4286,"Ġarea":4287,"Ġ:(":4288,"Ġeff":4289,"Ġladka":4290,"Ġdino":4291,"whi":4292,"Ġkill":4293,"Ġorig":4294,"Ġkarw":4295,"Ġstatement":4296,"ict":4297,"Ġbtao":4298,"Ġmauka":4299,"Ġchiz":4300,"terday":4301,"Ġpero":4302,"AP":4303,"Ġll":4304,"Jab":4305,"cket":4306,"Ġfel":4307,"Ġdefinitely":4308,"Ġadmi":4309,"Ġ500":4310,"Ġkumar":4311,"Ġbew":4312,"mon":4313,"Ġbom":4314,"Ġwhe":4315,"ami":4316,"Ġpour":4317,"ĠðŁĳı":4318,"ðŁį":4319,"Ġbiggest":4320,"Ġchun":4321,"Ġoffic":4322,"Ġbap":4323,"Ġaayegi":4324,"hiya":4325,"Ġseed":4326,"Ġsant":4327,"Ġkaho":4328,"ĠMere":4329,"Ġweekend":4330,"Ġinno":4331,"pakistan":4332,"ĠðŁĵ":4333,"Ġniche":4334,"Ġtoxic":4335,"Ġfarmers":4336,"Ġaar":4337,"ushman":4338,"Ġbin":4339,"lla":4340,"harat":4341,"Ġbatting":4342,"Ġmatches":4343,"Ġreview":4344,"Ġess":4345,"Ġexample":4346,"ira":4347,"Ġcustom":4348,"nat":4349,"Ġbich":4350,"Ġcorrect":4351,"Ġdead":4352,"Ġchamp":4353,"tever":4354,"Ġtau":4355,"Ġcelebrate":4356,"Ġboard":4357,"ĠChi":4358,"zed":4359,"Ġkhela":4360,"Ġsurpr":4361,"IC":4362,"Ġbihar":4363,"rest":4364,"Ġvalue":4365,"Ġdevelopment":4366,"Ġindians":4367,"HAN":4368,"ping":4369,"Ġdoos":4370,"Ġboys":4371,"Ġwel":4372,"Ġmurder":4373,"ðŁĺģðŁĺģ":4374,"Ġhype":4375,"ĠMar":4376,"Ġable":4377,"Ġbed":4378,"ĠDo":4379,"What":4380,"Re":4381,"cu":4382,"uine":4383,"Ex":4384,"Ġgust":4385,"ĠDi":4386,"hel":4387,"Ġ:-":4388,"pata":4389,"ĠAise":4390,"Ġvishal":4391,"Ġtaree":4392,"Ġthak":4393,"cast":4394,"16":4395,"Ġkaa":4396,"ĠKiya":4397,"ĠAf":4398,"Ġkrni":4399,"Ġamb":4400,"ert":4401,"oned":4402,"Ġhaa":4403,"Ġudhar":4404,"Ġturn":4405,"Ġguj":4406,"Ġinternational":4407,"Ġkids":4408,"bility":4409,"Ġremo":4410,"elhi":4411,"Ġkehta":4412,"qi":4413,"aring":4414,"Ġsports":4415,"Ġviews":4416,"ccha":4417,"70":4418,"times":4419,"Ġ__":4420,"ines":4421,"enda":4422,"Ġjag":4423,"Ġzi":4424,"Ġexist":4425,"ĠWo":4426,"Ġghanta":4427,"Ġana":4428,"lekin":4429,"Ġmaha":4430,"Ġpaya":4431,"Ġquality":4432,"Ġsharma":4433,"Ġappe":4434,"who":4435,"logo":4436,"ustralia":4437,"Ġhoke":4438,"Ġdeni":4439,"Ġterrorist":4440,"Ġkhali":4441,"Ġfb":4442,"Ġmiddle":4443,"ince":4444,"Ġcreate":4445,"kas":4446,"Ġkrenge":4447,"Ġbatana":4448,"Ġminutes":4449,"18":4450,"Ġhypoc":4451,"Ġgul":4452,"Ġsham":4453,"ĠðŁļ":4454,"hna":4455,"Ġhappiness":4456,"Ġreservation":4457,"Ġwese":4458,"ĠðŁĳĢ":4459,"Ya":4460,"Ġzero":4461,"Ġemotional":4462,"Ġtrending":4463,"itiz":4464,"ĠBol":4465,"same":4466,"Kal":4467,"ones":4468,"mage":4469,"Ġopposition":4470,"Ġ=":4471,"Ġsaala":4472,"ca":4473,"tujhe":4474,"Ġkiss":4475,"Thank":4476,"ĠST":4477,"ðŁĺŃðŁĺŃðŁĺŃ":4478,"Ġate":4479,"If":4480,"friend":4481,"Ġbien":4482,"wise":4483,"Ġkhelne":4484,"Ġago":4485,"Ġworst":4486,"alo":4487,"Ġcir":4488,"Ġbaja":4489,"Ġprofit":4490,"Apne":4491,"Ġsabka":4492,"Ġsche":4493,"Ġboring":4494,"Ġchuki":4495,"ondon":4496,"Ġkami":4497,"Ġkrega":4498,"Ġpaani":4499,"Ġjas":4500,"ula":4501,"ript":4502,"Ġvid":4503,"Le":4504,"mbers":4505,"ished":4506,"40":4507,"Ġza":4508,"ĠSing":4509,"Ġcontestant":4510,"tig":4511,"asthan":4512,"Ġmyself":4513,"Ġghus":4514,"Ġcamp":4515,"yaan":4516,"Ġskti":4517,"Ġseeing":4518,"Ġscen":4519,"Ġrashmi":4520,"Ġchoose":4521,"yer":4522,"ET":4523,"Ġaan":4524,"pehle":4525,"Ġavail":4526,"sel":4527,"Ġkb":4528,"Ġaccording":4529,"Ġdegi":4530,"Ġvaise":4531,"ðŁĳĩ":4532,"ising":4533,"ðŁĺ¢":4534,"Ġappro":4535,"ured":4536,"Ġidi":4537,"ĠðŁĺĲ":4538,"Ġcaste":4539,"Ġstream":4540,"Ġtowards":4541,"Ġtor":4542,"Ġwater":4543,"over":4544,"Ġkarde":4545,"Ġattitude":4546,"Ġhumesha":4547,"Good":4548,"usion":4549,"Ġdoge":4550,"IK":4551,"Ġmarriage":4552,"Ġtalent":4553,"Ġculture":4554,"ator":4555,"Ġjat":4556,"Ġartic":4557,"anoon":4558,"temp":4559,"Ġsamb":4560,"Ġcross":4561,"Ġabt":4562,"lex":4563,"net":4564,"Ġcontact":4565,"Ġbharosa":4566,"Ġcomo":4567,"ey":4568,"Ġthay":4569,"well":4570,"ĠðŁĺ¢":4571,"unjab":4572,"head":4573,"Ġishq":4574,"Ġcompet":4575,"Ġzinda":4576,"Ġisne":4577,"AD":4578,"Ġumeed":4579,"Ġig":4580,"ðŁĺĦ":4581,"Ġnz":4582,"Ġceleb":4583,"Ġposition":4584,"Ġbey":4585,"kisi":4586,"Ġdekhiye":4587,"Ar":4588,"karan":4589,"Ġbanne":4590,"Ġayi":4591,"Ġawa":4592,"Yaar":4593,"Ġrh":4594,"Ġfra":4595,"ameen":4596,"Ġhoge":4597,"Ġjeete":4598,"back":4599,"ĠKabhi":4600,"ĠLO":4601,"mph":4602,"Ġbharath":4603,"Ġdusra":4604,"aka":4605,"Ġpromote":4606,"Ġnahe":4607,"lay":4608,"men":4609,"µðŁĩ":4610,"istry":4611,"Ġgenuine":4612,"Ġevent":4613,"ern":4614,"Ġweak":4615,"pro":4616,"Ġbaha":4617,"ðŁĴķ":4618,"ĠKh":4619,"Ġfront":4620,"cking":4621,"Ġuniversity":4622,"Ġpoin":4623,"ĠðŁĺ©":4624,"Ġtay":4625,"uf":4626,"Ġfool":4627,"Ka":4628,"Ġara":4629,"Ġblue":4630,"ults":4631,"Ġcrypto":4632,"ĠIN":4633,"Ġpresent":4634,"Ġmaaf":4635,"Ġdoesnt":4636,"Ġhig":4637,"apa":4638,"Pe":4639,"lies":4640,"tification":4641,"Ġako":4642,"ĠðŁĺĺ":4643,"Ġott":4644,"gress":4645,"ĠðŁĺĦ":4646,"ðŁĶ":4647,"Ġtaken":4648,"17":4649,"Or":4650,"Ġalone":4651,"ĠYeh":4652,"Ġ1000":4653,"Ġbate":4654,"Ġentire":4655,"Ġhora":4656,"Ġkama":4657,"Ġphele":4658,"bus":4659,"Ġloved":4660,"Ġseems":4661,"Ġhoj":4662,"Ġvish":4663,"Ġkhair":4664,"ĠBB":4665,"Ġsupporting":4666,"verse":4667,"Ġdikkat":4668,"Ġinj":4669,"ðŁĻıðŁı»":4670,"ĠWhat":4671,"rah":4672,"Ġclearly":4673,"Ġhair":4674,"Ġrape":4675,"ongratulations":4676,"love":4677,"Ġ22":4678,"Ġjeeta":4679,"Ġfelt":4680,"ĠTere":4681,"Ġstates":4682,"edy":4683,"Ġquestions":4684,"pecially":4685,"rict":4686,"hello":4687,"ering":4688,"ðŁĴ¯":4689,"wah":4690,"Ġsent":4691,"Ġsecret":4692,"Ġannounce":4693,"Ġfes":4694,"Ġcases":4695,"Ġkari":4696,"Ġgoogle":4697,"Ġef":4698,"Ġdusri":4699,"Ġduk":4700,"tas":4701,"Ġyoung":4702,"Ġwicket":4703,"kti":4704,"Ġwinning":4705,"Ġproduct":4706,"Ġcontinue":4707,"Ġpresident":4708,"Ġlay":4709,"Ġsalary":4710,"ðŁĲ":4711,"Ġaccoun":4712,"Ġworth":4713,"exactly":4714,"Ġcongratulations":4715,"Ġbene":4716,"ðŁĻĮ":4717,"kaun":4718,"undra":4719,"Ġlarki":4720,"Ġconfidence":4721,"Ġbudd":4722,"Ġchahti":4723,"Ġhost":4724,"Ġpooch":4725,"can":4726,"Ġreaction":4727,"Ġcannot":4728,"Ġini":4729,"Ġjiske":4730,"Ġmadad":4731,"Ġsell":4732,"Ġdikhaya":4733,"ĠðŁĩ®ðŁĩ³":4734,"ĠðŁĴ¯":4735,"ĠHAI":4736,"Ġsolo":4737,"kyu":4738,"Ġzarurat":4739,"jiv":4740,"Ġchap":4741,"lled":4742,"ativity":4743,"Ġyu":4744,"Ġthaa":4745,"guys":4746,"Ġinformation":4747,"eriod":4748,"Ġ80":4749,"Ġpaa":4750,"Ġ2014":4751,"Ġcer":4752,"old":4753,"ĠDewp":4754,"Ġruns":4755,"reedom":4756,"Ġaaja":4757,"zy":4758,"Ġcondition":4759,"HO":4760,"rr":4761,"ĠLa":4762,"bably":4763,"µðŁĩ°":4764,"Ġ26":4765,"Ġsoo":4766,"My":4767,"Ġneha":4768,"Ġwow":4769,"Ġrelated":4770,"hats":4771,"tm":4772,"Ġmental":4773,"Ġhae":4774,"Ġjisse":4775,"Un":4776,"Ġnau":4777,"ĠTHE":4778,"Ġkutte":4779,"Ġdrugs":4780,"TI":4781,"Ġtaki":4782,"Ġstru":4783,"Ġthora":4784,"Ġabi":4785,"ðŁı»âĢįâĻĢï¸ı":4786,"Ġer":4787,"ever":4788,"son":4789,"ĠKK":4790,"ðŁĺ©":4791,"Ġsey":4792,"VE":4793,"Ġkisko":4794,"Ġcitiz":4795,"Ġbekar":4796,"koon":4797,"Ġskills":4798,"Ġchori":4799,"Ġulta":4800,"Ġgy":4801,"Ġdhund":4802,"Sha":4803,"Ġtaliban":4804,"ences":4805,"Ġdikhao":4806,"Ġclean":4807,"ĠJan":4808,"eez":4809,"arre":4810,"Ġexcited":4811,"Ġactiv":4812,"ksha":4813,"Ġbara":4814,"Ġame":4815,"Ġshukla":4816,"Tere":4817,"ĠJab":4818,"Ġaff":4819,"Ġph":4820,"ĠðŁĻıðŁĻı":4821,"andhi":4822,"Ġfeelings":4823,"Ġdress":4824,"Ġdisap":4825,"Ġelle":4826,"Ġhuge":4827,"AK":4828,"Ġchad":4829,"Ġbanaye":4830,"Ġpeela":4831,"hotos":4832,"ðŁĴĻ":4833,"Ġyesterday":4834,"bes":4835,"Ġdushman":4836,"Ġkhelna":4837,"Ġrahy":4838,"Ġpoori":4839,"Ġlater":4840,"Ġmembers":4841,"dum":4842,"Ġkisiko":4843,"bu":4844,"Ġbrand":4845,"Ġaddress":4846,"asi":4847,"kaat":4848,"ĠðŁĺĤðŁ¤£":4849,"Ġjara":4850,"Ġpha":4851,"din":4852,"hega":4853,"Ġspeech":4854,"Ġmeme":4855,"UR":4856,"Ġfield":4857,"Ġnamaz":4858,"LE":4859,"Ġavailable":4860,"Ġimage":4861,"ĠðŁĺ¬":4862,"Ġmeeting":4863,"sar":4864,"ument":4865,"arendra":4866,"wara":4867,"Ġ--":4868,"Ġwhatever":4869,"Ġmudda":4870,"Ġuntil":4871,"Ġcaptaincy":4872,"Ġabsolute":4873,"ĠSi":4874,"Ġtrip":4875,"Ġdie":4876,"ĠðŁĻĥ":4877,"Ġft":4878,"ken":4879,"Ġhug":4880,"Ġthode":4881,"Ġdhad":4882,"sid":4883,"Ġrubina":4884,"Ġwelcome":4885,"Ġemplo":4886,"ĠTr":4887,"hawa":4888,"Ġaadat":4889,"Ġhaha":4890,"ume":4891,"Ġheard":4892,"salman":4893,"ball":4894,"Ġcost":4895,"Ġliving":4896,"Ġrahay":4897,"Ġkasam":4898,"Ġplat":4899,"ĠðŁĺ¹":4900,"ðŁĺī":4901,"ðŁĺĤðŁ¤£":4902,"Mai":4903,"Ġsemi":4904,"Ġupload":4905,"Ġele":4906,"nee":4907,"Ġhaii":4908,"book":4909,"Ġindustry":4910,"Ġlab":4911,"zaar":4912,"........":4913,"Ġofficial":4914,"kay":4915,"llow":4916,"Ġkra":4917,"Ġmohabbat":4918,"ies":4919,"Ġnear":4920,"Sa":4921,"Ġkaat":4922,"aming":4923,"every":4924,"ðŁİī":4925,"Ġvoting":4926,"oot":4927,"Ġpap":4928,"isay":4929,"Ġunfollow":4930,"Ġbiased":4931,"Ġbanao":4932,"ior":4933,"more":4934,"Ġmarzi":4935,"lega":4936,"Ġvala":4937,"Ġeither":4938,"ĠMin":4939,"kab":4940,"yeah":4941,"Ġhes":4942,"Ġachieve":4943,"Ġimagine":4944,"Ġmissing":4945,"Ġem":4946,"Ġscript":4947,"under":4948,"Ġwee":4949,"Ġwed":4950,"baad":4951,"Ġagenda":4952,"Ġtechn":4953,"ime":4954,"selves":4955,"Ġkhil":4956,"Ġjaega":4957,"Ġprov":4958,"Ġmask":4959,"ĠðŁĮļ":4960,"Kabhi":4961,"Ġjhut":4962,"Ġgham":4963,"Ġpretty":4964,"fair":4965,"Ġbecha":4966,"La":4967,"Ġzaroorat":4968,"Ġengine":4969,"Ġpate":4970,"Ġmem":4971,"Ġcentury":4972,"gli":4973,"Ġperform":4974,"Ġnet":4975,"Ġbomb":4976,"col":4977,"Ġachhe":4978,"ĠNA":4979,"Ġdharam":4980,"Ġelections":4981,"Ġshin":4982,"Ġinclud":4983,"Ġnas":4984,"Ġpot":4985,"Ġprogram":4986,"Ġ28":4987,"haram":4988,"Ġmeaning":4989,"Ġproblems":4990,"Ġirrit":4991,"Ġhol":4992,"Ġinsec":4993,"ĠâĻ¥":4994,"Ġchahi":4995,"Ġnah":4996,"ĠME":4997,"ST":4998,"Ġpadhai":4999,"Ġfestiv":5000,"Ġmasjid":5001,"itution":5002,"Ġclaim":5003,"Ġbula":5004,"Ġlaws":5005,"Ġhaf":5006,"ctors":5007,"Ġsambhal":5008,"nak":5009,"Ġfavorite":5010,"Ġforce":5011,"uly":5012,"Ġburi":5013,"Ġhisaab":5014,"Ġspir":5015,"Ġdumb":5016,"âĿ£":5017,"Ġdikhane":5018,"Ġrese":5019,"Ġsession":5020,"Ġpollution":5021,"phone":5022,"Ġmarks":5023,"zam":5024,"hammad":5025,"Ġpya":5026,"Ġobvi":5027,"ĠAli":5028,"Ġbabu":5029,"Ġpen":5030,"Ġnish":5031,"unt":5032,"Ġbari":5033,"Ġgareeb":5034,"wad":5035,"Ġchall":5036,"Ġcrying":5037,"Ġera":5038,"Ġrss":5039,"Ġbowling":5040,"Ġtotally":5041,"Ġbox":5042,"ĠNew":5043,"yda":5044,"ðŁĺĥ":5045,"Ġbased":5046,"khi":5047,"Ġlaise":5048,"char":5049,"Ġhits":5050,"Ġcomedy":5051,"Ġfaida":5052,"ĠðŁ¤§":5053,"Ġdebate":5054,"Ġlagaya":5055,"Ġaai":5056,"Ġkhuda":5057,"thanks":5058,"dies":5059,"ĠBi":5060,"Ġlye":5061,"Ġcbi":5062,"Ġkrwa":5063,"Ġentry":5064,"Ġjaruri":5065,"Ġcountries":5066,"Ġpopular":5067,"2021":5068,"ency":5069,"istic":5070,"Ġjitni":5071,"ðŁĺĺðŁĺĺ":5072,"Ġones":5073,"Ġbataye":5074,"break":5075,"Ġrishta":5076,"Ġprocess":5077,"ague":5078,"Ġstuff":5079,"Ġbanate":5080,"CH":5081,"ĠEng":5082,"Ġbag":5083,"Ġmotiv":5084,"Ġdhe":5085,"Ġsubha":5086,"Ġjisme":5087,"Ġbachpan":5088,"Ġshab":5089,"Ġfreedom":5090,"cott":5091,"ĠAN":5092,"sorry":5093,"Ġbilli":5094,"Ġsaale":5095,"Ġganda":5096,"tri":5097,"Ġtai":5098,"never":5099,"Ġtelling":5100,"Ġfoo":5101,"rime":5102,"ĠðŁĻĮ":5103,"Ġloan":5104,"Ġpair":5105,"Ġener":5106,"Ġroar":5107,"Ġlives":5108,"ĠIslam":5109,"Ġbaal":5110,"Ġane":5111,"Ġweeks":5112,"Ġmedical":5113,"Ġphotos":5114,"Ġos":5115,"Ġpage":5116,"Ġ2019":5117,"Ġsqu":5118,"chalo":5119,"wor":5120,"ĠMein":5121,"ĠThat":5122,"Ġstatus":5123,"ĠVI":5124,"ĠðŁĻĪ":5125,"Ġbarbad":5126,"Ġthread":5127,"heb":5128,"LA":5129,"Ġsuit":5130,"Ġgames":5131,"Ġsap":5132,"âľĮ":5133,"Ġappreciate":5134,"erence":5135,"Ġchr":5136,"ĠMera":5137,"Ġgadhe":5138,"Ġdada":5139,"Ġbf":5140,"bol":5141,"Ġaayenge":5142,"tumhe":5143,"33":5144,"ĠBhi":5145,"Ġprofile":5146,"Ġpakad":5147,"sive":5148,"did":5149,"Ġpin":5150,"Ġoriginal":5151,"Ġgone":5152,"Ġvari":5153,"Ġstri":5154,"Ġlakin":5155,"ðŁĳıðŁĳı":5156,"Ġroti":5157,"ram":5158,"Ġmedal":5159,"Ġkejriwal":5160,"Ġprobably":5161,"Ġcalling":5162,"iction":5163,"Ġdab":5164,"Ġtour":5165,"Ġuspe":5166,"Ġexpose":5167,"Ġtoot":5168,"Ġhindustan":5169,"Ġminute":5170,"Ġotherwise":5171,"Ġsour":5172,"ild":5173,"Ġrele":5174,"ĠMain":5175,"Ġexactly":5176,"Ġhii":5177,"akar":5178,"Ġthree":5179,"ðŁı½":5180,"ĠðŁĳĩ":5181,"ĠðŁĶ":5182,"Ġrailway":5183,"ray":5184,"ĠOn":5185,"Ġapply":5186,"Ġpucha":5187,"Ġsuspend":5188,"ĠMat":5189,"Ġtwt":5190,"Ġkhaya":5191,"kash":5192,"Ġexcept":5193,"Arey":5194,"sim":5195,"Ġtouch":5196,"ented":5197,"Ġdikhana":5198,"Ġbhala":5199,"Ġdialogue":5200,"IM":5201,"Ġjaayega":5202,"Ġchote":5203,"YA":5204,"ĠðŁĻıðŁĻıðŁĻı":5205,",,,":5206,"by":5207,"Ġrev":5208,"Ġaukaat":5209,"Ġpick":5210,"Ġmostly":5211,"Ġdao":5212,"Ġgayab":5213,"Ġconfirm":5214,"sana":5215,"ĠBaro":5216,"Ġblind":5217,"Ġful":5218,"sun":5219,"sur":5220,"Ġrules":5221,"ater":5222,"SE":5223,"harma":5224,"ĠSid":5225,"Ġfacts":5226,"Ġvictim":5227,"ĠDelhi":5228,"may":5229,"ðŁĺħðŁĺħ":5230,"icy":5231,"Ġtele":5232,"Ġten":5233,"heen":5234,"ahul":5235,"Ġhmare":5236,"Ġkeliye":5237,"Ġzam":5238,"Ġlucky":5239,"47":5240,"ĠLekin":5241,"uu":5242,"Ġstyle":5243,"Ġbengal":5244,"Ġreel":5245,"100":5246,"Ġprotect":5247,"Ġdestro":5248,"Ġversion":5249,"ðŁĸ":5250,"Ġknew":5251,"lymp":5252,"Ġjaoge":5253,"Ġstep":5254,"Ġbehavi":5255,"Ġincrease":5256,"Ġarrest":5257,"hallah":5258,"Ġremain":5259,"Ġsahib":5260,"Ġrajiv":5261,"lock":5262,"Ġnika":5263,"Ġbangl":5264,"Ġrece":5265,"aroori":5266,"Ġlayak":5267,"Ġforward":5268,"Ġscam":5269,"Ġrampal":5270,"Ġearly":5271,"off":5272,"got":5273,"hest":5274,"Ġjiska":5275,"cin":5276,"Ġbts":5277,"ĠCongress":5278,"Ġopportun":5279,"cracy":5280,"jar":5281,"Ġjour":5282,"Ġ60":5283,"Ġakal":5284,"OM":5285,"Ġmut":5286,"Ġbhaag":5287,"Ġbull":5288,"Ġemoji":5289,"Ġsolve":5290,"Ġshakal":5291,"pper":5292,"Ġgut":5293,"esy":5294,"cs":5295,"tom":5296,"Ġcold":5297,"Ġpd":5298,"cause":5299,"Ġcommit":5300,"Ġchut":5301,"ined":5302,"ðŁĺ¤":5303,"Ġvie":5304,"Ġlegend":5305,"ĠðŁı":5306,"IR":5307,"Im":5308,"vember":5309,"Ġcheap":5310,"Ġtit":5311,"ashtra":5312,"Ġdala":5313,"Haa":5314,"Ġkilled":5315,"Ġloot":5316,"Ġjoh":5317,"Ġalong":5318,"Main":5319,"Ġpuj":5320,"Han":5321,"Ġnalla":5322,"ateg":5323,"ĠCom":5324,"dev":5325,"Ġgov":5326,"Ġshot":5327,"As":5328,"Ġscore":5329,"Ġcomplain":5330,"Ġdisappo":5331,"Ġperiod":5332,"Ġlocal":5333,"Ġaankh":5334,"IA":5335,"bilkul":5336,"udh":5337,"ĠðŁĻıðŁı»":5338,"anger":5339,"Ġdhadkan":5340,"Ġbcoz":5341,"Ġlas":5342,"Na":5343,"Ġdecember":5344,"Ġbolke":5345,"arak":5346,"Ġ23":5347,"xy":5348,"Ġenc":5349,"Ġmajority":5350,"ðŁĺ³":5351,"Ġreact":5352,"ðŁĴĸ":5353,"Ġstock":5354,"Ġeconomy":5355,"Ġstation":5356,"Ġmistake":5357,"Ġjournalist":5358,"Ġbanna":5359,"gust":5360,"Ġcurrent":5361,"dul":5362,"ĠRaha":5363,"Ġgae":5364,"ĠRam":5365,"Ġinside":5366,"Ġaara":5367,"ĠHam":5368,"Ġzada":5369,"Ġinves":5370,"Ġenga":5371,"ĠSingh":5372,"Ġcrime":5373,"igh":5374,"Ġpropag":5375,"Ġbiwi":5376,"Ġkarle":5377,"adh":5378,"Ġpopulation":5379,"Ġseekh":5380,"olar":5381,"Ġliber":5382,"ĠSam":5383,"Ġjald":5384,"tel":5385,"Ġconversation":5386,"Ġkarma":5387,"Ġwaala":5388,"Ġbaitha":5389,"ĠðŁ§":5390,"Ġmaja":5391,"ĠðŁį":5392,"Ġdetails":5393,"Ġshree":5394,"Ġdhoni":5395,"Ġbandh":5396,"Ġscenes":5397,"Ġbani":5398,"Ġmata":5399,"iz":5400,"hon":5401,"cas":5402,"Ġamer":5403,"ðŁĺĨðŁĺĨ":5404,"Ġrights":5405,"Ġloyal":5406,"achi":5407,"Ġallowed":5408,"fin":5409,"ðŁ¤©":5410,"ĠPlease":5411,"Ġkhayal":5412,"Ġevening":5413,"Ġpehla":5414,"Ġtrailer":5415,"Ġgas":5416,"Ġbeht":5417,"ĠDon":5418,"23":5419,"there":5420,"pped":5421,"Ġelect":5422,"dium":5423,"allah":5424,"Ġinvol":5425,"Ġsapne":5426,"Ġloo":5427,"Ġpayega":5428,"Ġghal":5429,"Ġespecially":5430,"mail":5431,"Ġgarib":5432,"dy":5433,"Ġbooks":5434,"Ġattend":5435,"Ġvotes":5436,"air":5437,"Ġ;":5438,"Ġoffer":5439,"ĠðŁĺĥ":5440,"Ġkanoon":5441,"Ġcell":5442,"tee":5443,"Ġwishes":5444,"pal":5445,"Ġsearch":5446,"Ġunfair":5447,"Ġladai":5448,"Ġhme":5449,"Ġcast":5450,"Ġsubsc":5451,"iting":5452,"Ġimpro":5453,"Ġquali":5454,"Ġgradu":5455,"Ġterm":5456,"Ġresponse":5457,"UM":5458,"Ġemotions":5459,"Ġchalte":5460,"Ġbabar":5461,".......":5462,"ĠSun":5463,"Ġsunday":5464,"Ġciv":5465,"24":5466,"Ġtried":5467,"Ġscience":5468,"Ġmama":5469,"Ġentertainment":5470,"Ġrakhte":5471,"Why":5472,"Ġbeat":5473,"teja":5474,"Ġfraud":5475,"rats":5476,"ussi":5477,"Ġmarried":5478,"Ġlets":5479,"Ġwaah":5480,"Cha":5481,"olan":5482,"stop":5483,"ĠDE":5484,"Ġbacho":5485,"Ġinnocent":5486,"ado":5487,"Ġtel":5488,"Ġstarting":5489,"bahut":5490,"Ġpie":5491,"Ġhaters":5492,"ðŁĺ¬":5493,"Ġlady":5494,"waise":5495,"Ġkhade":5496,"Ġutar":5497,"Ġkehne":5498,"Ġpromotion":5499,"Ġdhak":5500,"Ġgif":5501,"Ġneeche":5502,"Ġolymp":5503,"Ġtagline":5504,"Ġdegree":5505,"Ġsuno":5506,"Ġgandi":5507,"Ġkur":5508,"Ġchacha":5509,"Ġmp":5510,"Ġkhoon":5511,"Ġconsider":5512,"work":5513,"Ġnorth":5514,"Ġtargeting":5515,"Ġnegativity":5516,"reet":5517,"ties":5518,"ðŁĴ¥":5519,"AA":5520,"boss":5521,"Ġghante":5522,"Ġakela":5523,"Ġarticle":5524,"ĠMy":5525,"rina":5526,"Ġcli":5527,"ĠFor":5528,"atives":5529,"Ġkhate":5530,"ĠIT":5531,"Ġindivid":5532,"Ġaank":5533,"ners":5534,"hrukh":5535,"athi":5536,"Ġbanega":5537,"Ġresults":5538,"ored":5539,"Ġbon":5540,"Ġdham":5541,"ĠAll":5542,"Ġforeign":5543,"aland":5544,"Ġsmj":5545,"lish":5546,"hpa":5547,"hor":5548,"Ġfem":5549,"Ġkhelte":5550,"Ġbots":5551,"ying":5552,"Ġcertific":5553,"ple":5554,"pratik":5555,"Ġmereko":5556,"Ġenergy":5557,"erature":5558,"ĠðŁĺĿ":5559,"Ġbio":5560,"Ġcrimin":5561,"Ġvol":5562,"Ġtotal":5563,"Ġdein":5564,"Ġpoints":5565,"Ġlen":5566,"Happy":5567,"Ġremind":5568,"Ġjise":5569,"Ġsolution":5570,"ishna":5571,"Ġmaro":5572,"Ġsabki":5573,"ĠBas":5574,"Ġachcha":5575,"Ġlal":5576,"Ġchem":5577,"kis":5578,"Ġtravel":5579,"rics":5580,"Ġbarbaad":5581,"Mera":5582,"Ġnara":5583,"Ġlijiye":5584,"ĠChristmas":5585,"ðŁ¤ª":5586,"indi":5587,"ĠIS":5588,"Ġstrugg":5589,"Ġjesa":5590,"Ġanal":5591,"cal":5592,"Ġvaj":5593,"Ġcompetition":5594,"ancy":5595,"Ġkariye":5596,"Ġlge":5597,"ĠYOU":5598,"Ġadvice":5599,"Salman":5600,"ua":5601,"ðŁ§¿":5602,"Ġmalum":5603,"Ġbeth":5604,"Ġposter":5605,"Ġsla":5606,"Ġbure":5607,"Ġswa":5608,"ĠKA":5609,"Ġcoin":5610,"Ġborder":5611,"osh":5612,"Ġzind":5613,"Ġteams":5614,"Ġmusalman":5615,"gth":5616,"Ġresearch":5617,"MAR":5618,"Ġdoc":5619,"Ġdamn":5620,"ĠKam":5621,"Ġtap":5622,"Ġpersonality":5623,"arat":5624,"sin":5625,"lation":5626,"Ġofficer":5627,"Ġconnection":5628,"On":5629,"Ġeye":5630,"Ġachhi":5631,"ĠðŁ¤Ń":5632,"Ġcollection":5633,"Pa":5634,".,":5635,"ĠKr":5636,"bjp":5637,"sirf":5638,"ĠJust":5639,"wow":5640,"Ġego":5641,"Ġreali":5642,"Ġgives":5643,"Ġangle":5644,"80":5645,"raj":5646,"Ġinternet":5647,"ential":5648,"bum":5649,"ĠGandhi":5650,"Ġhoty":5651,"Ġbelong":5652,"ðŁĺĲ":5653,"Ġsoft":5654,"ule":5655,"Ġwrite":5656,"Ġchahie":5657,"ðŁĴª":5658,"Pr":5659,"Ġae":5660,"lan":5661,"Ġmarke":5662,"Ġshowing":5663,"gging":5664,"Ġlose":5665,"Ġjeetne":5666,"esome":5667,"Ġnaz":5668,"ĠMuslim":5669,"Ġbase":5670,"Ġcreat":5671,"ĠMan":5672,"liament":5673,"hirt":5674,"Ġcatch":5675,"gir":5676,"Ġthori":5677,"Ġkhatm":5678,"kon":5679,"ĠðŁĺ³":5680,"ðŁ¤·":5681,"Ġneeded":5682,"Ġfais":5683,"Ġhumein":5684,"ĠNot":5685,"Ġbrah":5686,"Ġoper":5687,"Ġlockdown":5688,"ĠBo":5689,"Ġsamjhe":5690,"Ġrather":5691,"ĠSE":5692,"Ġdosto":5693,"hilesh":5694,"Ġactors":5695,"Ġnaye":5696,"Ġwaali":5697,"Ġtakes":5698,"Ġlines":5699,"oking":5700,"ades":5701,"Ġgreen":5702,"Ġdey":5703,"shukla":5704,"ĠEx":5705,"Ġopening":5706,"Ġchildren":5707,"Ġsayad":5708,"Ġsbko":5709,"ĠðŁĳĮ":5710,"raat":5711,"ohh":5712,"Ġactual":5713,"Ġeat":5714,"Ġmilenge":5715,"Ġinteresting":5716,"Ġbats":5717,"60":5718,"Ġmasla":5719,"Ġagle":5720,"Ġinstagram":5721,"Â®Â®":5722,"Ġmember":5723,"zation":5724,"Ġexpress":5725,"Ġdeserves":5726,"Ġpra":5727,"pi":5728,"udi":5729,"Ġfootage":5730,"Ġthreat":5731,"Ġboycott":5732,"after":5733,"ðŁĻĥ":5734,"Ġstage":5735,"acy":5736,"jit":5737,"ĠPunjab":5738,"Ġrho":5739,"ĠFir":5740,"Ġsuffer":5741,"cul":5742,"Ġsuru":5743,"mak":5744,"Ġblood":5745,"list":5746,"Ġsone":5747,"Ġpush":5748,"mesha":5749,"ird":5750,"Ġidk":5751,"Ġtemple":5752,"Ġpractice":5753,"pes":5754,"Ġpropaganda":5755,"Ġmuk":5756,"Ġcolour":5757,"ground":5758,"hota":5759,"ĠUS":5760,"ðŁĮļ":5761,"Ġkutta":5762,"Ġkundra":5763,"Ġglo":5764,"Ġnotification":5765,"Ġyoure":5766,"Ġmarna":5767,"ðŁĺĢðŁĺĢ":5768,"Ġmey":5769,"Ġruling":5770,"Ġplanning":5771,"Ġchain":5772,"Ġkise":5773,"Ġrandom":5774,"ool":5775,"fan":5776,"Ġparticip":5777,"ired":5778,"Ġhos":5779,"Ġmodel":5780,"Ġchristmas":5781,"verage":5782,"Ġkhelta":5783,"Ġcorruption":5784,"cil":5785,"Ġkarungi":5786,"Ġshiv":5787,"ost":5788,"Ġreligious":5789,"idar":5790,"Ġvoot":5791,"Ġbang":5792,"Ġdew":5793,"Ġtej":5794,"waas":5795,"ðŁĮ¹":5796,"Ġevil":5797,"asti":5798,"jaan":5799,"Ġpichle":5800,"yy":5801,"ores":5802,"Ġvahi":5803,"Ġapse":5804,"ĠUMAR":5805,"Ġrising":5806,"Ġcustomer":5807,"using":5808,"Ġpriority":5809,"Ġhaina":5810,"ĠMay":5811,"ĠðŁĺŃðŁĺŃðŁĺŃðŁĺŃ":5812,"Ġwaja":5813,"ĠCM":5814,"ðŁĴĶðŁĴĶ":5815,"ĠKab":5816,"Ġeffect":5817,"ĠðŁ¥°":5818,"Ġtourn":5819,"Ġviolence":5820,"Ġworks":5821,"Ġfilms":5822,"Ġmulti":5823,"Ġswe":5824,"Ġpredic":5825,"Ġbaccha":5826,"Ġthand":5827,"Ġnetw":5828,"khud":5829,"ĠðŁĴĢ":5830,"Ġbewak":5831,"Ġbolu":5832,"uran":5833,"Ġaesa":5834,"Ġanim":5835,"Ġleak":5836,"Ġ300":5837,"Ġhands":5838,"atar":5839,"Ġhour":5840,"Ġdafa":5841,"Ġblessed":5842,"Ġkum":5843,"aree":5844,"Ġnikla":5845,"99":5846,"Ġbehtar":5847,"Ġabove":5848,"Ġvikas":5849,"Ġdepend":5850,"Ġkhele":5851,"Ġintr":5852,"Ġengland":5853,"Ġduty":5854,"Ġgran":5855,"Ġcertificate":5856,"Ġjinko":5857,"hre":5858,"Ġgc":5859,"Ġdekhti":5860,"Ġpayment":5861,"Ġdir":5862,"Bro":5863,"Ġquote":5864,"Ġbecom":5865,"iso":5866,"Ġuper":5867,"Ġhappening":5868,"eets":5869,"ateh":5870,"Ġrahte":5871,"jai":5872,"ðŁ¤¡":5873,"odes":5874,"ĠNarendra":5875,"Ġaustralia":5876,"Ġkri":5877,"Ġmajor":5878,"Ġtang":5879,"Ġsri":5880,"Ġstands":5881,"Ġbath":5882,"Ġlikhe":5883,"veer":5884,"ĠðŁĺ¤":5885,"saare":5886,"ring":5887,"HAHA":5888,"teri":5889,"Ġdungi":5890,"Ġjaao":5891,"ðŁĴľ":5892,"tian":5893,"uje":5894,"hav":5895,"Acha":5896,"Ġstories":5897,"ĠHow":5898,"ĠAd":5899,"Ġcrack":5900,"Ġyrs":5901,"ĠðŁĺŃðŁĺĤ":5902,"Ġsbse":5903,"Ġocc":5904,"Ġapny":5905,"Ġkhada":5906,"Ġcoach":5907,"ĠðŁĳī":5908,"Ġtumlog":5909,"Ġcompar":5910,"udden":5911,"Ġbowl":5912,"Ġpoliticians":5913,"ras":5914,"Ġtrade":5915,"Ġlaug":5916,"Ġcompletely":5917,"Ġabuse":5918,"Ġdikhate":5919,"Accha":5920,"omat":5921,"Ġchahye":5922,"Modi":5923,"Ġrr":5924,"hetic":5925,"Ġahead":5926,"Ġdownload":5927,"Ġoffline":5928,"Ġfucking":5929,"Ġkoyi":5930,"Ġdecl":5931,"SS":5932,"Ġmatters":5933,"Ġcest":5934,"Ġ27":5935,"inder":5936,"ĠON":5937,"Ġrukh":5938,"Ġabsolutely":5939,"hani":5940,"Ġfollower":5941,"ĠUske":5942,"An":5943,"ĠJai":5944,"Ġcontestants":5945,"Ġvarna":5946,"ensive":5947,"Ġnasha":5948,"Ġsochte":5949,"lace":5950,"Ġtareef":5951,"Ġwithin":5952,"Ġsection":5953,"ðŁ¤¬":5954,"Lol":5955,"Ġstra":5956,"Ġwatched":5957,"Ġrajasthan":5958,"isy":5959,"Ġasa":5960,"Ġfrustr":5961,"Ġkharid":5962,"itch":5963,"Ġdiffic":5964,"Ġstren":5965,"UN":5966,"Ġsometimes":5967,"cap":5968,"Ġdeke":5969,"laint":5970,"ðŁĴĲ":5971,"ĠLog":5972,"ĠSA":5973,"ðŁĺľðŁĺľ":5974,"Ġmari":5975,"inted":5976,"ĠInd":5977,"Ġdemocracy":5978,"Ġamir":5979,"tioned":5980,"Itna":5981,"Ġclick":5982,"yenge":5983,"Ġvap":5984,"respect":5985,"pose":5986,"Ġgill":5987,"Ġpel":5988,"Ġlf":5989,"leef":5990,"Ġkrlo":5991,"Ġrisk":5992,"yaada":5993,"ried":5994,"Ġthemselves":5995,"90":5996,"Ġbehan":5997,"Ġkrdo":5998,"Ġfrnd":5999,"Ġiniti":6000,"Ġmode":6001,"irat":6002,"esel":6003,"UT":6004,"ĠHO":6005,"ĠMinister":6006,"matlab":6007,"ĠPro":6008,"Not":6009,"ided":6010,"Ġairport":6011,"dekh":6012,"ĠWhy":6013,"Ġdude":6014,"Ġantim":6015,"Ġsas":6016,"ĠMaine":6017,"abey":6018,"Ġwasn":6019,"That":6020,"Ġsupporter":6021,"Ġshut":6022,"ðŁĺł":6023,"When":6024,"even":6025,"Ġbangladesh":6026,"Ġmine":6027,"ðŁĺ¥":6028,"irthday":6029,"Ġrahegi":6030,"Ġwont":6031,"Ġcine":6032,"akhi":6033,"ðŁĻĦðŁĻĦ":6034,"naam":6035,"tery":6036,"Ġkhal":6037,"Ġsamjho":6038,"Ġchomu":6039,"Ġshanti":6040,"inge":6041,"Ġchampion":6042,"uses":6043,"ĠKyun":6044,"Ġincident":6045,"Ġcricke":6046,"ilar":6047,"Ġsaat":6048,"tan":6049,"Ġbohut":6050,"Ġsochna":6051,"Ġmissed":6052,"Lo":6053,"Ġ35":6054,"ĠSar":6055,"45":6056,"Ġphysical":6057,"Ġship":6058,"Ġhv":6059,"Ġnarr":6060,"Ġcharge":6061,"ĠKI":6062,"Ġinspir":6063,"Ġple":6064,"Ġjourney":6065,"Ġclip":6066,"Ġekdum":6067,"Ġrepres":6068,"ðŁĺĭ":6069,"Ġyg":6070,"Ġindepend":6071,"dry":6072,"oring":6073,"range":6074,"Ġspot":6075,"Ġvajah":6076,"Ġrap":6077,"Ġchanged":6078,"bara":6079,"Bilkul":6080,"Ġconvo":6081,"ughter":6082,"Don":6083,"Ġsuccessful":6084,"uary":6085,"Ġteas":6086,"Ġcurrently":6087,"ĠKARAN":6088,"Ġdans":6089,"Ġaay":6090,"rey":6091,"ffee":6092,"aat":6093,"onsense":6094,"Ġ2020":6095,"Ġkardiya":6096,"Ġgain":6097,"Ġchalti":6098,"Ġdisha":6099,"tv":6100,"Ġleague":6101,"Ġinvestig":6102,"Ġshining":6103,"chen":6104,"Ġcateg":6105,"Ġsupreme":6106,"Ġlyrics":6107,"su":6108,"asha":6109,"Ġchinta":6110,"agr":6111,"Ġfestival":6112,"Ġkhabar":6113,"Ġumm":6114,"first":6115,"Ġbhav":6116,"ĠKisi":6117,"Ġearth":6118,"Ġround":6119,"ages":6120,"Ġdiscussion":6121,"Ġhari":6122,"Ġtemperature":6123,"ĠGood":6124,"Ġlikhna":6125,"Ġbcci":6126,"isko":6127,"Ġtoss":6128,"Ġhappens":6129,"Ġbachi":6130,"Ġamount":6131,"plz":6132,"ĠLo":6133,"35":6134,"Ġwickets":6135,"Ġajj":6136,"Ġrehe":6137,"Ġfemale":6138,"Ġkapde":6139,"Ġmajak":6140,"Ġthoughts":6141,"while":6142,"ĠGur":6143,"Ġsunne":6144,"lad":6145,"Ġorg":6146,"Ġlagane":6147,"Ġcentral":6148,"Ġpoore":6149,"last":6150,"Ġavo":6151,"Ġhuyi":6152,"ĠðŁ¤·":6153,"Ġkala":6154,"Ġawaz":6155,"Ġnak":6156,"Ġjahil":6157,"wahi":6158,"Ġtut":6159,"Ġbadla":6160,"Ġaccounts":6161,"ĠWa":6162,"Maine":6163,"gusting":6164,"usse":6165,"llig":6166,"Ġkaisi":6167,"Ġbike":6168,"rew":6169,"Ġziada":6170,"Hahaha":6171,"Ġfear":6172,"Al":6173,"Ġwild":6174,"Ġreading":6175,"Ġselect":6176,"Ġfighting":6177,"Ġjung":6178,"Ġcontra":6179,"ĠOF":6180,"shit":6181,"Ġcomplaint":6182,"NA":6183,"win":6184,"..!!":6185,"Ġbhara":6186,"Ġsudhar":6187,"Ġpolicy":6188,"cious":6189,"Ġpath":6190,"Ġcham":6191,"Ġabe":6192,"ĠSO":6193,"Haha":6194,"Ġrunning":6195,"ross":6196,"Ġbhari":6197,"Ġaath":6198,"hhh":6199,"Ġshad":6200,"Ġincome":6201,"ĠKaise":6202,"Ġemb":6203,"Ġnumb":6204,"Ġknown":6205,"Ġsukoon":6206,"Ġvibes":6207,"imum":6208,"Ġsix":6209,"ĠDecember":6210,"ota":6211,"Ġbandi":6212,"ĠToh":6213,"Ġincluding":6214,"Ġnetwork":6215,"Ġraaj":6216,"Ġ,,":6217,"Ġmeine":6218,"Ġclub":6219,"ID":6220,"ĠKha":6221,"Ġbowler":6222,"Ġpartner":6223,"atory":6224,"ĠRahul":6225,"Ġinterested":6226,"Ġrepeat":6227,"eriously":6228,"EE":6229,"saf":6230,"Ġjanam":6231,"ĠðŁ¤Ĺ":6232,"Ġconv":6233,"Ġsens":6234,"Ġsaara":6235,"Ġshami":6236,"Ġadhi":6237,"leg":6238,"uel":6239,"Har":6240,"Ġraja":6241,"Ġinhone":6242,"cher":6243,"Ġnada":6244,"ĠðŁĺĭ":6245,"play":6246,"Ġwedding":6247,"Ġsudden":6248,"Ġdraw":6249,"ujh":6250,"Ġpurana":6251,"Ġhashta":6252,"Ġinsult":6253,"Ġthrow":6254,"Ġski":6255,"tab":6256,"ðŁĳİ":6257,"Ġyouth":6258,"Ġmujhy":6259,"Ġow":6260,"Ġdoctors":6261,"Ġurdu":6262,"Ġlondon":6263,"Ġkee":6264,"Ġkang":6265,"Ġicon":6266,"Ġld":6267,"yr":6268,"Ġtea":6269,"Ġrid":6270,"Ġjaroor":6271,"Ġmantri":6272,"Ġhasi":6273,"ðŁĴ«":6274,"Ġborn":6275,"Ġcelebrity":6276,"badi":6277,"xi":6278,"itation":6279,"Ġdirector":6280,"Ġanymore":6281,"Ġkahani":6282,"Ġicc":6283,"inko":6284,"Ġyada":6285,"Ġdare":6286,"pat":6287,"Ġhandsome":6288,"iling":6289,"Ġguzar":6290,"Ġfig":6291,"Ġfalse":6292,"Ġgeneration":6293,"ĠCan":6294,"shame":6295,"artment":6296,"Exactly":6297,"yani":6298,"Ġnobody":6299,"Ġpadhe":6300,"ðŁĴĢ":6301,"utva":6302,"Nhi":6303,"osed":6304,"ðŁĳĢ":6305,"Ġeasily":6306,"Ġcow":6307,"Ġactress":6308,"know":6309,"Ġsaza":6310,"ĠðŁĴķ":6311,"ðŁİĤ":6312,"Ġkn":6313,"Ġdriver":6314,"eem":6315,"medi":6316,"Ġshaan":6317,"They":6318,"Ġsacri":6319,"Ġhadd":6320,"Ġhojaye":6321,"She":6322,"jj":6323,"Ġâľ¨":6324,"Ġmemes":6325,"Ġwarri":6326,"Ġmahan":6327,"ĠDr":6328,"Ġtaste":6329,"Ġhighest":6330,"risy":6331,"ubarak":6332,"Ġdom":6333,"ĠMA":6334,"chu":6335,"Yeah":6336,"Ġepisodes":6337,"Ġbhabhi":6338,"anki":6339,"adhe":6340,"Ġkabi":6341,"Fir":6342,"mam":6343,"ðŁļ©":6344,"Ġbante":6345,"jput":6346,"Ġaajkal":6347,"Ġkonsi":6348,"Ġnature":6349,"Ġresponsible":6350,"Ġdalit":6351,"ĠKO":6352,"Ġjha":6353,"dio":6354,"Ġrich":6355,"Ġhowa":6356,"Ġsaalo":6357,"var":6358,"Ġpde":6359,"Ġfaith":6360,"Ġmic":6361,"ooo":6362,"Ġviral":6363,"Ġhumse":6364,"hore":6365,"lax":6366,"Ġdark":6367,"ukh":6368,"Ġregi":6369,"Ġtodo":6370,"Ġchla":6371,"waan":6372,"Ġflo":6373,"Ġquite":6374,"ohli":6375,"26":6376,"Ġdarshan":6377,"Ġpremi":6378,"ðŁı»âĢįâĻĤï¸ı":6379,"acc":6380,"Ġjiski":6381,"Ġandhe":6382,"Ġsabit":6383,"Ġmoh":6384,"Ġ36":6385,"poor":6386,"auty":6387,"Ġparties":6388,"Ġrepor":6389,"Ġjustify":6390,"vie":6391,"Ġfalling":6392,"Ġmaal":6393,"ðŁĺŃðŁĺĤ":6394,"ark":6395,"Ġorgan":6396,"congratulations":6397,"Ġlots":6398,"Ġcloud":6399,"Ġbhee":6400,"Ġdifficult":6401,"Ġmv":6402,"Ġdesign":6403,"ĠSan":6404,"Ġbudget":6405,"Ġexpression":6406,"zza":6407,"ribe":6408,"oof":6409,"Ġgobar":6410,"Ġdoll":6411,"ises":6412,"Ġdog":6413,"Ġpict":6414,"agal":6415,"Ġtuk":6416,"Ġuda":6417,"Ġmafi":6418,"Ġtreatment":6419,"Ġcake":6420,"Ġbeyond":6421,"ĠItna":6422,"Ġbano":6423,"Ġleadership":6424,"Ġwritten":6425,"Ġamong":6426,"Ġbestie":6427,"ustice":6428,"Ġbharti":6429,"bh":6430,"iter":6431,"Ġpradesh":6432,"Ġawesome":6433,"Ġmark":6434,"Ġstaff":6435,"people":6436,"ardasti":6437,"Ġakad":6438,"Ġnonsense":6439,"Ġlao":6440,"Ġtraining":6441,"ply":6442,"Dil":6443,"Ġroman":6444,"Ġseedha":6445,"Ġtheat":6446,"ĠðŁĺĩ":6447,"Ġtym":6448,"Ġnikle":6449,"Ġplatform":6450,"Ġkhub":6451,"Ġadmin":6452,"ops":6453,"Ġinsecure":6454,"Ġdekhke":6455,"Ġsimilar":6456,"Se":6457,"Ġvilla":6458,"Ġgaane":6459,"Ġweather":6460,"Ġinflu":6461,"Ġtournament":6462,"Ġshop":6463,"Ġbik":6464,"sibility":6465,"Ġgodi":6466,"omg":6467,"Ġnikala":6468,"Ġrahta":6469,"Ġsurvi":6470,"only":6471,"Ġamit":6472,"aste":6473,"Ġanna":6474,"Ġpai":6475,"ĠIts":6476,"Ġproperty":6477,"Ġreve":6478,"Tr":6479,"pct":6480,"Ġforgot":6481,"alk":6482,"sign":6483,"Ġrkha":6484,"Ġpant":6485,"Ġrkh":6486,"ĠHA":6487,"55":6488,"Ġsti":6489,"Ġcalls":6490,"Ġemploye":6491,"ĠShamita":6492,"Wa":6493,"Ġchief":6494,"Ġgoli":6495,"29":6496,"Ġfailed":6497,"Ġthee":6498,"Ġaverage":6499,"Ġsidha":6500,"Ġbelow":6501,"Ġsaheb":6502,"Ġinteract":6503,"Ġstrate":6504,"rab":6505,"ĠAL":6506,"Ġmard":6507,"Ġlagana":6508,"OO":6509,"Ġtough":6510,"Ġaccep":6511,"Ġparliament":6512,"ĠðŁĺŀ":6513,"Ġlikhne":6514,"Ġbechare":6515,"Ġnomin":6516,"ldi":6517,"Si":6518,"engi":6519,"Ġdhang":6520,"jal":6521,"oli":6522,"Ġmoments":6523,"Ġdedic":6524,"Ġbakwaas":6525,"Ġdiesel":6526,"Ġintellig":6527,"hehe":6528,"istance":6529,"dan":6530,"Ġyadav":6531,"bhag":6532,"ĠNow":6533,"nah":6534,"your":6535,"Ġsis":6536,"ashi":6537,"Ġbore":6538,"Ġharam":6539,"Ġpti":6540,"Ġfait":6541,"Ġpucho":6542,"Ġjhooth":6543,"Ġchaha":6544,"Ġmachi":6545,"aign":6546,"Ġclasses":6547,"Ġcorrupt":6548,"Ġdelivery":6549,"TS":6550,"fs":6551,"Ġprovide":6552,"ĠBharat":6553,"Ġsatta":6554,"Ġrishte":6555,"Khan":6556,"Ġtext":6557,"Ġshift":6558,"Ġkyoki":6559,"..!":6560,"ðŁĺĩ":6561,"twitter":6562,"Ġguest":6563,"Just":6564,"uring":6565,"Ġlagao":6566,"Ġfinan":6567,"Ġkindly":6568,"Ġsarkari":6569,"Ġchip":6570,"Ġnawaz":6571,"Ġthird":6572,"Ġhogaye":6573,"Ġrakhne":6574,"Ġncb":6575,"Ġuttar":6576,"Ġesi":6577,"Ġjinke":6578,"Ġcenter":6579,"Ġbeh":6580,"Ġstrike":6581,"ĠCon":6582,"behen":6583,"Ġthinks":6584,"Ġrone":6585,"ees":6586,"Ġtat":6587,"ĠDM":6588,"ERE":6589,"Ġmaat":6590,"Bas":6591,"Ġspeci":6592,"Ġlagne":6593,"wari":6594,"Ġpromise":6595,"Ġakshay":6596,"lier":6597,"Ġadvance":6598,"Ġkismat":6599,"Ġ_":6600,"hood":6601,"Ġcentre":6602,"ðŁĴĹ":6603,"Ġsuggest":6604,"200":6605,"Ġpictures":6606,"Ġsick":6607,"Ġlord":6608,"Ġlistening":6609,"madam":6610,"Ġhaven":6611,"Ġwriting":6612,"Ġeu":6613,"Ġsort":6614,"Ġsubject":6615,"Ġbechara":6616,"Ġpadegi":6617,"Ġmute":6618,"Ġrai":6619,"ushi":6620,"Ġdobara":6621,"Please":6622,"Ġnag":6623,"ku":6624,"adam":6625,"Ġtrib":6626,"TA":6627,"ashmi":6628,"cessary":6629,"St":6630,"Ġlelo":6631,"Ġconfused":6632,"Ġbatsman":6633,"Ġconference":6634,"Ġinning":6635,"Ġnumbers":6636,"Ġsadak":6637,"Ġconstitution":6638,"nu":6639,"Ġretire":6640,"sm":6641,"Ġbhen":6642,"pls":6643,"jee":6644,"Ok":6645,"Ġauth":6646,"Ġbirth":6647,"Ġtuje":6648,"Ġcategory":6649,"bia":6650,"Ġimprove":6651,"Ġ......":6652,"orities":6653,"Ġdose":6654,"Ġaese":6655,"eral":6656,"qui":6657,"Ġchunav":6658,"thi":6659,"ĠAP":6660,"Ġmarte":6661,"Ġpil":6662,"Ġayegi":6663,"lar":6664,"see":6665,"cell":6666,"ĠModiji":6667,"Ġacross":6668,"reens":6669,"lied":6670,"uper":6671,"Ġsind":6672,"mend":6673,"Ġmeant":6674,"Ġstress":6675,"Ġnikl":6676,"Ġmajbo":6677,"ðŁĴŀ":6678,"Ġteachers":6679,"yanka":6680,"Ġleni":6681,"Ġmae":6682,"Ġshaam":6683,"Ġvirus":6684,"Ġcab":6685,"Ġlaunch":6686,"cor":6687,"pyaar":6688,"Ġjun":6689,"Kyun":6690,"Ġtakleef":6691,"Ġchemistry":6692,"Ġjakar":6693,"Ġsameer":6694,"Ġao":6695,"Ġupd":6696,"vent":6697,"Ġgum":6698,"Ġbalance":6699,"hm":6700,"Ġrajput":6701,"Ġlyn":6702,"Ġhokar":6703,"Ġmante":6704,"Ġgard":6705,"ĠðŁĴª":6706,"aching":6707,"Ġalg":6708,"Ġjanti":6709,"Ġfarq":6710,"Ġkiske":6711,"Ġfur":6712,"Ġpatak":6713,"Ġcous":6714,"Ġpurane":6715,"ĠMahar":6716,"Ġmid":6717,"Ġjala":6718,"Ġbaccho":6719,"asht":6720,"Ġserial":6721,"Ġnovember":6722,"Ġskin":6723,"Ġcampaign":6724,"emic":6725,"urb":6726,"Ġglad":6727,"OL":6728,"cond":6729,"Ġmot":6730,"Ġopportunity":6731,"Ġaat":6732,"Ġdai":6733,"Ġeid":6734,"Ġzaroori":6735,"Ġcomparison":6736,"Ġoct":6737,"ĠLove":6738,"27":6739,"Ġdanger":6740,"Ġnaukri":6741,"chor":6742,"baat":6743,"OP":6744,"Ġseats":6745,"Ġharass":6746,"itual":6747,"Ġhealthy":6748,"Ġprin":6749,"Ġjobs":6750,"Ġdesp":6751,"Ġkhas":6752,"Do":6753,"Ġbij":6754,"CC":6755,"Ġseh":6756,"Ġdisgusting":6757,"Mat":6758,"Ġmaut":6759,"osing":6760,"ðŁ¤ĶðŁ¤Ķ":6761,"hana":6762,"Ġene":6763,"Ġmaths":6764,"ration":6765,"Ġbd":6766,"Allah":6767,"Ġcuz":6768,"Ġbda":6769,"isation":6770,"Ġkyaa":6771,"Ġnanak":6772,"Ġremove":6773,"umbai":6774,"Ġstrength":6775,"Ġmb":6776,"ĠTho":6777,"Ġjyda":6778,"jb":6779,"ðŁĵ":6780,"Ġitself":6781,"Ġconcern":6782,"Ġshari":6783,"xygen":6784,"ĠMeri":6785,"Ġhmesha":6786,"ĠHi":6787,"eng":6788,"Ġsunna":6789,"ĠðŁĺķ":6790,"erial":6791,"ĠâĿ¤âĿ¤":6792,"chha":6793,"Ġina":6794,"Ġpooja":6795,"Ġpsy":6796,"dk":6797,"Ġsource":6798,"Ġspin":6799,"Ġcoffee":6800,"Ġmoi":6801,"Ġarey":6802,"Ġkahte":6803,"hindu":6804,"****":6805,"Ġfootball":6806,"Ġungli":6807,"ĠHE":6808,"Ġconnect":6809,"Ġanyway":6810,"Ġbuild":6811,"Ġtbh":6812,"ĠWoh":6813,"Ġkhelo":6814,"Ġload":6815,"ctions":6816,"Ġaak":6817,"egi":6818,"Ġargument":6819,"..?":6820,"okay":6821,"kam":6822,"Ġavi":6823,"Ġpadhne":6824,"Ġdrive":6825,"Ġhashtag":6826,"Tube":6827,"yana":6828,"Ġ2024":6829,"Meri":6830,"Ġgaana":6831,"Ġpractic":6832,"hoot":6833,"Ġexpert":6834,"Tw":6835,"Ġneut":6836,"Ġstan":6837,"Ġsapna":6838,"Ġrecei":6839,"Ġconvert":6840,"Ġrahoge":6841,"sing":6842,"Ġdinner":6843,"indian":6844,"Ġsem":6845,"ckey":6846,"Ġphe":6847,"hol":6848,"ðŁı¾":6849,"qat":6850,"Ġsasta":6851,"Ġdukhi":6852,"Ġkhareed":6853,"sach":6854,"mn":6855,"Ġgoal":6856,"Ġdreams":6857,"Ġmale":6858,"Ġmanagement":6859,"sub":6860,"Ġbeauty":6861,"Ġsarkaar":6862,"Ġwalk":6863,"Ġ%":6864,"Ġlaughing":6865,"Ġregard":6866,"Ġbarabar":6867,"Ġbegin":6868,"with":6869,"arna":6870,"Same":6871,"utanki":6872,"Ġzameen":6873,"Ġjldi":6874,"Ġadi":6875,"Ġkehti":6876,"Ġkoun":6877,"true":6878,"arr":6879,"heed":6880,"ley":6881,"ðŁ¤²":6882,"ĠDesh":6883,"Ġsochta":6884,"Ġbehave":6885,"ED":6886,"Ġjod":6887,"asing":6888,"olice":6889,"Ġperman":6890,"Ġcarry":6891,"yari":6892,"Ġsch":6893,"someone":6894,"adhan":6895,"Ġpehly":6896,"ĠAt":6897,"Ġoil":6898,"Ġreco":6899,"ishing":6900,"tera":6901,"Ġbuilding":6902,"Ġkaya":6903,"ĠThank":6904,"Ġzab":6905,"Ġflir":6906,"Ġlana":6907,"night":6908,"Ġshirt":6909,"Ġlatest":6910,"Ġabba":6911,"Ġteaser":6912,"Ġbaa":6913,"ĠKaro":6914,"Ġadmit":6915,"Ġuseless":6916,"Ġrepresent":6917,"Hi":6918,"Ġcouldn":6919,"Ch":6920,"Ham":6921,"Ġhafte":6922,"Ġhaz":6923,"ĠðŁĺª":6924,"Ġinfo":6925,"How":6926,"Ġisnt":6927,"Ġreplies":6928,"Ġstadium":6929,"Ġregular":6930,"shad":6931,"Ġmentioned":6932,"Ġdhoka":6933,"Ġaus":6934,"Ġevict":6935,"Ġrote":6936,"Ġdila":6937,"Toh":6938,"Ġsoche":6939,"Ġwaisa":6940,"Ġazam":6941,"fortun":6942,"Ġwebs":6943,"ĠPata":6944,"Ġtribute":6945,"gressive":6946,"Par":6947,"Ġhang":6948,"Ġpaiso":6949,"Ġhypocrisy":6950,"Ġtarha":6951,"Ġvali":6952,"beta":6953,"))":6954,"ultan":6955,"Ġchair":6956,"Ġchris":6957,"Ġomg":6958,"Ġkarva":6959,"Ġlaya":6960,"Ġhumanity":6961,"Ġcertain":6962,"Ġbasis":6963,"Ġkitchen":6964,"ĠAM":6965,"Ġalbum":6966,"Ġkroge":6967,"Ġsuic":6968,"Ġsurprise":6969,"Ġchallenge":6970,"rid":6971,"Ġsenior":6972,"nn":6973,"del":6974,"Ġspecially":6975,"Ġbologe":6976,"Ġmano":6977,"ĠðŁĺĤðŁĺĤðŁĺĤðŁĺĤðŁĺĤ":6978,"today":6979,"Ġcash":6980,"hee":6981,"Ġmaafi":6982,"Ġcontrib":6983,"Ġmedic":6984,"Ġlambi":6985,"ĠNE":6986,"ĠBirthday":6987,"Ġhotay":6988,"Ġfamili":6989,"Ġpull":6990,"Ġidiot":6991,"Ġadmission":6992,"hahahaha":6993,"garh":6994,"Ġletter":6995,"ĠLike":6996,"coming":6997,"desh":6998,"Ġsand":6999,"Ġbero":7000,"Ġbhale":7001,"Ġbecame":7002,"bra":7003,"Ġexpected":7004,"Ġpermission":7005,"ðŁĴĥ":7006,"omo":7007,"Ġbri":7008,"usive":7009,"noon":7010,"Ġhoa":7011,"Ġjokes":7012,"Ġobviously":7013,"mr":7014,"mus":7015,"Ġwalay":7016,"Ġwave":7017,"Ġconcert":7018,"Ġnarrative":7019,"Ġflag":7020,"Ġpuja":7021,"Ġdikhai":7022,"Ġganga":7023,"Ġsupporters":7024,"Ġromantic":7025,"Ġcriminal":7026,"Ġbanke":7027,"ĠNO":7028,"Ġaren":7029,"Ġupper":7030,"Ġdekhenge":7031,"Ġsunte":7032,"Ġstraight":7033,"Ġrally":7034,"Ġkiska":7035,"Ġdisrespect":7036,"Ġradhe":7037,"Ġbhare":7038,"âĺ¹":7039,"Ġnehru":7040,"rating":7041,"aster":7042,"sb":7043,"eno":7044,"Ġmatt":7045,"Ġkhata":7046,"Ġhojata":7047,"ĠCh":7048,"Ġtrolling":7049,"Ġsilent":7050,"Ġcrazy":7051,"sis":7052,"Ġrab":7053,"Ġengagement":7054,"Ġnayi":7055,"PM":7056,"bit":7057,"Ġdigital":7058,"Ġbehaviour":7059,"Ġsalo":7060,"Ġvirodh":7061,"Ġnaman":7062,"Ġkamal":7063,"Ġrace":7064,"Woh":7065,"Ġkarachi":7066,"Ġbahu":7067,"Ġtruly":7068,"Ġdain":7069,"Ġbahir":7070,"Ġliked":7071,"Ġimmedi":7072,"ĠRE":7073,"ðŁĺĽ":7074,"anies":7075,"Ġwaly":7076,"Ġelectric":7077,"Ġexchan":7078,"ĠðŁĴĸ":7079,"Ġprepar":7080,"kitna":7081,"haar":7082,"Ġprojects":7083,"Ġsele":7084,"ĠðŁĴĻ":7085,"Ġweird":7086,"Ġkhans":7087,"Ġâĺº":7088,"Ġpride":7089,"Ġmery":7090,"Ġtoler":7091,"Ġbasic":7092,"Ġspeaking":7093,"Ġtp":7094,"Ġkilling":7095,"DI":7096,"Di":7097,"pra":7098,"Ġani":7099,"sad":7100,"abi":7101,"Ġattemp":7102,"Ġkv":7103,"Ġmasti":7104,"uniya":7105,"Ġkardi":7106,"Ġconcept":7107,"Ġbadle":7108,"Ġaccident":7109,"lagta":7110,"AC":7111,"vered":7112,"ception":7113,"Thanks":7114,"ĠTak":7115,"Ġcheeze":7116,"Ġloge":7117,"usi":7118,"Ġrealise":7119,"Ġcreated":7120,"Ġnatak":7121,"Ġbewakoof":7122,"ĠX":7123,"lfriend":7124,"Ġwrna":7125,"tlb":7126,"Ġkoe":7127,"Ġloving":7128,"Ġpariv":7129,"tivate":7130,"Ġessay":7131,"Ġpersonally":7132,"Ġcontinu":7133,"Ġjr":7134,"ĠGhar":7135,"Ġtransfer":7136,"Ġhatred":7137,"Ġtitle":7138,"Ġsaint":7139,"Ġwoke":7140,"inated":7141,"Ġparta":7142,"Ġspend":7143,"Ġfantas":7144,"Ġkyonki":7145,"ĠSikh":7146,"Ġjabki":7147,"Ġcapital":7148,"Ġpattern":7149,"Ġcode":7150,"Ġcolor":7151,"Ġchoro":7152,"28":7153,"Ġfault":7154,"Ġextreme":7155,"aba":7156,"Ġgalt":7157,"atan":7158,"Ġfateh":7159,"Ġshetty":7160,"gra":7161,"Ġquick":7162,"Ġposts":7163,"apna":7164,"Ġxd":7165,"Ġavoid":7166,"Ġhockey":7167,"Ġcheating":7168,"Ġdoon":7169,"Ġ????":7170,"isse":7171,"Ġhongi":7172,"Ġsalam":7173,"Ġbachane":7174,"outh":7175,"Ġnov":7176,"arm":7177,"fr":7178,"Ġaani":7179,"ĠðŁ¤£ðŁ¤£ðŁ¤£ðŁ¤£":7180,"harm":7181,"ĠBang":7182,"Ġmachine":7183,"Ġtick":7184,"Ġbadhiya":7185,"Ġprab":7186,"word":7187,"Ġreveal":7188,"Ġpita":7189,"life":7190,"Ġbatane":7191,"Ġeast":7192,"Ġanno":7193,"Ġmaintain":7194,"Ġnikaal":7195,"Ġdhyaan":7196,"Ġsetting":7197,"Ġmaharashtra":7198,"Ġbanti":7199,"Ġlt":7200,"ws":7201,"llu":7202,"ysis":7203,"Ġstrategy":7204,"Now":7205,"Ġoxygen":7206,"Ġyours":7207,"Ġpolitician":7208,"iska":7209,"rite":7210,"Ġloud":7211,"Ġpraise":7212,"Ġsquad":7213,"ðŁķ":7214,"Ġgana":7215,"apni":7216,"Ġscared":7217,"Ġbard":7218,"ahle":7219,"ĠðŁ¥³":7220,"ĠKohli":7221,"Ġjaante":7222,"Ġtujhse":7223,"ĠðŁĸ":7224,"Ġdesc":7225,"Ġgaddar":7226,"Ġirritating":7227,"Ġpiece":7228,"Ġnt":7229,"Ġsunta":7230,"Ġ45":7231,"aaa":7232,"Ġcycle":7233,"Ġchinese":7234,"Ġkick":7235,"Ġachanak":7236,"Ġhello":7237,"Ġfriday":7238,"Ġimportance":7239,"Ġanni":7240,"olution":7241,"Ġuk":7242,"Ġmirchi":7243,"ĠShi":7244,"Ġasi":7245,"Ġmix":7246,"Ġtable":7247,"Ġrn":7248,"Ġexe":7249,"Ġpizza":7250,"Ġpurani":7251,"ĠRohit":7252,"Ġpane":7253,"Ġmaara":7254,"ĠAk":7255,"ossible":7256,"ĠðŁĶ¥ðŁĶ¥ðŁĶ¥":7257,"Ġnos":7258,"ðŁĺª":7259,"ĠðŁĺĽ":7260,"Ġkhilaaf":7261,"then":7262,"Ġasar":7263,"from":7264,"Ġjaunga":7265,"Ġmatlb":7266,"Ġtraffic":7267,"Ġfixed":7268,"El":7269,"Ġkarun":7270,"Ġkabir":7271,"Ġweb":7272,"Ġscreens":7273,"ĠYouTube":7274,"ady":7275,"Ġwhom":7276,"Ġwinds":7277,"Ġila":7278,"Ġpandemic":7279,"Li":7280,"Ġnikalo":7281,"Ġkadam":7282,"Ġtopi":7283,"Ġkak":7284,"Ġnatural":7285,"Tujhe":7286,"Ġbhejo":7287,"harge":7288,"vious":7289,"Ġpahuch":7290,"Ġassign":7291,"Ġadvert":7292,"ðŁĺŀ":7293,"fication":7294,"Ġequal":7295,"Ġgd":7296,"ites":7297,"Ġrecom":7298,"allu":7299,"Ġrelax":7300,"Ġzar":7301,"aza":7302,"Uske":7303,"Ġtonight":7304,"anti":7305,"Ġdoo":7306,"Ġprovid":7307,"laal":7308,"Ġprices":7309,"Ġjosh":7310,"Ġreasons":7311,"Ġsugges":7312,"rog":7313,"Ġbottom":7314,"ĠðŁĶ¥ðŁĶ¥":7315,"Ġflight":7316,"Ġartist":7317,"ika":7318,"bies":7319,"Ġgadha":7320,"Ġfly":7321,"Ġ56":7322,"macy":7323,"Ġjau":7324,"Ġchuti":7325,"pective":7326,"Ġstopped":7327,"Ġnaseeb":7328,"Ġakh":7329,"leted":7330,"Ohh":7331,"Ġyang":7332,"Ġdied":7333,"Ġammi":7334,"tweets":7335,"Ġabh":7336,"Ġpaaye":7337,"Ġvision":7338,"!?":7339,"Ġsadi":7340,"asa":7341,"Ġdekhkar":7342,"asure":7343,"Ġcompanies":7344,"US":7345,"ĠKash":7346,"Ġamerica":7347,"Ġpub":7348,"Ġghalat":7349,"Go":7350,"Ġfinale":7351,"Ġvai":7352,"Ġfill":7353,"waab":7354,"Ġrock":7355,"Ġnautanki":7356,"ĠTV":7357,"Ġfemin":7358,"Ġheav":7359,"Ġhuaa":7360,"Ġbash":7361,"Ġgale":7362,"Ġeveryday":7363,"ðŁĺ¹ðŁĺ¹":7364,"Ġghoom":7365,"ishment":7366,"Ġbic":7367,"Ġbrought":7368,"Ġdikhte":7369,"Ġvict":7370,"ours":7371,"ideo":7372,"Ġworkers":7373,"Ġvaha":7374,"Gu":7375,"Ġmill":7376,"Ġcalm":7377,"Ġredu":7378,"Ġnhii":7379,"ðŁĻĤðŁĻĤ":7380,"Ġafternoon":7381,"Ġakhir":7382,"Ġparh":7383,"waisi":7384,"Ġshor":7385,"hmm":7386,"Ġbaqi":7387,"Ġpaste":7388,"Ġevidence":7389,"Ġnone":7390,"Ġlegal":7391,"yahi":7392,"ptop":7393,"Ġlunga":7394,"Ġdaughter":7395,"Ġriz":7396,"05":7397,"agta":7398,"dik":7399,"Ġlaugh":7400,"âĿ¤âĿ¤âĿ¤âĿ¤":7401,"real":7402,"Ġintention":7403,"ĠðŁ¤¡":7404,"ĠVirat":7405,"ðŁ¥³ðŁ¥³":7406,"vis":7407,"Ġefforts":7408,"yas":7409,"36":7410,"Ne":7411,"Ġcontract":7412,"Ġfc":7413,"Ġphool":7414,"Ġnal":7415,"Ġsitting":7416,"Ġjub":7417,"Ġkiu":7418,"live":7419,"Ġmubarak":7420,"Pehle":7421,"Ġbun":7422,"Ġmanta":7423,"ĠUV":7424,"Ġindividual":7425,"Aisa":7426,"Ġkaraar":7427,"ĠAND":7428,"lege":7429,"Ġshak":7430,"ðŁĩµðŁĩ°":7431,"Ġstandard":7432,"Ġnis":7433,"Ġkrishna":7434,"Ġdekhlo":7435,"ĠEnglish":7436,"Ġhoi":7437,"Ġpehen":7438,"dis":7439,"wadi":7440,"Ġglobal":7441,"ĠðŁĴ¥":7442,"Ġrakhta":7443,"Ġcitizen":7444,"Ġmentality":7445,"Ġkaan":7446,"fil":7447,"urday":7448,"ĠðŁ¤©":7449,"Ġshahrukh":7450,"ĠðŁĩµðŁĩ°":7451,"gain":7452,"imran":7453,"Ġgawar":7454,"aryan":7455,"usand":7456,"Ġchances":7457,"Ġpayenge":7458,"Ġvah":7459,"Ġmentor":7460,"Ġholiday":7461,"Ġsuicide":7462,"Ġaug":7463,"liz":7464,"wale":7465,"Ġjhag":7466,"Ġmaze":7467,"Ġussi":7468,"Ġunderstanding":7469,"text":7470,"Ġeffort":7471,"Ġswag":7472,"____":7473,"Bc":7474,"Ġhonestly":7475,"Its":7476,"dh":7477,"Ġpus":7478,"fortable":7479,"ĠHota":7480,"Ġfile":7481,"Ġaacha":7482,"Ġrecently":7483,"Ġbnaya":7484,"Ġvalid":7485,"alian":7486,"Ġkept":7487,"ĠKHAN":7488,"Ġtaaki":7489,"Ġscheme":7490,"mari":7491,"Ġlikho":7492,"Ġfully":7493,"ĠAisa":7494,"Ġimm":7495,"Guru":7496,"Ġwak":7497,"Ġdee":7498,"Ġchocol":7499,"Ġ75":7500,"Ġbillion":7501,"Ġwebsite":7502,"ðŁ¤ŀ":7503,"oting":7504,"49":7505,"Ġuniverse":7506,"sos":7507,"Ġangry":7508,"ologi":7509,"congress":7510,"Ġmla":7511,"Ġflow":7512,"cour":7513,"aper":7514,"Ġkashi":7515,"Ġlagata":7516,"Ġtweeter":7517,"TH":7518,"ĠMr":7519,"Ġakki":7520,"Ġroads":7521,"Ġtrading":7522,"Ġtiger":7523,"Ġbheek":7524,"sho":7525,"hein":7526,"Ġtoi":7527,"Ġou":7528,"Ġcrow":7529,"Ġrecent":7530,"Ġpunjabi":7531,"modiji":7532,"Ġstruggle":7533,"Ġromance":7534,"Ġdit":7535,"Ġlovely":7536,"Ġdunya":7537,"Ġediting":7538,"Ġapnay":7539,"Ġrasta":7540,"nai":7541,"Ġgira":7542,"Ġanyways":7543,"Ġmug":7544,"Ġhack":7545,"Ġmanip":7546,"Ġinshallah":7547,"Ġfees":7548,"Ġlane":7549,"DS":7550,"Ġnom":7551,"itish":7552,"Ġlaye":7553,"Ġmouth":7554,"ĠLA":7555,"Ġkhrab":7556,"oooo":7557,"Ġschools":7558,"Ġdistrict":7559,"Ġtoile":7560,"ATIK":7561,"ðŁĺĶðŁĺĶ":7562,"ae":7563,"Ġshivi":7564,"jun":7565,"gur":7566,"Ġimpact":7567,"Ġsony":7568,"ĠðŁĺįðŁĺį":7569,"Ġdalal":7570,"Ġwinter":7571,"Ġdecided":7572,"Ġtalks":7573,"Ġcitizens":7574,"Ġkad":7575,"Ġkisano":7576,"bhaiya":7577,"pre":7578,"Ġguide":7579,"lix":7580,"waj":7581,"Ġjeene":7582,"ening":7583,"abh":7584,"ĠCH":7585,"ĠUni":7586,"Ġwonderful":7587,"pc":7588,"Ġbil":7589,"Ġchodo":7590,"Ġads":7591,"Ġfing":7592,"Ġfirse":7593,"Ġdikhe":7594,"Ġhogayi":7595,"Ġdrag":7596,"Ġsaja":7597,"Ġkaunsa":7598,"Ġbulaya":7599,"Ġmarta":7600,"ĠShri":7601,"Ġsawa":7602,"Ġ31":7603,"Ġjeetna":7604,"ĠPakistani":7605,"Ġwear":7606,"Ġposs":7607,"Ġnames":7608,"bir":7609,"Ġmort":7610,"Ġvan":7611,"Ġzealand":7612,"appu":7613,"Ġmaloom":7614,"dekho":7615,"Ġhindutva":7616,"Ġdikhti":7617,"Ġkhaas":7618,"ĠChan":7619,"Ġannouncement":7620,"Ġhoy":7621,"Ġwag":7622,"ukriya":7623,"Ġzim":7624,"Ġjio":7625,"Ġparticipate":7626,"ĠTha":7627,"wk":7628,"Ġkinda":7629,"ino":7630,"Ġdevi":7631,"Ġbadnam":7632,"Ġblah":7633,"Je":7634,"ðŁĺĴðŁĺĴ":7635,"Ġkapoor":7636,"Ġmission":7637,"48":7638,"Ġyan":7639,"Ġlagaye":7640,"bby":7641,"Ġkhaa":7642,"ĠðŁİī":7643,"Ġdepartment":7644,"Ġwise":7645,"Ġattra":7646,"Ġissi":7647,"hale":7648,"Ġpul":7649,"Ġrecommend":7650,"didate":7651,"Ġveri":7652,"Ġdheere":7653,"Ġlunch":7654,"keen":7655,"Ġchachi":7656,"Ġpag":7657,"Ġdefe":7658,"Ġjodi":7659,"Ġhmari":7660,"Ġ150":7661,"Ġbelongs":7662,"Ġjaya":7663,"Ġpercent":7664,"ĠNAHI":7665,"Ġsambha":7666,"Ġusa":7667,"gger":7668,"Ġtes":7669,"rica":7670,"ĠPak":7671,"Ġlagate":7672,"antly":7673,"ĠNishant":7674,"Ġsundar":7675,"Ġandolan":7676,"ĠPl":7677,"Ġpadti":7678,"Ġjoining":7679,"Ġroll":7680,"Ġkach":7681,"Ġfurther":7682,"versary":7683,"Ġsimply":7684,"Ġmudde":7685,"Ġsexy":7686,"Ġpehele":7687,"Ġaakhir":7688,"Ġlain":7689,"ĠAsim":7690,"Ġsky":7691,"best":7692,"thin":7693,"look":7694,"ðŁĳįðŁĳį":7695,"ande":7696,"Ġpowerful":7697,"Ġrude":7698,"Ġash":7699,"Ġstars":7700,"Ġarab":7701,"Ġafsana":7702,"uments":7703,"Ġmanager":7704,"oto":7705,"Ġrefund":7706,"Ġkun":7707,"Ġmonday":7708,"ressed":7709,"Ġjeena":7710,"Ġdekar":7711,"Ġresign":7712,"Ġgirlfriend":7713,"Ġbenefit":7714,"Ġreplace":7715,"ghanistan":7716,"Ġfixing":7717,"Ġresponsibility":7718,"Ġbje":7719,"Ġemer":7720,"keep":7721,"ola":7722,"ĠBHI":7723,"Ġsuddenly":7724,"Ġlgti":7725,"Ġbackground":7726,"Ġhumble":7727,"posed":7728,"Ġeverywhere":7729,"Ġexpectations":7730,"Ġkahenge":7731,"oster":7732,"ĠNi":7733,"Ġboyfriend":7734,"ðŁ¤®":7735,"Ġawaaz":7736,"Ġtickets":7737,"Ġ83":7738,"Ġjinhone":7739,"Ġayenge":7740,"fl":7741,"Ġkiski":7742,"LY":7743,"ĠSolar":7744,"cies":7745,"Ġchij":7746,"Ġbre":7747,"yaha":7748,"India":7749,"ĠFOR":7750,"Ġapplic":7751,"Imran":7752,"Ġbutter":7753,"Ġtight":7754,"Ġarri":7755,"Ġ95":7756,"Ġsinging":7757,"01":7758,"Ġadat":7759,"ĠPRATIK":7760,"yment":7761,"Ġprat":7762,"Ġlaptop":7763,"Ġpaar":7764,"Ġdefaming":7765,"ðŁĶª":7766,"niti":7767,"aray":7768,"Ġmilke":7769,"Ġsite":7770,"Ġkren":7771,"ghter":7772,"Ġlikhte":7773,"adar":7774,"Ġgrowth":7775,"Ġsmo":7776,"also":7777,"Ġkarra":7778,"Ġâľħ":7779,"Que":7780,"Ġburai":7781,"Kaise":7782,"pta":7783,"legal":7784,"Ġwhether":7785,"Ġney":7786,"ĠðŁĺĵ":7787,"Ġsharing":7788,"Ġsoldi":7789,"Ġbethe":7790,"astar":7791,"ugur":7792,"Ġbreakup":7793,"Ġiq":7794,"Ġager":7795,"Ġindex":7796,"rible":7797,"ended":7798,"Ġ2018":7799,"VER":7800,"ĠThere":7801,"Ġmature":7802,"board":7803,"vation":7804,"ĠNahin":7805,"Ja":7806,"ðŁ¦":7807,"Ġkeya":7808,"Ġtarike":7809,"ĠSirf":7810,"eh":7811,"Ġami":7812,"Ġdepression":7813,"Ġblocked":7814,"Ġsanghi":7815,"Ġgoa":7816,"Ġbanata":7817,"Ġguaran":7818,"eness":7819,"ĠðŁĺħðŁĺħ":7820,"ĠShah":7821,"Ġlahore":7822,"Ġinfr":7823,"Ġast":7824,"Ġgee":7825,"Ġcandidate":7826,"Ġhuya":7827,"ðŁĺ±":7828,"Ġmoon":7829,"Ġhoney":7830,"OTA":7831,"Ġkarege":7832,"ĠðŁĺģðŁĺģ":7833,"Ġthousand":7834,"ĠJay":7835,"Ġladkiya":7836,"sal":7837,"Ġpump":7838,"Ġworse":7839,"entle":7840,"Ġrhega":7841,"ĠAS":7842,"Ġsecularism":7843,"stan":7844,"Ġtoda":7845,"Ġug":7846,"ghar":7847,"ĠAB":7848,"shah":7849,"mark":7850,"Ġyun":7851,"Ġbadnaam":7852,"Ġdoosre":7853,"Ġearlier":7854,"onment":7855,"UP":7856,"Ġyarr":7857,"Ġwarrior":7858,"Ġprem":7859,"Pata":7860,"Some":7861,"god":7862,"asim":7863,"Ġchez":7864,"esting":7865,"Ġuff":7866,"Ġakhilesh":7867,"Ġmins":7868,"Ġrhta":7869,"Ġtout":7870,"Ġfour":7871,"Ġselection":7872,"kaan":7873,"Ġsnake":7874,"Ġzaruri":7875,"Ġagli":7876,"Ġharm":7877,"ðŁĳĪ":7878,"Ġpermanent":7879,"Ġvil":7880,"ĠBE":7881,"ĠSp":7882,"Ġbann":7883,"Ġbear":7884,"Ġbhagwaan":7885,"ðŁĳĩðŁĳĩ":7886,"Ġburn":7887,"Ġispe":7888,"Ġlegi":7889,"Ġmoti":7890,"Ba":7891,"mene":7892,"usko":7893,"olitic":7894,"Ġservices":7895,"Ġprofessional":7896,"Ġlearning":7897,"Ġrashid":7898,"Ġholy":7899,"ĠChina":7900,"Ġplot":7901,"Ġsupre":7902,"Ġsatis":7903,"gastar":7904,"veni":7905,"ðŁĩ®ðŁĩ³ðŁĩ®ðŁĩ³":7906,"Ġvillage":7907,"Sorry":7908,"Ġiphone":7909,"Ġtik":7910,"case":7911,"hadi":7912,"Ġase":7913,"Ġlee":7914,"Ġfla":7915,"Ġmaare":7916,"Ġcringe":7917,"Yar":7918,"Ġkata":7919,"ĠVIP":7920,"Ġmanga":7921,"Ġanalysis":7922,"Ġlaa":7923,"Ġneutral":7924,"Ġwake":7925,"Ġwins":7926,"Ġhall":7927,"Ġaaram":7928,"App":7929,"ðŁĻıðŁĻıðŁĻıðŁĻı":7930,"Ġtarif":7931,"Ġmane":7932,"Ġgym":7933,"lines":7934,"***":7935,"Ġrum":7936,"ðŁĺĵ":7937,"Ġice":7938,"Ġspecific":7939,"unke":7940,"Ġzor":7941,"Ġphase":7942,"Ġswear":7943,"ĠðŁİĤ":7944,"Ġkarain":7945,"Ġasal":7946,"Ġminority":7947,"Ġislamic":7948,"urya":7949,"Ġunhi":7950,"put":7951,"Ġinvolved":7952,"Ġvacancy":7953,"Ġbalki":7954,"Ġdubai":7955,"Ġdewp":7956,"jaise":7957,"Ġglass":7958,"Ġobsessed":7959,"Ġfamilies":7960,"Ġbtaya":7961,"ĠBhar":7962,"have":7963,"iden":7964,"him":7965,"Ġlies":7966,"ides":7967,"Ġmanage":7968,"Ġtown":7969,"Ġankh":7970,"Ġkrip":7971,"late":7972,"Ġgaa":7973,"Ġopposite":7974,"amir":7975,"ĠSH":7976,"Ġmillions":7977,"ĠKhud":7978,"Ġproved":7979,"humar":7980,"Ġ2000":7981,"Ġlein":7982,"mple":7983,"Ġkhalistan":7984,"ulad":7985,"Ġbully":7986,"Ġreject":7987,"Ġweight":7988,"Ġpurpose":7989,"Ġobc":7990,"Ġgaon":7991,"Ġpartic":7992,"Ġkissi":7993,"Ġnikalne":7994,"Ġcircle":7995,"Ġfol":7996,"Ġjain":7997,"tics":7998,"ican":7999,"Ġmaterial":8000,"Ġunne":8001,"itions":8002,"wala":8003,"Ġshopping":8004,"ĠðŁĺ¥":8005,"ardar":8006,"lights":8007,"Ġlaun":8008,"Ġpatience":8009,"Ġpitch":8010,"Ġsunny":8011,"Ġgau":8012,"aniyat":8013,"Ġdat":8014,"Ġknowing":8015,"Ġvaccination":8016,"Ġkidhar":8017,"Ġinnings":8018,"Ġjama":8019,"Ġsachi":8020,"Ġbanake":8021,"ĠMatlab":8022,"All":8023,"Ġhil":8024,"Ġguil":8025,"ruction":8026,"Ġhmara":8027,"Ġkush":8028,"ĠðŁĺ¶":8029,"Ġric":8030,"urav":8031,"Ġupon":8032,"ĠEven":8033,"dra":8034,"Ġzal":8035,"Ġgender":8036,"Ġpresence":8037,"Ġbhat":8038,"osi":8039,"Ġcondu":8040,"IG":8041,"Ġaakar":8042,"Ġprevious":8043,"Ġdirectly":8044,"Ġdunia":8045,"Ġdalo":8046,"Ġsafar":8047,"flix":8048,"icial":8049,"mme":8050,"Ġjind":8051,"Ġpack":8052,"Ġjohn":8053,"Ġ33":8054,"will":8055,"Ġactions":8056,"aries":8057,"Ġaffect":8058,"ðŁ¥°ðŁ¥°":8059,"ĠTE":8060,"Ġalive":8061,"Arre":8062,"Ġbnda":8063,"Ġtrh":8064,"Ġfame":8065,"Ġven":8066,"Ġzone":8067,"Ġspelling":8068,"Ġprefer":8069,"Ġrange":8070,"Bo":8071,"ION":8072,"Umar":8073,"soci":8074,"ĠHindus":8075,"ĠNhi":8076,"Ġpuchna":8077,"For":8078,"Ġmerko":8079,"Ġintezar":8080,"Ġdisappointed":8081,"Ġharyana":8082,"Ġpool":8083,"Ġraise":8084,"'.":8085,"ĠMil":8086,"Ġtalented":8087,"sw":8088,"Ġdeserving":8089,"Ġshabd":8090,"ĠKis":8091,"Ġposted":8092,"Ġdubara":8093,"ĠSS":8094,"Ġworship":8095,"Ġladkiyo":8096,"Ġkin":8097,"ining":8098,"asta":8099,"Ġdivor":8100,"Ġsector":8101,"Ġsikhaya":8102,"Ġbiryani":8103,"Ġschedu":8104,"Ġlgi":8105,"Ġameen":8106,"Ġinaugur":8107,"Ġexchange":8108,"Ġbahan":8109,"Ġjaag":8110,"ĠBha":8111,"astha":8112,"ðŁĺĿðŁĺĿ":8113,"Bi":8114,"Ġbound":8115,"Ġrupees":8116,"Ġapart":8117,"Ġimpossible":8118,"Wow":8119,"Ġcul":8120,"cken":8121,"ĠWaise":8122,"ĠUN":8123,"uff":8124,"Ġwash":8125,"Ġcommission":8126,"Ġhoraha":8127,"istration":8128,"Ġshiva":8129,"Ġcelebration":8130,"rote":8131,"ĠYogi":8132,"Ġcb":8133,"Ġfinish":8134,"Ġterrorists":8135,"Ġinvestment":8136,"ighb":8137,"Ġfresh":8138,"Ġbhakti":8139,".?":8140,"days":8141,"Â©Â©":8142,"Ġtrah":8143,"Ġnaraz":8144,"Ġrealize":8145,"Ġcrackers":8146,"ĠðŁĴľ":8147,"Ġander":8148,"Ġpublicity":8149,"Ġpadhna":8150,"Ġuv":8151,"Ġvichar":8152,"Ġaulad":8153,"Ġunited":8154,"ĠSHA":8155,"Ġbhad":8156,"ĠYour":8157,"Ġmusk":8158,"Ġheavy":8159,"Ġjump":8160,"Pakistan":8161,"Ġafford":8162,"sec":8163,"Ġplaces":8164,"Ġfinancial":8165,"Ġhrs":8166,"Ġinsa":8167,"Ġsig":8168,"box":8169,"ERS":8170,"Ġsune":8171,"ĠKashmir":8172,"Ġsupremacy":8173,"Ġgentle":8174,"Ġherself":8175,"aly":8176,"heart":8177,"Ġjayada":8178,"Ġfeat":8179,"Ġjaty":8180,"Ġimple":8181,"Ġpathetic":8182,"Ġcares":8183,"mplo":8184,"Ġsakh":8185,"Ġvalo":8186,"Ġgolden":8187,"Ġspiritual":8188,"Ġbehn":8189,"Ġmarketing":8190,"ĠBan":8191,"Ġ98":8192,"ĠðŁ¥ºðŁ¥º":8193,"Ġpras":8194,"Ġdemands":8195,"Ġolympics":8196,"gin":8197,"ĠKyu":8198,"34":8199,"Ġtata":8200,"Ġyea":8201,"ships":8202,"ðŁ¤ŃðŁ¤Ń":8203,"uted":8204,"Ġaud":8205,"Ġchura":8206,"Ġsarcas":8207,"Ġstarts":8208,"breakable":8209,"Ġodi":8210,"Ġsize":8211,"Ġpehchan":8212,"Ġfer":8213,"ĠPa":8214,"Ġenter":8215,"ĠKaun":8216,"Ġparivar":8217,"ĠCr":8218,"Ġbijli":8219,"Ġlan":8220,"Ġtired":8221,"31":8222,"Ġrac":8223,"Ġretain":8224,"ĠðŁķ":8225,"ĠAks":8226,"Ġpakda":8227,"Ġideas":8228,"ription":8229,"ladesh":8230,"ĠðŁĺĤðŁĺŃ":8231,"Ġpadho":8232,"hope":8233,"Ġgaadi":8234,"Ġunique":8235,"Ġpers":8236,"Ġupset":8237,"Ġjanab":8238,"Ġfaisla":8239,"make":8240,"Ġsupply":8241,"Ġ2017":8242,"Ġbadly":8243,"ĠWor":8244,"Ġhamne":8245,"undred":8246,"Ġrefer":8247,"Ġsupported":8248,"Ġforces":8249,"Ġcontext":8250,"Ġorgani":8251,"ĠTL":8252,"Ġcirc":8253,"ĠDO":8254,"ĠDekh":8255,"acche":8256,"Ġkno":8257,"ĠðŁĺł":8258,"ulm":8259,"Ġchannels":8260,"Ġjindagi":8261,"sey":8262,"Ġmultiple":8263,"Ġlikhi":8264,"iry":8265,"Ġ400":8266,"Ġameer":8267,"En":8268,"pass":8269,"Ġkisine":8270,"raphy":8271,"Ġsharif":8272,"kate":8273,"Ġlekr":8274,"ober":8275,"erve":8276,"Ġdeew":8277,"Ġbroken":8278,"Ġpatri":8279,"Ġearn":8280,"?????":8281,"obs":8282,"Ġkarty":8283,"Ġemail":8284,"wana":8285,"Ġjankari":8286,"Ġkud":8287,"Ġsabne":8288,"Ġanniversary":8289,"Ġunn":8290,"Ġeducated":8291,"Ġnih":8292,"Ġbigboss":8293,"Ġslowly":8294,"miss":8295,"fortunately":8296,"Ġkhara":8297,"timate":8298,"ðŁĺĬðŁĺĬ":8299,"Ġpeak":8300,"ĠCho":8301,"Ġsupposed":8302,"Ġchehra":8303,"Ġchanges":8304,"Ġinvestigation":8305,"ĠAAP":8306,"Ġshameless":8307,"ummy":8308,"Ġiste":8309,"Ġparticular":8310,"Ġconfusion":8311,"UE":8312,"hary":8313,"Ġdhi":8314,"Ġworked":8315,"Ġdoston":8316,"zer":8317,"Ġsinger":8318,"Ġturned":8319,"Ġjannat":8320,"Ġrecharge":8321,"Ġstick":8322,"Ġdikhaye":8323,"Ġfaila":8324,"Ġhehe":8325,"Ġregret":8326,"Ġaq":8327,"Ġladko":8328,"Ġselfish":8329,"Ġplans":8330,"uber":8331,"fits":8332,"Ġunbreakable":8333,"Ġdikhega":8334,"Ġbowlers":8335,"Ġfu":8336,"Ġaamir":8337,"Ġpdta":8338,"hain":8339,"max":8340,"Ġhurts":8341,"Ġbigger":8342,"sk":8343,"Ġdaar":8344,"once":8345,"abus":8346,"Ġwouldn":8347,"Ġappo":8348,"vironment":8349,"Ġsepar":8350,"Ġtechnology":8351,"Ġchaye":8352,"Ġacade":8353,"Ġgujarat":8354,"NE":8355,"jin":8356,"Ġjaayenge":8357,"Ġnibha":8358,"cia":8359,"Ġflat":8360,"Ġinvite":8361,"Ġdisturb":8362,"Ġpyari":8363,"itary":8364,"sib":8365,"standing":8366,"Ġnishu":8367,"Ġkripya":8368,"Kyu":8369,"dom":8370,"Ġsawaal":8371,"03":8372,"Ġbhaga":8373,"Ġintezaar":8374,"Ġpatel":8375,"UL":8376,"Ġiz":8377,"Ġbrothers":8378,"pati":8379,"Teja":8380,"IAZ":8381,"pak":8382,"Ġdrink":8383,"Ġfailure":8384,"Well":8385,"Ġtoilet":8386,"Ġgor":8387,"Ġyall":8388,"Ġain":8389,"Ġzub":8390,"Ġadh":8391,"Ġvishwas":8392,"ĠRIAZ":8393,"ðŁĴļ":8394,"ĠEn":8395,"Ġesta":8396,"dono":8397,"Ġyakeen":8398,"ĠBen":8399,"ĠAlso":8400,"vey":8401,"ĠKE":8402,"many":8403,"Ġcrores":8404,"Kh":8405,"inter":8406,"Ġhahahaha":8407,"Ġvese":8408,"ento":8409,"ĠPat":8410,"Ġ37":8411,"ĠWhen":8412,"Ġtrends":8413,"Ġbachhe":8414,"ðŁļ¶":8415,"Ġiti":8416,"Ġpow":8417,"ĠTR":8418,"Ġraste":8419,"Ġaagaya":8420,"Ġ32":8421,"Ġillegal":8422,"rt":8423,"Ġhare":8424,"Ġroop":8425,"ĠPehle":8426,"pos":8427,"Ġharkat":8428,"ðŁ¤¦âĢįâĻĢï¸ı":8429,"Ġshams":8430,"Ġgadi":8431,"Ġchaa":8432,"Ġazadi":8433,"Ġreleased":8434,"Ġpark":8435,"Ġkewal":8436,"nath":8437,"Ġasse":8438,"Ġfive":8439,"spir":8440,"cellent":8441,"kit":8442,"Ġkesa":8443,"Ġpk":8444,"ĠThanks":8445,"Ġblast":8446,"Ġfort":8447,"Ġagent":8448,"Ġteaching":8449,"Ġimmediately":8450,"den":8451,"Ġneighb":8452,"maal":8453,"Ġdhoond":8454,"Jis":8455,"Ġjani":8456,"Ġsanam":8457,"Ġabbu":8458,"baki":8459,"Ġaor":8460,"Ġdeliver":8461,"Ġelim":8462,"HAT":8463,"Bs":8464,"Ġways":8465,"Ġwearing":8466,"cias":8467,"Ġpehlay":8468,"Ġlocation":8469,"ĠTeri":8470,"Ġlosing":8471,"EST":8472,"Ġhou":8473,"gaar":8474,"Ġexistence":8475,"Ġbatein":8476,"ĠBollywood":8477,"Ġbis":8478,"Ġcrash":8479,"Ġinspiration":8480,"Ġkg":8481,"Ġnawab":8482,"Ġgap":8483,"ĠHis":8484,"ĠRA":8485,"kaha":8486,"ðŁ¥´":8487,"PL":8488,"ðŁĺķ":8489,"llabus":8490,"Ġlai":8491,"okes":8492,"Ġrajniti":8493,"neeti":8494,"YE":8495,"Ġlover":8496,"Ġoptions":8497,"die":8498,"Ġportray":8499,"Ġmega":8500,"Ġpac":8501,"Ġheight":8502,"Ġstats":8503,"Ġvin":8504,"Ġbaaton":8505,"ishra":8506,"Ġcinema":8507,"Ġkhao":8508,"ĠOne":8509,"Ġoo":8510,"Ġident":8511,"Ġconfuse":8512,"Ġbhoot":8513,"Ġmme":8514,"Ġdomin":8515,"boy":8516,"Ġpariwar":8517,"Ġcmo":8518,"Ġrare":8519,"Ġasif":8520,"Ġgarden":8521,"Ġmail":8522,"ĠWE":8523,"âĿĵ":8524,"Ġvapas":8525,"altu":8526,"ĠGovt":8527,"Ġjari":8528,"Inke":8529,"dha":8530,"oper":8531,"Ġrecords":8532,"roke":8533,"Ġtweeting":8534,"ouble":8535,"ĠBhag":8536,"ĠPrime":8537,"magine":8538,"Ġmujhko":8539,"buster":8540,"Ġanj":8541,"ĠBaat":8542,"Ġgak":8543,"icky":8544,"urope":8545,"Ġpaap":8546,"Ġpapers":8547,"ĠDiya":8548,"Ġlooked":8549,"Ġchha":8550,"eraj":8551,"Ġdukan":8552,"-&":8553,"rated":8554,"spe":8555,"Ġjesi":8556,"Ġcousin":8557,"Ġfacebook":8558,"84":8559,"akta":8560,"ĠTime":8561,"Ġprogress":8562,"illiant":8563,"Ġjhel":8564,"Ġadani":8565,"Ġdespite":8566,"pad":8567,"waah":8568,"Ġzaleel":8569,"Ġroka":8570,"ĠEvery":8571,"Ġending":8572,"Ġmindset":8573,"Ġvictory":8574,"Ġsnow":8575,"Ġcos":8576,"urr":8577,"Ġmarch":8578,"Ġdesi":8579,"500":8580,"uman":8581,"Ġcharacters":8582,"Ġgin":8583,"Ġasha":8584,"Ġshout":8585,"Ġtereko":8586,"Ġmemories":8587,"Karan":8588,"dm":8589,"Ġwhenever":8590,"UCH":8591,"Ġbaarish":8592,"Ġohh":8593,"oser":8594,"Ġnir":8595,"ĠAre":8596,"Ġkatrina":8597,"Ġseem":8598,"Ġkerna":8599,"Ġsuperstar":8600,"Ġdivya":8601,"There":8602,"zindagi":8603,"Ġstreet":8604,"ĠHy":8605,"Ġamma":8606,"Ġexcuse":8607,"ĠAmer":8608,"Ġposting":8609,"Ġanxi":8610,"maj":8611,"Ġterrorism":8612,"Ġbrahmin":8613,"Ġhissa":8614,"Ġvaar":8615,"jjat":8616,"fast":8617,"kl":8618,"Ġkbi":8619,"Ġsuni":8620,"Abey":8621,"Ġcivil":8622,"Ġtbhi":8623,"Ġkarane":8624,"gel":8625,"too":8626,"Ġansw":8627,"Ġpatakhe":8628,"mant":8629,"ĠKia":8630,"Ġindirect":8631,"Ġawards":8632,"Ġkand":8633,"daar":8634,"Ġshooting":8635,"mood":8636,"isme":8637,"Ġrag":8638,"ushant":8639,"Ġoften":8640,"Ġjihad":8641,"Ġutni":8642,"panch":8643,"Chalo":8644,"didi":8645,"Ġtips":8646,"ðŁ¤ĹðŁ¤Ĺ":8647,"block":8648,"Ġsena":8649,"ĠGen":8650,"Ġafgan":8651,"Ġsenti":8652,"asion":8653,"Ġchur":8654,"Ġmarry":8655,"Ġsold":8656,"Ġladies":8657,"Ġkregi":8658,"Ġnikalna":8659,"Ġvhi":8660,"Ġcovid":8661,"Kisi":8662,"Ġlower":8663,"Ġreels":8664,"Ġenvironment":8665,"Ġpotential":8666,"Ġmanipul":8667,"Ġpc":8668,"ĠLet":8669,"Ġlagegi":8670,"Ġsounds":8671,"Ġkripa":8672,"Ġkhule":8673,"aib":8674,"Ġballs":8675,"Ġgn":8676,"ĠðŁ¤ª":8677,"ĠSP":8678,"Ġchalane":8679,"Ġguz":8680,"erry":8681,"alu":8682,"alat":8683,"Ġjawan":8684,"Ġambani":8685,"Kaun":8686,"GA":8687,"onal":8688,"ples":8689,"Ġchocolate":8690,"Ġnagar":8691,"Ġfigure":8692,"dians":8693,"Guys":8694,"Ġdari":8695,"Ġinch":8696,"aman":8697,"Ġfunction":8698,"Ġbtana":8699,"Ġdangerous":8700,"ui":8701,"Ġhogyi":8702,"lor":8703,"Ġsea":8704,"riya":8705,"Ġaggressive":8706,"Ġladkiyon":8707,"Ġtorture":8708,"Ġqualify":8709,"ires":8710,"Ġholding":8711,"Ġinches":8712,"Ġzyaada":8713,"Ġqki":8714,"Jai":8715,"Ġcounter":8716,"mean":8717,"Ġunless":8718,"Ġsport":8719,"azi":8720,"SP":8721,"ðŁ¥Ģ":8722,"fty":8723,"Ġwrote":8724,"Ġdirty":8725,"Ġjita":8726,"Ġdefence":8727,"Ġsnap":8728,"Ġhigher":8729,"Ġcontro":8730,"ows":8731,"ĠDIL":8732,"mc":8733,"Ġconver":8734,"Ġdharma":8735,"Ġaraha":8736,"Ġiconic":8737,"roll":8738,"Ġrespond":8739,"Ġsurg":8740,"Ġkhiladi":8741,"sat":8742,"Ġidentity":8743,"Ġbolegi":8744,"Ġsah":8745,"Ġepi":8746,"Ġinflation":8747,"Ġemployees":8748,"Ġteach":8749,"Ġsolos":8750,"Bahut":8751,"Log":8752,"dont":8753,"Ġhmm":8754,"Ġanuj":8755,"Ġbarish":8756,"Ġhotel":8757,"Ġgaram":8758,"Ġhundred":8759,"Ġitv":8760,"Ġtika":8761,"actually":8762,"Hawa":8763,"point":8764,"aapko":8765,"AYA":8766,"Ġmovement":8767,"Ġari":8768,"Ġsikho":8769,"Ġbasically":8770,"Ġfollowed":8771,"Ġrhte":8772,"Ġthapp":8773,"Ġsalute":8774,"Ġsuar":8775,"Ġovers":8776,"Ġauto":8777,"Wah":8778,"oda":8779,"Ġbitch":8780,"Ġpending":8781,"Ġcloudy":8782,"Love":8783,"ðŁĴĵ":8784,"Ġstrict":8785,"âĻ¥âĻ¥":8786,"Ġnind":8787,"Ġhazar":8788,"Ġspam":8789,"Hey":8790,"Ġghat":8791,"02":8792,"hesh":8793,"ĠAm":8794,"Ġcrowd":8795,"ier":8796,"Ġsau":8797,"Ġstore":8798,"Ġmahadev":8799,"Ġdhamki":8800,"wani":8801,"Ġchapp":8802,"Ġdoob":8803,"ĠMP":8804,"Kab":8805,"sure":8806,"Ġ55":8807,"match":8808,"Hello":8809,"Ġcorner":8810,"ðŁĺ£":8811,"Ġnakli":8812,"Ġjaanta":8813,"Ġharkate":8814,"ðŁĺıðŁĺı":8815,"Ġldki":8816,"ĠHappy":8817,"Ġilawa":8818,"Ġcongrats":8819,"Ġcricketer":8820,"Ġjor":8821,"Ġummid":8822,"delhi":8823,"Ġkesi":8824,"Ġord":8825,"ĠBA":8826,"Ġsyllabus":8827,"Ġsurprised":8828,"Ġjayen":8829,"ĠMaharaj":8830,"ICE":8831,"Ġtree":8832,"Ġsaving":8833,"Ġidiots":8834,"Ġshown":8835,"vernment":8836,"Ġspreading":8837,"hne":8838,"Ġloon":8839,"ĠCor":8840,"Ġpandit":8841,"ading":8842,"akhand":8843,"hram":8844,"Ġclot":8845,"Ġnyay":8846,"Ġbaato":8847,"Ġkonse":8848,"Ġlaat":8849,"Ġbashing":8850,"04":8851,"lack":8852,"Ġdelay":8853,"ĠNaam":8854,"Ġhide":8855,"Ġkhatre":8856,"great":8857,"yd":8858,"Ġvida":8859,"Ġlack":8860,"Ġ()":8861,"Ġshouldn":8862,",,,,":8863,"ux":8864,"Ġchalne":8865,"Ġ72":8866,"Ġdede":8867,"Ġhassan":8868,"Ġdikhata":8869,"Ġkaand":8870,"...?":8871,"Ġsaman":8872,"ĠWho":8873,"Ġideology":8874,"finally":8875,"rem":8876,"Ġaagya":8877,"Ġpichhe":8878,"vit":8879,"Ġloose":8880,"Ġpaoge":8881,"Ġupdates":8882,"ukar":8883,"Ġjuda":8884,"Ġmodern":8885,"hun":8886,"Ġcream":8887,"Ġjhumar":8888,"Ġbathroom":8889,"bhar":8890,"ridi":8891,"Ġghamand":8892,"Com":8893,"Ġfaire":8894,"Ġstrongest":8895,"Ġincom":8896,"Ġhaat":8897,"Ġkaray":8898,"Ġamo":8899,"tumhare":8900,"next":8901,"Ġijjat":8902,"Ġturant":8903,"Ġestabl":8904,"Ġhearing":8905,"Ġputting":8906,"Ġmentally":8907,"these":8908,"Ġaware":8909,"isliye":8910,"Ġidhr":8911,"itya":8912,"ĠSat":8913,"Ġcaption":8914,"Ġkhusi":8915,"though":8916,"Ġjoy":8917,"Ġobserv":8918,"Ġdivorce":8919,"Ġmacha":8920,"ĠCo":8921,"Ġ34":8922,"Ġmakeup":8923,"Ġphysics":8924,"ĠðŁĺ£":8925,"ĠKAB":8926,"aik":8927,"Ġreplied":8928,"Ġtejas":8929,"ĠðŁĻĦðŁĻĦ":8930,"Ġpatient":8931,"Ġtun":8932,"Ġstanding":8933,"Ġdor":8934,"Ġwes":8935,"Ġkhudko":8936,"ĠðŁĮĿ":8937,"Vo":8938,"des":8939,"ĠKap":8940,"ĠID":8941,"Ġagaya":8942,"itivity":8943,"Ġcutie":8944,"Ġbought":8945,"Ġafsos":8946,"padh":8947,"ushal":8948,"Ġusual":8949,"Ġchalna":8950,"Ġdestroy":8951,"Ġtheatre":8952,"75":8953,"Ġkaash":8954,"Ġhea":8955,"Ġ93":8956,"Ġsaans":8957,"Ġmaaro":8958,"ĠðŁĳĳ":8959,"bur":8960,"Ġkali":8961,"uska":8962,"Ġmirror":8963,"gill":8964,"Ġdill":8965,"ðŁĸ¤":8966,"wait":8967,"Ġbree":8968,"Ġunity":8969,"Ġpahu":8970,"Ġdesper":8971,"bin":8972,"ators":8973,"Ġmetro":8974,"fice":8975,"Ġhase":8976,"ĠLiye":8977,"Ġnashe":8978,"ĠTujhe":8979,"Ġterms":8980,"Ġsentence":8981,"Ġwt":8982,"astic":8983,"upta":8984,"arachi":8985,"Ġlips":8986,"illion":8987,"Ġowner":8988,"âļ":8989,"Ġtheory":8990,"Ġselling":8991,"ĠMon":8992,"Ġshall":8993,"Ġfran":8994,"Ġjinhe":8995,"Ġkashmiri":8996,"sr":8997,"ĠBaki":8998,"Ġattempt":8999,"Ġintelligent":9000,"full":9001,"Ġaccess":9002,"Ġuser":9003,"rovert":9004,"Ġkeeping":9005,"Ġliy":9006,"Ġbreaking":9007,"Ġsmjha":9008,"Ġapologi":9009,"stood":9010,"Ġchicken":9011,"Ġleaving":9012,"Ġlynching":9013,"Ġgoals":9014,"ĠOf":9015,"Ġrahna":9016,"Ġsafety":9017,"uma":9018,"!!!!!":9019,"Ġkharcha":9020,"Ġkhoob":9021,"Ġudd":9022,"Ġachievement":9023,"38":9024,"zing":9025,"Ġmange":9026,"Ġintrodu":9027,"Ġsor":9028,"Ġupr":9029,"Ġannoying":9030,"seriously":9031,"orable":9032,"Ġfati":9033,"lee":9034,"ĠAny":9035,"Ġbhu":9036,"ĠâľĮ":9037,"Ġassoci":9038,"ĠðŁĳİ":9039,"Ġformer":9040,"Ġachy":9041,"Ġofficers":9042,"06":9043,"ĠKat":9044,"Ġmedicine":9045,"Ġlone":9046,"Ġradi":9047,"Ġkisaan":9048,"Ġmarr":9049,"Ġjayda":9050,"Ġflirt":9051,"Ġusually":9052,"Ġplays":9053,"arian":9054,"free":9055,"oon":9056,"ĠHindi":9057,"Ġcru":9058,"Ġopinions":9059,"ĠNews":9060,"Ġindependence":9061,"ĠhPa":9062,"rahul":9063,"Ġboliye":9064,"itional":9065,"Ġmagic":9066,"Ġhh":9067,"Ġpod":9068,"Ġkartay":9069,"Ġsolar":9070,"Ġstreaming":9071,"Ġbecomes":9072,"Ġbecoming":9073,"Ġchalana":9074,"Tho":9075,"Ġhinduon":9076,"Ġrahne":9077,"Ġyuva":9078,"Ġbhaut":9079,"Ġusey":9080,"Ġprecious":9081,"Ġhypocrite":9082,"andar":9083,"Ġ48":9084,"Ġchupa":9085,"Ġtt":9086,"Ġdamage":9087,"gali":9088,"really":9089,"Ġkhaye":9090,"Ġladne":9091,"Ġjaenge":9092,"Ġmotivation":9093,"yn":9094,"iske":9095,"Ġdwara":9096,"Ġchalegi":9097,"Ġselfie":9098,"Ġbuying":9099,"anak":9100,"Ġmos":9101,"Ġwitness":9102,"Ġfed":9103,"itement":9104,"aww":9105,"Ġskip":9106,"May":9107,"Ġchhor":9108,"Ġrajya":9109,":)":9110,"Who":9111,"Ġsaved":9112,"takes":9113,"idge":9114,"jao":9115,"Ġcris":9116,"Ġkeeps":9117,"ðŁ¤¦âĢįâĻĤï¸ı":9118,"ĠMuslims":9119,"Ġkii":9120,"chon":9121,"Ġforced":9122,"Ġwhose":9123,"ekho":9124,"Ġupcoming":9125,"Ġcomplex":9126,"Ġ85":9127,"Ġjasmin":9128,"ðŁĺ¶":9129,"Ġeating":9130,"Ġfunding":9131,"Ġtip":9132,"Ġschedule":9133,"ĠEK":9134,"hamare":9135,"estic":9136,"Ġjali":9137,"Ġnaag":9138,"Ġanchor":9139,"ðŁ¤¨":9140,"Ġexposed":9141,"kout":9142,"ĠVi":9143,"shamita":9144,"Ġsurr":9145,"Ġchappal":9146,"mos":9147,"anga":9148,"orat":9149,"Ġkadar":9150,"Ġrahey":9151,"Ġbahana":9152,"Ġgala":9153,"heer":9154,"Ġsardi":9155,"Ġbreeze":9156,"Ra":9157,"Ġjaayegi":9158,"Ġchristian":9159,"Ġod":9160,"Ġeverytime":9161,"because":9162,"Ġfikar":9163,"non":9164,"Ġration":9165,"Ġhopefully":9166,"ĠGu":9167,"Ġpup":9168,"atch":9169,"Ġtex":9170,"Ġchh":9171,"Ġrelatives":9172,"Ġ___":9173,"Ġspirit":9174,"Ġreceived":9175,"Ġmuskil":9176,"Itni":9177,"Ġbuilt":9178,"Hind":9179,"Iss":9180,"Twitter":9181,"Ġapun":9182,"undo":9183,"vaar":9184,"Ġlamba":9185,"gari":9186,"pic":9187,"Ġgate":9188,"Ġsahara":9189,"Ġajay":9190,"ĠSal":9191,"Tumhe":9192,"Ġvaccinated":9193,"final":9194,"kidar":9195,"Ġvm":9196,"Ġheld":9197,"Lekin":9198,"elcome":9199,"Ġscreenshot":9200,"ĠðŁĺ´":9201,"Ġindeed":9202,"CT":9203,"jha":9204,"jeet":9205,"Ġspl":9206,"Ġwall":9207,"ĠGO":9208,"Ġbechari":9209,"Ġpdega":9210,"ternal":9211,"Ġaugust":9212,"Ġrise":9213,"Ġcorpor":9214,"Ġangre":9215,"Ġmes":9216,"Ġabdul":9217,"Ġchose":9218,"Ġshowed":9219,"Ġsugar":9220,"Ġkharch":9221,"hutiya":9222,"Ġpahunch":9223,"zor":9224,"Ġtee":9225,"Ġliberal":9226,"LO":9227,"Ġdege":9228,"Ġcelebrating":9229,"tay":9230,"btw":9231,"Ġjaat":9232,"Ġseconds":9233,"Ġgiri":9234,"Ġresol":9235,"Ġcommenting":9236,"Ġchlta":9237,"Ġgenuinely":9238,"Ġdistance":9239,"Ġblockbuster":9240,"07":9241,"Af":9242,"Ġjes":9243,"Ġreturns":9244,"Ġlun":9245,"Ġwaalo":9246,"mates":9247,"Ġsafai":9248,"Ġlecture":9249,"Ġplate":9250,"Ġveg":9251,"Ġrepeal":9252,"Ġdirection":9253,"Can":9254,"Ġtin":9255,"Ġol":9256,"Ġkrde":9257,"ĠChe":9258,"Ġavg":9259,"ðŁĻĪðŁĻĪ":9260,"Pratik":9261,"lif":9262,"Ġmahila":9263,"Ġbanayi":9264,"Ġsacrifice":9265,"rael":9266,"essor":9267,"tag":9268,"Ġros":9269,"Ġkhaane":9270,"ðŁ¥²ðŁ¥²":9271,"khand":9272,"Ġmota":9273,"Ġmasoom":9274,"Ġwarm":9275,"Ġrahiye":9276,"Ġcharges":9277,"Ġyt":9278,"âĿ¤âĿ¤âĿ¤":9279,"ĠSahib":9280,"ĠAa":9281,"Ġsunke":9282,"ĠIM":9283,"ĠBC":9284,"Ġshaheen":9285,"Ġchehre":9286,"Ġsuffering":9287,"fc":9288,"kabar":9289,"ONG":9290,"46":9291,"kmh":9292,"Ġaankhon":9293,"umb":9294,"Ġsurely":9295,"jas":9296,"jana":9297,"Ġlala":9298,"Ġbhaijaan":9299,"loved":9300,"Ġblessings":9301,"pay":9302,"ĠMumbai":9303,"aces":9304,"Ġpurcha":9305,"gency":9306,"Ġnei":9307,"Ġtemples":9308,"Ġhighly":9309,"Ġwing":9310,"Ġdusron":9311,"Ġenjoying":9312,"acity":9313,"ĠLondon":9314,"Ġgusse":9315,"Ġgem":9316,"Ġhighlight":9317,"Ġrizwan":9318,"vant":9319,"Ġyog":9320,"Ġvous":9321,"ĠðŁĴĲ":9322,"Ġbetha":9323,"fake":9324,"Ġmuft":9325,"Ġharassing":9326,"ghty":9327,"oye":9328,"Ġjhuth":9329,"Ġcau":9330,"ayan":9331,"Ġlarge":9332,"Ġpeaceful":9333,"Ġsleeping":9334,"Ġmunh":9335,"person":9336,"Ġworried":9337,"Ġintel":9338,"Ġdhanya":9339,"kitne":9340,"ðŁ¤§ðŁ¤§":9341,"ams":9342,"Ġopenly":9343,"sabse":9344,"Ġsachin":9345,"Ġahmed":9346,"ito":9347,"Ġalli":9348,"Ġvibe":9349,"Ġsensible":9350,"Every":9351,"erc":9352,"Ġlif":9353,"Ġthankyou":9354,"Ġclips":9355,"Ġfrustration":9356,"fall":9357,"Ġfights":9358,"ĠðŁĵĪ":9359,"Ġrea":9360,"Ġbloody":9361,"Ġwriter":9362,"itesh":9363,"omen":9364,"Ġpret":9365,"Ġphil":9366,"Ġunlike":9367,"Ġinfluence":9368,"Ġkita":9369,"Ġbataiye":9370,"Ġutne":9371,"Ġbackup":9372,"Ġaudio":9373,"boo":9374,"mine":9375,"Ġmeter":9376,"Ġsoc":9377,"Ġ199":9378,"Ġeconomic":9379,"Dear":9380,"vin":9381,"oups":9382,"Ġguts":9383,"ohn":9384,"Ġbachche":9385,"course":9386,"rimin":9387,"Ġalot":9388,"ursat":9389,"Ġadop":9390,"ĠUr":9391,"Ġproduction":9392,"ize":9393,"Ġtimeline":9394,"Ġshes":9395,"Ġsultan":9396,"Ġhuva":9397,"pot":9398,"Ġfellow":9399,"Ġclosed":9400,"ĠLOVE":9401,"Ġ2016":9402,"71":9403,"ĠCl":9404,"Ġclari":9405,"Ġthu":9406,"Ġchhoti":9407,"forms":9408,"Ġuthaya":9409,"py":9410,"Ġnikalte":9411,"Ġbaji":9412,"Ġglti":9413,"Ġhojayega":9414,"Ji":9415,"Ġhogai":9416,"Ġtypes":9417,"ITH":9418,"Ġthappad":9419,"Ġshared":9420,"Ġjayege":9421,"Ġadvertise":9422,"Ġjinda":9423,"eee":9424,"Ġprim":9425,"Ġ96":9426,"Ġpadhta":9427,"Ġlagwa":9428,"Ġproducts":9429,"Ġrani":9430,"ange":9431,"ĠRashmi":9432,"Ġbottle":9433,"Ġkarwaya":9434,"isted":9435,"ĠLIK":9436,"Ġcomeback":9437,"Ġtabi":9438,"Ġhowever":9439,"One":9440,"card":9441,"Ġzindabad":9442,"Ġchopra":9443,"Ġfarmer":9444,"Ġmaya":9445,"Ġsomewhere":9446,"Ġserve":9447,"Ġchapter":9448,"Ġsaan":9449,"Ġhelping":9450,"Ġmeray":9451,"urat":9452,"Ġtears":9453,"Ġkhyal":9454,"Ġolympic":9455,"Ġobservatory":9456,"Ġchiye":9457,"Mein":9458,"Ġformat":9459,"Ġinten":9460,"Ġapr":9461,"Ġchot":9462,"bani":9463,"Ġfeet":9464,"derabad":9465,"Ġbardasht":9466,"HAR":9467,"Ġtumare":9468,"Ġgreatest":9469,"Ġpuche":9470,"mre":9471,"Ġphat":9472,"Ġshock":9473,"ĠCol":9474,"Ġbroke":9475,"ĠChahiye":9476,"Ġfashi":9477,"Ġcivili":9478,"Ġkrunga":9479,"aaaa":9480,"Ġbai":9481,"Ġowaisi":9482,"nab":9483,"Ġsamajhte":9484,"Very":9485,"Ġpala":9486,"Ġrank":9487,"seas":9488,"give":9489,"Ġconde":9490,"Ġdarling":9491,"Ġdecisions":9492,"Ġwid":9493,"Ġdebut":9494,"MAN":9495,"Ġadded":9496,"Ġsteady":9497,"Ġdeclare":9498,"yya":9499,"Ġproperly":9500,"paper":9501,"ĠBoss":9502,"ðŁ¤į":9503,"ĠðŁĺ¡ðŁĺ¡ðŁĺ¡":9504,"Ġthek":9505,"ĠTHI":9506,"Ġmanif":9507,"Ho":9508,"elle":9509,"att":9510,"Ġmemory":9511,"Ġnominate":9512,"Ġhoye":9513,"ĠAh":9514,"aapke":9515,"Ġevents":9516,"coin":9517,"Ġjungle":9518,"Ġbeginning":9519,"Ġimplement":9520,"...!":9521,"ĠSAB":9522,"Ġsever":9523,"Ġpassed":9524,"ĠDec":9525,"Ġconsist":9526,"Man":9527,"Ġinteraction":9528,"chin":9529,"ðŁļĢ":9530,"Ġspoil":9531,"andir":9532,"ĠSC":9533,"ĠBahut":9534,"Ġhonay":9535,"Ġvillain":9536,"32":9537,"uc":9538,"Ġtad":9539,"Ġpoet":9540,"Ġhelped":9541,"Ġdecent":9542,"pir":9543,"orn":9544,"usam":9545,"apko":9546,"Ġimpress":9547,"âĢ¼":9548,"Ġkahna":9549,"akash":9550,"ĠId":9551,"Ġmerit":9552,"uli":9553,"Ġvariant":9554,"mic":9555,"Ġlik":9556,"Ġcancer":9557,"Matlab":9558,"Ġtool":9559,"ases":9560,"Ġbatata":9561,"urt":9562,"Ġarrange":9563,"Ġkachra":9564,"09":9565,"EW":9566,"Ġmilkar":9567,"Ġmilitary":9568,"Ġlgte":9569,"Ġveer":9570,"iii":9571,"Ġkol":9572,"Ġglori":9573,"khari":9574,"ander":9575,"Ġmilk":9576,"Ġkitab":9577,"Ġgaliya":9578,"gha":9579,"Ġrelie":9580,"Ġflip":9581,"Ġsikhs":9582,"Ġanimals":9583,"Ġarrog":9584,"Ġraid":9585,"ĠYE":9586,"HAI":9587,"Ġfursat":9588,"Ġpassword":9589,"Ġjournalism":9590,"Es":9591,"Ġcc":9592,"Ġchaat":9593,"ĠWITH":9594,"Ġbatate":9595,"Ġmasala":9596,"cest":9597,"rna":9598,"yess":9599,"idents":9600,"Ġphirse":9601,"Ġministers":9602,"gression":9603,"Ġjinka":9604,"Ġconditions":9605,"CE":9606,"Ġnabi":9607,"ðŁĺĦðŁĺĦ":9608,"Ġelectricity":9609,"Ġ86":9610,"Ġfilter":9611,"BI":9612,"Ġsaudi":9613,"Ġias":9614,"Ġley":9615,"Ġkhati":9616,"Ġlucknow":9617,"Ġpaate":9618,"Ġdawa":9619,"Ġcarto":9620,"Ġtameez":9621,"Ġbuddhi":9622,"Ġbekaar":9623,"Ġjalan":9624,"Ġexcitement":9625,"Ġwishing":9626,"ðŁ¤¬ðŁ¤¬":9627,"Ġjaroorat":9628,"fort":9629,"tified":9630,"kia":9631,"ĠLI":9632,"Ġpassion":9633,"Ġapproach":9634,"qeen":9635,"esday":9636,"Ġreha":9637,"ateful":9638,"ĠMu":9639,"Ġhinduism":9640,"AND":9641,"Ġregarding":9642,"Ġkate":9643,"Ġhence":9644,"Ġandha":9645,"ĠDa":9646,"arn":9647,"Ġdadi":9648,"abil":9649,"mah":9650,"Ġmisunder":9651,"ĠAcha":9652,"Ġreporter":9653,"Ġmah":9654,"Ġceo":9655,"Ġreporting":9656,"ĠHawa":9657,"Ġshamil":9658,"clear":9659,"Ġafganistan":9660,"tik":9661,"koof":9662,"Ġfinished":9663,"Ġpanga":9664,"Ġmohsin":9665,"luck":9666,"Ġring":9667,"thoda":9668,"Ġtom":9669,"iciary":9670,"Ġbrave":9671,"bak":9672,"still":9673,"Ġnotes":9674,"Ġkhadi":9675,"Ġexpl":9676,"iderman":9677,"iest":9678,"mun":9679,"Ġpare":9680,"Ġsmiling":9681,"Ġpyara":9682,"sen":9683,"Ġwasnt":9684,"rested":9685,"Ġachieved":9686,"Ġtaught":9687,"Ġextremely":9688,"hop":9689,"ĠRes":9690,"Ġ!!!!":9691,"Ġsending":9692,"ðŁĺİðŁĺİ":9693,"Ġchle":9694,"Ġtukde":9695,"ĠHope":9696,"Ġdhakka":9697,"Ġanxiety":9698,"Aj":9699,"Ġcoll":9700,"Ġkisse":9701,"Ġarmaan":9702,"ometer":9703,"Ġengineer":9704,"pri":9705,"Ġbahi":9706,"ager":9707,"erce":9708,"Ġpros":9709,"nataka":9710,"Ġanda":9711,"ĠBro":9712,"ĠPS":9713,"intment":9714,"ĠOnly":9715,"Ġ^":9716,"Ġmegastar":9717,"Ġgranth":9718,"RA":9719,"Ġfek":9720,"Ġled":9721,"Ġmoka":9722,"vage":9723,"Ġplanned":9724,"Ġkapil":9725,"vs":9726,"het":9727,"bel":9728,"Ġ87":9729,"Ġmaarne":9730,"Ġlawyer":9731,"Ġ1947":9732,"Ġkarana":9733,"Ġkrle":9734,"Ġkabse":9735,"ĠBad":9736,"Ġrahein":9737,"Ġkarnay":9738,"Ġtheyre":9739,"soos":9740,"Ġzindgi":9741,"Madam":9742,"Ġpriyanka":9743,"66":9744,"ĠSup":9745,"Ġsochne":9746,"Ġfashion":9747,"taur":9748,"chup":9749,"Ġjawaab":9750,"Ġbadiya":9751,"Ġbachon":9752,"writ":9753,"Ġneither":9754,"Ġcomput":9755,"Ġquran":9756,"Ġbesharam":9757,"Ni":9758,"Ġtheres":9759,"mpton":9760,"ðŁĺĤðŁĺĤðŁĺĤðŁĺĤðŁĺĤ":9761,"Ġcore":9762,"Ġsacha":9763,"Ġcomb":9764,"Ġdekhni":9765,"Ġsunn":9766,"Ġ84":9767,"coz":9768,"Ġobvious":9769,"Ġlok":9770,"conf":9771,"Ġhak":9772,"Ġanu":9773,"Ġprayers":9774,"ðŁĴķðŁĴķ":9775,"Ġchutti":9776,"Ġcbse":9777,"Ġbhan":9778,"Ġjii":9779,"Ġbatayega":9780,".)":9781,"Ġbrilliant":9782,"ĠVis":9783,"Ġrahti":9784,"ĠKrna":9785,"itute":9786,"ussain":9787,"which":9788,"RI":9789,"Ġdaala":9790,"uries":9791,"Ġbalo":9792,"news":9793,"Ġjealousy":9794,"Ġaffair":9795,"Ġguarantee":9796,"Ġnikalta":9797,"Ġ700":9798,"Ġtells":9799,"ability":9800,"ĠAc":9801,"Ġgrade":9802,"Ġfinals":9803,"Ġbringing":9804,"ied":9805,"Ġaaega":9806,"Ġkhuch":9807,"Ġnikli":9808,"Ġsettle":9809,"Ġpayi":9810,"Ġdul":9811,"Ġjew":9812,"ĠKumar":9813,"Ġmistakes":9814,"Ġâĺ":9815,"kata":9816,"Ġbran":9817,"Ġnajar":9818,"Ġmaana":9819,"fact":9820,"Ġpahele":9821,"Ġkhn":9822,"ksan":9823,"Ġunemplo":9824,"Ġsei":9825,"udo":9826,"uba":9827,"Ġtarika":9828,"Ġsurvive":9829,"Ġksi":9830,"Ġtil":9831,"rain":9832,"Ġullu":9833,"Ġpsych":9834,"jor":9835,"mana":9836,"Ġaram":9837,"Ġpiya":9838,"Ġlonger":9839,"44":9840,"Ġghusa":9841,"TE":9842,"Ġmgr":9843,"ðŁĺ«":9844,"hume":9845,"Ġmutual":9846,"bri":9847,"Ġdna":9848,"Ġstuck":9849,"Ġprob":9850,"ĠSTOP":9851,"Ġencour":9852,"BJP":9853,"Ġarrested":9854,"Ġnamak":9855,"Ġsoldiers":9856,"Ġinsaaf":9857,"Ġvc":9858,"Ġkhandan":9859,"Ġapplication":9860,"Ġdale":9861,"ĠPTI":9862,"ðŁĺĮðŁĺĮ":9863,"BC":9864,"Ġive":9865,"Ġchata":9866,"Ġgroups":9867,"chota":9868,"ĠâĿ£":9869,"Ġpradhan":9870,"Ġshocked":9871,"ĠðŁĴŀ":9872,"Ġjaegi":9873,"ðŁĺĳðŁĺĳ":9874,"Ġmafia":9875,"Ġdya":9876,"Ġhonour":9877,"Ġpadhi":9878,"Ġshukriya":9879,"dus":9880,"Ġabs":9881,"Ġjoker":9882,"Ġalgo":9883,"Ġshine":9884,"Ġpocket":9885,"Ġbheje":9886,"Ġjeevan":9887,"Ġfatt":9888,"59":9889,"ulous":9890,"Ġmango":9891,"Ġarre":9892,"ĠFr":9893,"Ġcorre":9894,"Ġsamjhte":9895,"Ġcandid":9896,"ME":9897,"vil":9898,"Ġnamo":9899,"ĠMO":9900,"Ġpanic":9901,"Ġconsid":9902,"ername":9903,"Ġretirement":9904,"usne":9905,"Ġmilni":9906,"Ġhung":9907,"ĠVo":9908,"Ġmujy":9909,"Ġsatya":9910,"everyone":9911,"ĠBr":9912,"asty":9913,"activate":9914,"At":9915,"Ġraaz":9916,"Ġ38":9917,"Ġdaant":9918,"Ġfacil":9919,"Ġplane":9920,"Ġpositivity":9921,"Ġchilla":9922,"Ġvas":9923,"ongrats":9924,"Ġcommunic":9925,"ĠSarkar":9926,"ŃĲ":9927,"ĠApp":9928,"Ġpyaari":9929,"ĠOT":9930,"Ġbehavior":9931,"Pl":9932,"Ġaman":9933,"Ġbnane":9934,"ĠIndex":9935,"Ġaka":9936,"chod":9937,"Ġmaam":9938,"Ġleye":9939,"Ġstudies":9940,"Ġlimited":9941,"tune":9942,"hold":9943,"akir":9944,"Ġmessi":9945,"ðŁĻıðŁı»ðŁĻıðŁı»":9946,"bharat":9947,"hri":9948,"Ġride":9949,"Ġfinance":9950,"Ġstatements":9951,"True":9952,"37":9953,"mis":9954,"hod":9955,"Ġframe":9956,"Ġpregn":9957,"jection":9958,"uge":9959,"ĠðŁĺŃðŁĺŃðŁĺŃðŁĺŃðŁĺŃ":9960,"hadur":9961,"ktok":9962,"Ġinclude":9963,"atic":9964,"ĠGa":9965,"ĠRahi":9966,"active":9967,"ĠðŁĴĹ":9968,"Ġnamed":9969,"Ġpill":9970,"aying":9971,"Ġnuksan":9972,"08":9973,"ĠRSS":9974,"Ġinsaniyat":9975,"otes":9976,"Ġdestroyed":9977,"New":9978,"ĠSub":9979,"Ġfru":9980,"ĠðŁĺįðŁĺįðŁĺį":9981,"jna":9982,"Ġtow":9983,"Ġoverseas":9984,"Ġgotta":9985,"Ġkamya":9986,"Ġbacchi":9987,"virat":9988,"Waise":9989,"Ġclim":9990,"Ġjaungi":9991,"ĠSome":9992,"Ġtone":9993,"Ġhuh":9994,"Ġthha":9995,"big":9996,"world":9997,"Ġbanwa":9998,"Ġoctober":9999,"Ġspent":10000,"Ġgarmi":10001,"Ġaaraha":10002,"bind":10003,"Ġml":10004,"ened":10005,"ilway":10006,"Ġsamman":10007,"Ġfunds":10008,"ĠDay":10009,"Ġrojgar":10010,"Ġargue":10011,"56":10012,"Con":10013,"Ġbk":10014,"Ġdoodh":10015,"Ġmys":10016,"Ġspons":10017,"Ġcompared":10018,"Ġmoral":10019,"ðŁĳĮðŁĳĮ":10020,"mil":10021,"mate":10022,"rang":10023,"Ġnani":10024,"Ġboo":10025,"check":10026,"ĠRi":10027,"Ġhotey":10028,"Ġmessages":10029,"Ġrequired":10030,"39":10031,"Ġaim":10032,"lets":10033,"Ġfantastic":10034,"pare":10035,"Ġteeno":10036,"ussia":10037,"Ġhaseen":10038,"sy":10039,"Ġbright":10040,"Ġspeaks":10041,"qesh":10042,"fected":10043,"Ġsiwa":10044,"UJ":10045,"Ġdukaan":10046,"Ġinjustice":10047,"CK":10048,"Ġconveni":10049,"reef":10050,"Ġactivity":10051,"Ġbullshit":10052,"Ġvul":10053,"Ġmuhammad":10054,"Ġvoters":10055,"Ġdn":10056,"Ġkerala":10057,"Ġgadbad":10058,"Ġadvan":10059,"ctually":10060,"Ġtwice":10061,"Ġkaroon":10062,"ĠWorld":10063,"KE":10064,"Ġengineering":10065,"Ġfloor":10066,"Ġanswers":10067,"ĠLIKE":10068,"Ġfoto":10069,"Ġlaf":10070,"raid":10071,"Ġhumans":10072,"Ġetna":10073,"Ġkrein":10074,"medari":10075,"Ġsrf":10076,"face":10077,"urious":10078,"Ġdeen":10079,"alim":10080,"Ġgarv":10081,"Ġintellect":10082,"Ġaae":10083,"Ġalleg":10084,"Ġpalat":10085,"house":10086,"Ġhasan":10087,"ĠHAR":10088,"Ġdeny":10089,"gent":10090,"gaz":10091,"Ġmoving":10092,"Ġbato":10093,"Ġinjured":10094,"Ġmajboor":10095,"ĠChris":10096,"Ġbenefits":10097,"Ġrota":10098,"Ġpadte":10099,"Ġclothes":10100,"cles":10101,"Ġtamil":10102,"Ġpaying":10103,"Ġjinki":10104,"Ġgeya":10105,"ĠRT":10106,"ðŁ§Ĳ":10107,"plete":10108,"Ġmaje":10109,"viously":10110,"Ġnuk":10111,"Ġsolid":10112,"Ġvehi":10113,"girl":10114,"Ġdollar":10115,"ĠKaha":10116,"Ġbelle":10117,"endar":10118,"Ġ1022":10119,"yee":10120,"ĠKitna":10121,"cont":10122,"Ġnanga":10123,"ĠShyam":10124,"Ġcaught":10125,"gers":10126,"Ġcreative":10127,"Ġspotify":10128,"Ġkarwane":10129,"Ġcreating":10130,"//":10131,"inet":10132,"dible":10133,"ĠKare":10134,"Ġjh":10135,"asya":10136,"ĠThen":10137,"Ġinstig":10138,"Ġapple":10139,"Ġsubh":10140,"Min":10141,"itor":10142,"roc":10143,"Ġsumma":10144,"ructure":10145,"Ġmaximum":10146,"surat":10147,"Ġved":10148,"Ġsaalon":10149,"ohhh":10150,"Ġbritish":10151,"Ġmuze":10152,"Ġkarwao":10153,"Ġpyare":10154,"icop":10155,"Ġbigad":10156,"Ġbooking":10157,"Ġsaturday":10158,"Ġagay":10159,"Ġmughal":10160,"achha":10161,"ĠðŁĮ¹":10162,"Ġkutto":10163,"qa":10164,"Ġhony":10165,"Ġcook":10166,"Ġblaming":10167,"Ġcriticism":10168,"Ġsuggestion":10169,"ĠMor":10170,"ĠJaise":10171,"Ġbhasha":10172,"Ġtests":10173,"Ġseveral":10174,"Ġnga":10175,"Ġkir":10176,"Ġrob":10177,"adian":10178,"Ġgulam":10179,"ĠðŁ§¿":10180,"ðŁ¤Ŀ":10181,"Ġsteps":10182,"Ġpunishment":10183,"Ro":10184,"base":10185,"inka":10186,"Ġdiff":10187,"Ġoverall":10188,"Ġkursi":10189,"MC":10190,"Ġren":10191,"Ġlagu":10192,"ĠGaye":10193,"Ġrajneeti":10194,"Ġsardar":10195,"Ġreme":10196,"Ġbala":10197,"Ġkarn":10198,"Ġchart":10199,"Ġsanatan":10200,"Ġoccasion":10201,"Ġtume":10202,"ĠBus":10203,"Ġnorm":10204,"Ġfoundation":10205,"ĠSharma":10206,"Ġdisco":10207,"ðŁĺ´":10208,"ðŁ¤Ĳ":10209,"eria":10210,"idk":10211,"Ġstone":10212,"ĠAj":10213,"Ġ52":10214,"Ġsindh":10215,"phe":10216,"Ġmate":10217,"Ġsaboot":10218,"ĠBy":10219,"Ġspaces":10220,"Ġclash":10221,"ĠWith":10222,"Ġpossess":10223,"Ġdup":10224,"Ġrating":10225,"Ġjite":10226,"ðŁĺĪ":10227,"ques":10228,"ĠRampal":10229,"Ġkarogi":10230,"pace":10231,"ĠBangladesh":10232,"Ġtony":10233,"Ġfee":10234,"Ġlesson":10235,"Ġberoz":10236,"ĠTera":10237,"ðŁİ¶":10238,"Ġvisa":10239,"ĠTab":10240,"adiq":10241,"ĠQu":10242,"Ġshant":10243,"Ġtwist":10244,"Ġpopularity":10245,"Ġoccup":10246,"aling":10247,"Ġped":10248,"Ġbanai":10249,"Ġdimagh":10250,"88":10251,"Ġannounced":10252,"ĠHave":10253,"Ġcrisis":10254,"Ġama":10255,"Ġdry":10256,"Ġdipl":10257,"Ġparts":10258,"Ġlogical":10259,"Ġmoun":10260,"Ġlikely":10261,"Ġtasks":10262,"Ġbhula":10263,"ðŁĺ¢ðŁĺ¢":10264,"Ġkarwana":10265,"Ġanaly":10266,"rance":10267,"Ġmou":10268,"harkhand":10269,"Ġbhaiyo":10270,"Ġcontribution":10271,"Ġpadhte":10272,"ĠSara":10273,"Ġconspir":10274,"Ġpoch":10275,"nic":10276,"Ġtf":10277,"Ġmna":10278,"Ġhoping":10279,"Ġseva":10280,"bey":10281,"Ġ94":10282,"Ġsanta":10283,"Ġchamcha":10284,"Ġconduct":10285,"Ġgud":10286,"Ġbhaii":10287,"Ġroo":10288,"Ġgande":10289,"cen":10290,"Ġdip":10291,"ĠIss":10292,"Ġrestric":10293,"ask":10294,"Ġjatay":10295,"sup":10296,"Ġkaal":10297,"Ġliking":10298,"Ġplant":10299,"Ġboards":10300,"Kis":10301,"Ġtumha":10302,"Ġfaz":10303,"ĠNOT":10304,"Ġkerne":10305,"Ġdalna":10306,"ulam":10307,"ĠMERE":10308,"Ġwealth":10309,"angana":10310,"Ġladna":10311,"Ġcoaching":10312,"aksh":10313,"Ġaajtak":10314,"Ġchanging":10315,"Ġministry":10316,"Ġjeeto":10317,"Ġleading":10318,"Ġkerte":10319,"Ġlegit":10320,"Ġtube":10321,"Ġnav":10322,"Ġexcellent":10323,"Ġclown":10324,"Ġvirtu":10325,"Ġtmc":10326,"urance":10327,"Ġcompli":10328,"Ġeverybody":10329,"twt":10330,"Yr":10331,"Ġaly":10332,"Ġath":10333,"ĠDin":10334,"astructure":10335,"Ġpathan":10336,"Ġspeaker":10337,"otland":10338,"Ġcelebs":10339,"Ġinfact":10340,"Aree":10341,"Ġ00":10342,"ðŁĺĸ":10343,"roid":10344,"saas":10345,"ĠInsta":10346,"Ġpacka":10347,"cre":10348,"Ġareas":10349,"ĠCap":10350,"Ġchhote":10351,"Ġportraying":10352,"Ġbell":10353,"Ġbaray":10354,"away":10355,"Ġfab":10356,"Hmm":10357,"kart":10358,"grade":10359,"ĠDev":10360,"Ġdefending":10361,"Ġprediction":10362,"muje":10363,"Ġdisa":10364,"Ġjer":10365,"Ġdikhne":10366,"Ġmumkin":10367,"Ġee":10368,"Ġbhikhari":10369,"ðŁĳī":10370,"Ġignor":10371,"Ġlele":10372,"inate":10373,"Ġsonu":10374,"Ġdekhega":10375,"ĠðŁĺ¡ðŁĺ¡":10376,"Ġsanskar":10377,"First":10378,"orary":10379,"ader":10380,"Ġpadne":10381,"Ġdaddy":10382,"Ġtechnical":10383,"tal":10384,"yogi":10385,"ĠRas":10386,"Ġstandards":10387,"feel":10388,"gas":10389,"uja":10390,"Ġunfortunately":10391,"Ġlifetime":10392,"Ġobsession":10393,"ðŁĸķ":10394,"mtlb":10395,"yahan":10396,"ĠBest":10397,"ĠJis":10398,"Ġminimum":10399,"Ġ92":10400,"Ġnw":10401,"atha":10402,"Ġsurrender":10403,"Ġhaye":10404,"Ġnaak":10405,"Ġkiun":10406,"etter":10407,"ĠRaat":10408,"ĠChill":10409,"oric":10410,"Ġunme":10411,"Ġmanz":10412,"walo":10413,"Ġbaithi":10414,"ĠAfghanistan":10415,"ardom":10416,"Ġakeli":10417,"Ġfreak":10418,"Ġjaun":10419,"Ġyaqeen":10420,"Ġzulm":10421,"Ġafraid":10422,"haps":10423,"Ġbanned":10424,"Ġjabardasti":10425,"Ġbattery":10426,"Ġcolla":10427,"bohot":10428,"Last":10429,"Ġdety":10430,"Ġbattle":10431,"Ġyung":10432,"Ġsubscribe":10433,"Ġrent":10434,"Ġhuwe":10435,"ĠWhats":10436,"ðŁĻıðŁĻıðŁĻı":10437,"Ġjale":10438,"ardast":10439,"Ġconcerned":10440,"Ġsequ":10441,"Ġsabar":10442,"Ġquar":10443,"Ġsakty":10444,"Ġrestaur":10445,"Ġaadhe":10446,"Ġappear":10447,"Ġindependent":10448,"Ġbaari":10449,"Ġchawal":10450,"ĠðŁĺ±":10451,"ĠðŁĺģðŁĺģðŁĺģ":10452,"Ġanimal":10453,"ðŁļ©ðŁļ©":10454,"Ġugly":10455,"Gaya":10456,"Ġgst":10457,"ĠHara":10458,"ESS":10459,"Teri":10460,"ian":10461,"Ġmel":10462,"Ġbutton":10463,"Ġtiktok":10464,"Ġzee":10465,"via":10466,"Ġgram":10467,"Ġhamein":10468,"Ġsilence":10469,"Ġ39":10470,"ENT":10471,".!":10472,"Ġske":10473,"Ġslog":10474,"Ġpaytm":10475,"Ġcourage":10476,"Ġusername":10477,"ĠSant":10478,"ĠMY":10479,"ĠCHO":10480,"Ġcalcul":10481,"Ġruin":10482,"Ġzamana":10483,"kum":10484,"atio":10485,"Ġekta":10486,"ðŁ¥µ":10487,"ĠPeople":10488,"53":10489,"Ġot":10490,"Ġshaheed":10491,"Ġladte":10492,"Ġpartners":10493,"Ġassignment":10494,"Ġfaces":10495,"Ġbheed":10496,"Ġfrustrated":10497,"GE":10498,"Ġkore":10499,"Ġsote":10500,"ĠSc":10501,"Ġzyda":10502,"âľĭ":10503,"Ġpuncture":10504,"Ġranking":10505,"rate":10506,"Ġjacket":10507,"aksha":10508,"ĠðŁ¥ºâĿ¤":10509,"Ġbuddy":10510,"rop":10511,"Ġkarya":10512,"jected":10513,"Ġkhalistani":10514,"para":10515,"Ġnecessary":10516,"kohli":10517,"Ġenjo":10518,"ĠEl":10519,"ðŁĺ³ðŁĺ³":10520,"Congress":10521,"Okay":10522,"reg":10523,"Ġvoter":10524,"Ġexpecting":10525,"LAH":10526,"show":10527,"Ġbde":10528,"alon":10529,"wanath":10530,"neela":10531,"Ġhater":10532,"Ġpriya":10533,"Ġsooo":10534,"ĠðŁ¥´":10535,"Ġ2023":10536,"ĠShame":10537,"Ġequally":10538,"cuit":10539,"DA":10540,"Ġmap":10541,"Ġtakkar":10542,"Ġpareshani":10543,"nan":10544,"Ġtir":10545,"ĠBeech":10546,"Ġalt":10547,"fection":10548,"Ġunderstood":10549,"adeja":10550,"Ġfre":10551,"abb":10552,"Ġaadhi":10553,"Ġtodne":10554,"Lagta":10555,"Ġkard":10556,"ador":10557,"Ġbabies":10558,"ĠRakhi":10559,"Ġshares":10560,"Ġleads":10561,"acher":10562,"Ġ65":10563,"ðŁĺłðŁĺł":10564,"tail":10565,"unk":10566,"ĠPer":10567,"Ġafridi":10568,"Ġsada":10569,"amily":10570,"Ġipo":10571,"Ġpov":10572,"ðŁĳįðŁı»":10573,"Ġmurkh":10574,"Ġphen":10575,"Ġguna":10576,"ouds":10577,"ĠKUCH":10578,"Ġdilli":10579,"ĠðŁļ©":10580,"Ġbah":10581,"Ġanywhere":10582,"Ġsuff":10583,"Ġrelate":10584,"Ġsamp":10585,"sl":10586,"idhar":10587,"ĠTh":10588,"says":10589,"Ġunion":10590,"Ġinvolve":10591,"lpa":10592,"Ġjhan":10593,"Ġautomat":10594,"Ġpakde":10595,"ðŁıĥ":10596,"ĠUniversity":10597,"Pro":10598,"Ġbub":10599,"Ġlungi":10600,"ĠSR":10601,"Ġbecoz":10602,"Ġsochti":10603,"ATION":10604,"Ġculpr":10605,"RO":10606,"care":10607,"pahle":10608,"Ġant":10609,"Ġhumlog":10610,"Ġraghav":10611,"Ġcaa":10612,"Ġjija":10613,"Ġpis":10614,"road":10615,"Ġrespected":10616,"Ġassist":10617,"rency":10618,"Ġhospit":10619,"Ġ;)":10620,"Ġkangana":10621,"Ġthousands":10622,"Ġaans":10623,"icted":10624,"Ġstalk":10625,"Ġbolunga":10626,"Ġblan":10627,"umber":10628,"Ġshakti":10629,"Ġhardik":10630,"Ġvoted":10631,"Ġdaalo":10632,"thats":10633,"ĠBihar":10634,"uals":10635,"arily":10636,"Ġkafir":10637,"Ġaakh":10638,"Ġdogs":10639,"ustani":10640,"Ġwithdra":10641,"Ġpadosi":10642,"Ġjudiciary":10643,"EO":10644,"Ġloog":10645,"ĠGr":10646,"ĠTumhe":10647,"Ġboun":10648,"Ġuh":10649,"Ġappreciation":10650,"Ġjournalists":10651,"pop":10652,"Ġparam":10653,"Ġteer":10654,"ĠRan":10655,"Ġmangne":10656,"ĠSu":10657,"Ġchuna":10658,"Ġjeeti":10659,"Ġbanegi":10660,"jitna":10661,"Ġjyaada":10662,"iles":10663,"Ġagency":10664,"Ġexplan":10665,"Ġbapu":10666,"ĠSunday":10667,"Ġcere":10668,"Ġconversion":10669,"Ġabu":10670,"ĠSm":10671,"Ġ41":10672,"Ġ47":10673,"Ġnoticed":10674,"erts":10675,"gai":10676,"ĠðŁĺ·":10677,"met":10678,"Ġdefame":10679,"pura":10680,"ðŁĳĳ":10681,"Ġgdp":10682,"inhpa":10683,"Ġkary":10684,"ĠSri":10685,"Ġsabh":10686,"Ġaccused":10687,"Ġreports":10688,"Ġscholar":10689,"Ġbanks":10690,"mohan":10691,"ONE":10692,"ðŁĺĥðŁĺĥ":10693,"far":10694,"Ġinhi":10695,"Ġpron":10696,"ulana":10697,"Ġlagna":10698,"ðŁĴĺ":10699,"Ġregister":10700,"ĠTa":10701,"Ġexact":10702,"ĠJe":10703,"Ġkartey":10704,"Ġchalate":10705,"Ġalava":10706,"Ġunnecessary":10707,"Ġconspiracy":10708,"ĠðŁ¦":10709,"Ġagreed":10710,"Ġseasons":10711,"Ġstronger":10712,"Ġpropose":10713,"Sirf":10714,"ĠArmy":10715,"Ġâı":10716,"Ġarjun":10717,"door":10718,"Ġ88":10719,"Ġdefense":10720,"Ġclassic":10721,"hoto":10722,"ĠRis":10723,"Ġdarte":10724,"Ġmujhay":10725,"Ġcriticize":10726,"Sar":10727,"Ġger":10728,"adhi":10729,"Ġtiming":10730,"Ġseek":10731,"Ġrakhiye":10732,"Ġdharti":10733,"Ġcollect":10734,"Ġbatau":10735,"ĠIsliye":10736,"Ġdepos":10737,"Ġcartoon":10738,"Ġci":10739,"Ġsehat":10740,"ĠKhans":10741,"Ġdeserved":10742,"ĠApni":10743,"Ġsme":10744,"Ġrcb":10745,"Ġangel":10746,"Ġcompe":10747,"Ġcomfortable":10748,"Ġbhaisa":10749,"Ġprofessor":10750,"Ġexcl":10751,"..??":10752,"leged":10753,"ðŁİĬ":10754,"Dekh":10755,"ðŁĺ¤ðŁĺ¤":10756,"...!!":10757,"ajh":10758,"Ġtamasha":10759,"ĠApna":10760,"Ġ89":10761,"Ġsided":10762,"Ġconfident":10763,"ses":10764,"ster":10765,"Ġshud":10766,"Ġscrip":10767,"Ġended":10768,"Ġradio":10769,"Agr":10770,"vind":10771,"Ġprince":10772,"Ġknw":10773,"Ġaccepted":10774,"ĠUp":10775,"baap":10776,"Ġfilled":10777,"Ġvaccines":10778,"team":10779,"Ġlic":10780,"Ġcheej":10781,"ĠItni":10782,"Ġbuhat":10783,"Ġdhokha":10784,"Ġconverted":10785,"Sun":10786,"Ġsev":10787,"Ġalliance":10788,"Ġhire":10789,"ishu":10790,"Ġpension":10791,"Ġcards":10792,"Ġclg":10793,"Ġgraduated":10794,"arrass":10795,"Ġela":10796,"ends":10797,"Ġrahane":10798,"Ġcooking":10799,"Ġminorities":10800,"Ġmien":10801,"Ġbhejna":10802,"Ġquiero":10803,"57":10804,"inally":10805,"Ġsos":10806,"Ġsbke":10807,"ĠKarna":10808,"ĠTHIS":10809,"edkar":10810,"Ġhaste":10811,"Ġvidhi":10812,"Ġpir":10813,"ĠRs":10814,"ðŁ¥±":10815,"kyuki":10816,"Ġcandidates":10817,"Ġapno":10818,"Ġtrf":10819,"Ġsuperi":10820,"Ġamazon":10821,"erved":10822,"Ġjhu":10823,"Ġpran":10824,"Ġwarning":10825,"52":10826,"ĠLad":10827,"Ġscream":10828,"Ġhelicop":10829,"Ġdecade":10830,"Ġoperation":10831,"Ġinfrastructure":10832,"pha":10833,"than":10834,"kiya":10835,"Ġdikhayi":10836,"Ġentertaining":10837,"Ġkrdi":10838,"Ġboom":10839,"Ġbreakfast":10840,"Ġstocks":10841,"Ġziyada":10842,"iterally":10843,"hak":10844,"ids":10845,"Ġrepublic":10846,"Ġtweeted":10847,"Ġtrump":10848,"ĠðŁļ¶":10849,"Ġuthane":10850,"Ġdialogues":10851,"Ġgujar":10852,"Ġdomestic":10853,"Sam":10854,"Ġfought":10855,"ĠShan":10856,"ðŁ¤£ðŁĺĤ":10857,"Ġcomputer":10858,"Ġcities":10859,"Ġweap":10860,"mester":10861,"Ġkero":10862,"Ġaadha":10863,"Ġmitti":10864,"profit":10865,"crat":10866,"uski":10867,"Ġkeval":10868,"Ġharsh":10869,"Ġseekha":10870,"Even":10871,"Ġcyl":10872,"Ġine":10873,"mao":10874,"Ġshre":10875,"Ġshameful":10876,"Ġviolent":10877,"Ġgutter":10878,"zad":10879,"Ġgajab":10880,"ðŁĻĬ":10881,"kyo":10882,"Mam":10883,"Ġsof":10884,"ĠMal":10885,"Ġgua":10886,"Ġfarah":10887,"Ġjoined":10888,"Ġprotection":10889,"ðŁĺ©ðŁĺ©":10890,"DAY":10891,"eries":10892,"Ġpehna":10893,"Ġreference":10894,"car":10895,"ĠBO":10896,"Ġlagra":10897,"Ġrupee":10898,"ðŁĺŃðŁĺŃðŁĺŃðŁĺŃðŁĺŃðŁĺŃðŁĺŃðŁĺŃ":10899,"vas":10900,"Ġraised":10901,"Ah":10902,"nice":10903,"Ġasia":10904,"Ġbimari":10905,"Ġscient":10906,"Ġcheat":10907,"Ġdriving":10908,"Ġinjury":10909,"Ġwestern":10910,"puri":10911,"ĠðŁĺĤ.":10912,"Ġmurd":10913,"Ġincreasing":10914,"Ġazad":10915,"Ġzabardasti":10916,"Ġfolks":10917,"Chi":10918,"Ġcand":10919,"Ġumer":10920,"Ġbahane":10921,"Ġactivities":10922,"Ġmortals":10923,"Ġlaate":10924,"ĠSee":10925,"ĠGoogle":10926,"Ġasliyat":10927,"nor":10928,"ario":10929,"Ġpoke":10930,"Ġmamta":10931,"Ġcommunal":10932,"Ġchaand":10933,"Ġsaree":10934,"Ġsansad":10935,"Ġmassive":10936,"das":10937,"Ġrecover":10938,"Ġtaiyar":10939,"Ġdahi":10940,"imed":10941,"Ġanger":10942,"Ġbahr":10943,"Ġneeraj":10944,"Ġagla":10945,"ĠCHA":10946,"Ġquit":10947,"ĠWhi":10948,"Ġfranchi":10949,"gam":10950,"Ġcou":10951,"Ġrice":10952,"Ġasap":10953,"Ġkishan":10954,"Ġshub":10955,"Ġtolerate":10956,"Ġconsidered":10957,"Kon":10958,"top":10959,"Ġbhae":10960,"Ġspoke":10961,"Ġchoot":10962,"jiyega":10963,"Ġ42":10964,"pical":10965,"Ġpuchta":10966,"Ġkaram":10967,"ĠBab":10968,"ĠPri":10969,"thy":10970,"isible":10971,"Congratulations":10972,"Ġalert":10973,"ĠðŁ¤£ðŁĺĤ":10974,"Ġprize":10975,"Ġcalendar":10976,"ĠPO":10977,"Ġharr":10978,"Ġemergency":10979,"Ġray":10980,"ĠLE":10981,"Ġsubmit":10982,"Ġburning":10983,"Ġreceive":10984,"Ġnuksaan":10985,"rise":10986,"Ġsaka":10987,"ĠNanak":10988,"ĠWi":10989,"Ġclouds":10990,"Ġpostp":10991,"Ġupsc":10992,"soor":10993,"Ġextrem":10994,"Ġparivaar":10995,"ĠMas":10996,"Ġ46":10997,"Ġ49":10998,"Ġplanet":10999,"Ġtodos":11000,"Ġaksar":11001,"ĠAfter":11002,"bye":11003,"Ġola":11004,"Ġandr":11005,"Ġshoaib":11006,"ðŁİīðŁİī":11007,"Ġvieja":11008,"Ġdeactivate":11009,"mbly":11010,"Ġedits":11011,"yrs":11012,"Ġbali":11013,"Ġfuel":11014,"gaye":11015,"Ġ250":11016,"0000":11017,"Ġsik":11018,"Ġhasil":11019,"Ġbrut":11020,"Ġconsum":11021,"fts":11022,"Ġken":11023,"nav":11024,"Ġteh":11025,"ĠGuj":11026,"Ġrupay":11027,"ĠHone":11028,"Ġcanada":11029,"ĠRO":11030,"Ġhamesa":11031,"Ġbnana":11032,"Ġjudgement":11033,"Ġliberals":11034,"TER":11035,"Ġdali":11036,"Ġnami":11037,"Ġmehen":11038,"Ġbaru":11039,"Ġafrica":11040,"Ġflu":11041,"gun":11042,"Ġeld":11043,"Ġraqesh":11044,"ameer":11045,"Ġdisaster":11046,"Ġswitch":11047,"Ġmazaak":11048,"Ġbeloved":11049,"chaar":11050,"Ġbangal":11051,"prime":11052,"Ġchlega":11053,"Ġproc":11054,"Ġkavi":11055,"Ġmausam":11056,"araz":11057,"chutiya":11058,"Ġdnt":11059,"Ġrana":11060,"ĠðŁĻĤðŁĻĤ":11061,"Ġdise":11062,"Ġrd":11063,"Ġrot":11064,"Ġjadi":11065,"tait":11066,"Ġchaman":11067,"ĠDI":11068,"Ġ07":11069,"oti":11070,"Ġsuk":11071,"Ġhta":11072,"Ġmee":11073,"Ġsabha":11074,"mani":11075,"ĠFan":11076,"Ġbechne":11077,"Ġanup":11078,"Ġ69":11079,"Ġtalked":11080,"Ġudar":11081,"Ġembarrass":11082,"Ġbranch":11083,"51":11084,"vish":11085,"Ġkasi":11086,"ĠPres":11087,"Ġattach":11088,"Ġquiet":11089,"Ġaza":11090,"isher":11091,"adha":11092,"Ġimo":11093,"Ġrakhti":11094,"Ġmaante":11095,"tifications":11096,"Ġzoom":11097,"Ġends":11098,"Ġpolls":11099,"Ġvya":11100,"Ġhuma":11101,"loo":11102,"Ġrupaye":11103,"Ġfinger":11104,"Ġsarcasm":11105,"cut":11106,"Ġofficially":11107,"Ġbrief":11108,"Ġmantra":11109,"Ġdraft":11110,"inary":11111,"Ġshoes":11112,"sak":11113,"Ġhd":11114,"urname":11115,"ĠðŁ¤¬":11116,"Ġsusp":11117,"Ġnalli":11118,"urrent":11119,"Ġheaven":11120,"Ġchhup":11121,"Ġnut":11122,"Ġpeene":11123,"Ġekdam":11124,"Ġrout":11125,"Ġcommentary":11126,"Ġhandles":11127,"respected":11128,"Ġlying":11129,"ĠðŁĻģ":11130,"ography":11131,"Ġpig":11132,"ðŁĮ¹ðŁĮ¹":11133,"Ġguilty":11134,"Ġhosh":11135,"ĠFa":11136,"Ġmadh":11137,"Ġniklo":11138,"Ġhostel":11139,"Ġenemy":11140,"Sh":11141,"Ġsou":11142,"atta":11143,"diwali":11144,"Ġconcent":11145,"Ġshipping":11146,"Ġdecades":11147,"Ġrkhna":11148,"game":11149,"Ġruled":11150,"Ġsubscription":11151,"deep":11152,"Ġ120":11153,"ĠAir":11154,"___":11155,"Ġvacation":11156,"Beta":11157,"Ġdushmani":11158,"Ġkhubsurat":11159,"Ġdefeat":11160,"such":11161,"Ġdd":11162,"Ġinsane":11163,"zeb":11164,"Ġ2013":11165,"Ġwakt":11166,"Sach":11167,"nishant":11168,"Ġdara":11169,"usted":11170,"Ġparega":11171,"tware":11172,"Ġlakho":11173,"Hindu":11174,"duniya":11175,"ĠChal":11176,"Ġoffend":11177,"Ġ78":11178,"Ġkarao":11179,"Ġkarv":11180,"chat":11181,"Ġchlo":11182,"baar":11183,"Ġjanuary":11184,"Ġhelps":11185,"Ġchhota":11186,"Isko":11187,"Ġkosis":11188,"bigg":11189,"Ġrashtra":11190,"uh":11191,"Ġravi":11192,"Ġbhikari":11193,"Ġbelt":11194,"ĠPA":11195,"ĠPo":11196,"ĠHoga":11197,"Ġequality":11198,"Ġtargets":11199,"Ġkamaal":11200,"Ġporn":11201,"SC":11202,"dari":11203,"Ġaun":11204,"Ġresour":11205,"belie":11206,"Ġfeliz":11207,"Ġdange":11208,"Ġaish":11209,"ĠDis":11210,"Ġcompleted":11211,"Ġfell":11212,"ĠHume":11213,"Ġchindi":11214,"Ġmasi":11215,"kets":11216,"Ġanpadh":11217,"oly":11218,"Ġ,,,":11219,"Ġdong":11220,"ĠGust":11221,"Ġcaring":11222,"Ġmall":11223,"Ġparas":11224,"tumhari":11225,"Ġabey":11226,"Ġaltern":11227,"actions":11228,"Ġtaras":11229,"Ġ91":11230,"Ġdaru":11231,"Ġneglect":11232,"',":11233,"54":11234,"bon":11235,"Ġdeter":11236,"Ġsunai":11237,"ðŁ¤£ðŁ¤£ðŁ¤£ðŁ¤£ðŁ¤£":11238,"Ġdalne":11239,"Ġcabinet":11240,"umma":11241,"Ġkerta":11242,"Ġdikhi":11243,"Ġhaalat":11244,"Ġaand":11245,"Ġsoya":11246,"manshi":11247,"Ġbhii":11248,"ĠBata":11249,"Ġ06":11250,"Ġphilos":11251,"Ġdish":11252,"Ġdii":11253,"ĠKing":11254,"Ġurge":11255,"Ġdetail":11256,"Ġnetflix":11257,"Ġindirectly":11258,"Ġdisagree":11259,"pla":11260,"Ġaisay":11261,"Ġbadhai":11262,"Ġfrm":11263,"Ġbhaad":11264,"Ġneet":11265,"Ġganja":11266,"ĠðŁĺĴðŁĺĴ":11267,"ĠRajiv":11268,"Ġhint":11269,"Ġloop":11270,"lia":11271,"Ġnikale":11272,"Ġcelebrities":11273,"PP":11274,"ĠSM":11275,"ĠHI":11276,"ĠFe":11277,"ĠYaha":11278,"Ġpractical":11279,"Bol":11280,"NO":11281,"ns":11282,"Ġtez":11283,"oples":11284,"Ġasks":11285,"Ġnoti":11286,"Ġilaj":11287,"Ġcricketers":11288,"cos":11289,"Ġratio":11290,"lah":11291,"ĠSorry":11292,"Ġrelative":11293,"Ġrelations":11294,"Ġroot":11295,"Ġkisika":11296,"Ġbroad":11297,"Ġchildhood":11298,"Ġrelief":11299,"Ġmeanwhile":11300,"ĠSad":11301,"Ġshareef":11302,"Ġsupports":11303,"pable":11304,"Ġrkho":11305,"Ġgall":11306,"ĠKon":11307,"Ġpuchne":11308,"ðŁĮĿ":11309,"Ġattacks":11310,"Ġsemester":11311,"Ġstunt":11312,"ĠSw":11313,"Ġkhaana":11314,"Ġkamane":11315,"Ġjanna":11316,"Ġjagha":11317,"UST":11318,"Ġcomfort":11319,"Ġbanati":11320,"Ġlikhta":11321,"aapne":11322,"Khud":11323,"Ġadvertisement":11324,"ðŁ¤ĵ":11325,"Ġpose":11326,"Ġkisike":11327,"blem":11328,"Ġcheer":11329,"ĠYaar":11330,"Ġ97":11331,"Ġyahaan":11332,"Ġkuc":11333,"Ġpoocha":11334,"encies":11335,"Ġbahen":11336,"hindi":11337,"Ġaggression":11338,"Ġgods":11339,"Ġcrap":11340,"Ġwagera":11341,"Om":11342,"Ġdher":11343,"Ġlights":11344,"shyam":11345,"Ġgrateful":11346,"ĠðŁĲį":11347,"Ġgri":11348,"Ġstardom":11349,"Ġgunah":11350,"Ġaatma":11351,"oles":11352,"Ġheat":11353,"ĠAustralia":11354,"Ġswi":11355,"Ġpahun":11356,"Ġpda":11357,"Ġmoose":11358,"ĠIndians":11359,"Ġfeature":11360,"Ġgrace":11361,"WE":11362,"Ġladkiyan":11363,"Ġextend":11364,"venue":11365,"URU":11366,"Ġmishra":11367,"ĠAK":11368,"ĠSach":11369,"ophi":11370,"Ġmooh":11371,"Ġump":11372,"Ġriots":11373,"CB":11374,"ĠYes":11375,"Ġprivi":11376,"Ġfever":11377,"ðŁĮ¸":11378,"Ġunivers":11379,"ĠNawaz":11380,"Ġtechni":11381,"Ġgaz":11382,"Ġcurrency":11383,"Ġkarr":11384,"jaz":11385,"Ġjiju":11386,"saal":11387,"ANG":11388,"Ġkhula":11389,"Ġgifts":11390,"ðŁĳİðŁĳİ":11391,"Bha":11392,"atra":11393,"Ġoye":11394,"Ġcros":11395,"Ġjayga":11396,"Ġgrowing":11397,"Ġcher":11398,"ĠðŁĹ":11399,"ĠWill":11400,"Ġbench":11401,"Ġdivide":11402,"Ġgunda":11403,"People":11404,"ĠSouth":11405,"Ġrealised":11406,"watch":11407,"Ġht":11408,"Ġkarate":11409,"akat":11410,"Ġtail":11411,"angzeb":11412,"oria":11413,"ĠðŁĻıðŁı¼":11414,"Ġashamed":11415,"yor":11416,"Ġcomprom":11417,"qt":11418,"Ġoverthin":11419,"known":11420,"inki":11421,"ĠSai":11422,"Ġtaklif":11423,"Ġshr":11424,"Ġjeetenge":11425,"EWERS":11426,"Ġraksha":11427,"Ġexpensive":11428,"Ġkhatra":11429,"Ġadvantage":11430,"ele":11431,"Ġghut":11432,"Ġrecru":11433,"eshak":11434,"Ġrefuge":11435,"Ġvarious":11436,"Ġprateek":11437,"Ġkayi":11438,"tech":11439,"Ġparesha":11440,"ĠSon":11441,"Ġtrs":11442,"Qu":11443,"bang":11444,"Ġmohammad":11445,"Ġdonate":11446,"Ġsamja":11447,"Ġamar":11448,"Ġ43":11449,"Ġshilpa":11450,"ĠGurus":11451,"ĠðŁĸ¤":11452,"Ġchhodo":11453,"After":11454,"ugu":11455,"Ġloser":11456,"Ġrubi":11457,"Ġpink":11458,"Ġhatt":11459,"Ġbabe":11460,"Ġtro":11461,"Ġfaad":11462,"acin":11463,"Ġfighter":11464,"Ġislamabad":11465,"Ġdancing":11466,"Ġinspired":11467,"petrol":11468,"Ġkamzor":11469,"Ġsales":11470,"ðŁı¿":11471,"Ġbrahman":11472,"Ġlion":11473,"ĠðŁĺ«":11474,"ĠPolice":11475,"Ġtend":11476,"kaash":11477,"Ġbtaye":11478,"Ġturns":11479,"bina":11480,"Ġhori":11481,"Ġlil":11482,"Ġvha":11483,"chay":11484,"Ġbias":11485,"ggy":11486,"arshan":11487,"Ġlearned":11488,":(":11489,"jam":11490,"Ġkor":11491,"Ġdilwa":11492,"Ġprivacy":11493,"Ġmagna":11494,"Your":11495,"oute":11496,"class":11497,"Ġdocument":11498,"Ġsensitive":11499,"Ġnaagin":11500,"Ad":11501,"bach":11502,"Ġfriendly":11503,"Ġ.......":11504,"Ġcustomers":11505,"ĠTUM":11506,"ĠNor":11507,"Ġ54":11508,"Ġachche":11509,"Ġdump":11510,"Ġghuma":11511,"Ġlabour":11512,"Ġward":11513,"Ġsavage":11514,"stroke":11515,"Ġchoda":11516,"Ġpassing":11517,"Ġtransport":11518,"Ġâļ":11519,"Ġconfirmed":11520,"official":11521,"mony":11522,"Ġchest":11523,"Ġswing":11524,"utt":11525,"ĠBina":11526,"Ġshahid":11527,"Ġsiya":11528,"Ġrip":11529,"ksh":11530,"Ġvicky":11531,"UJHE":11532,"Ġhelicopter":11533,"year":11534,"Ġhasta":11535,"Ġpuchh":11536,"Ġtrha":11537,"fective":11538,"acchi":11539,"Ġsides":11540,"Ġkahne":11541,"estly":11542,"acting":11543,"Ġdiscrimin":11544,"add":11545,"Ġeurope":11546,"ĠBat":11547,"Ġ:/":11548,"ĠBengal":11549,"Ġsurname":11550,"ĠOur":11551,"Ġedited":11552,"Bu":11553,"ithout":11554,"Ġshukar":11555,"Ġexplanation":11556,"Ġhazam":11557,"Ġitem":11558,"owing":11559,"Ġconcl":11560,"Ġboost":11561,"Ġarm":11562,"Ġcomedian":11563,"ave":11564,"Ġmahal":11565,"Ġshaurya":11566,"Ġdhara":11567,"Ġtok":11568,"Ġyai":11569,"ĠKYA":11570,"muj":11571,"Ġbooster":11572,"Only":11573,"Kash":11574,"Ġaesi":11575,"Ġkidding":11576,"Ġjim":11577,"ĠLol":11578,"Ġadjust":11579,"dost":11580,"Ġbother":11581,"Ġbayan":11582,"Ġmarty":11583,"Ġsisters":11584,"Ġtumari":11585,"Ġnose":11586,"Ġsight":11587,"ĠðŁ¤ŀ":11588,"Ġdaam":11589,"ukari":11590,"Ġvarun":11591,"istics":11592,"Ġcylinder":11593,"Ġjeb":11594,"thik":11595,"Ġacknow":11596,"Ġconse":11597,"Ġbadhe":11598,"ukr":11599,"trend":11600,"ĠParty":11601,"Ġgupta":11602,"Ġtripura":11603,"eeee":11604,"ĠMaa":11605,"nific":11606,"ĠLot":11607,"anya":11608,"rohi":11609,"Ġbatain":11610,"Ġportal":11611,"vision":11612,"Ġchakar":11613,"ĠBadi":11614,"Ġsidd":11615,"Ġilaaj":11616,"Ġtelegram":11617,"Ġreduce":11618,"Ġjhagda":11619,"Bus":11620,"vya":11621,"lli":11622,"ulture":11623,"ikh":11624,"Ġaisy":11625,"Ġpatni":11626,"Ġrawat":11627,"Ġmaid":11628,"Ġiyer":11629,"ĠFar":11630,"Ġcahiye":11631,"Ġummeed":11632,"ĠLast":11633,"Ġscotland":11634,"Ġsummer":11635,"illah":11636,"Ġnoi":11637,"arious":11638,"Ġesse":11639,"Ġmamla":11640,"ourt":11641,"Ġnok":11642,"Ġchize":11643,"Ġakbar":11644,"ðŁ§¿ðŁ§¿":11645,"Ġkharaab":11646,"Ġjune":11647,"Ġ08":11648,"Ġearned":11649,"Ġistemal":11650,"Ġparha":11651,"Ġsalvation":11652,"Delhi":11653,"pok":11654,"Ġbdi":11655,"unning":11656,"drop":11657,"Ġchuda":11658,"Ġ01":11659,"Ġcareful":11660,"Ġrelationships":11661,"Ġassume":11662,"Ġzayada":11663,"rol":11664,"Ġbisa":11665,"stal":11666,"ðŁĴĽ":11667,"Ġ44":11668,"Ġconfession":11669,"Ġcontinues":11670,"Ġdedicated":11671,"ĠBig":11672,"ĠðŁĺŃâĿ¤":11673,"Ġinsul":11674,"Ġkidney":11675,"enix":11676,"ĠEngland":11677,"Ġmotivate":11678,"Ġbreath":11679,"asam":11680,"Ġliay":11681,"Ġwahin":11682,"Ġlagai":11683,"Ġmini":11684,"ĠInke":11685,"Ġvalu":11686,"ĠQUE":11687,"mies":11688,"Ġworker":11689,"ðŁ¤¦ðŁı»âĢįâĻĢï¸ı":11690,"Ġkarny":11691,"Ġjanata":11692,"Ġ71":11693,"gue":11694,"Ġpine":11695,"ðŁĺļ":11696,"Ġaaplog":11697,"Ġlagenge":11698,"Ġakshara":11699,"Ġct":11700,"ðŁĺ·":11701,"Ġlake":11702,"Ġshayd":11703,"Ġmahina":11704,"Ġvapis":11705,"Raj":11706,"nh":11707,"Ġcara":11708,"Ġey":11709,"Ġndtv":11710,"kyunki":11711,"ĠðŁıĨ":11712,"omato":11713,"sas":11714,"absolute":11715,"Ġkhwab":11716,"Mar":11717,"aches":11718,"ĠBach":11719,"Ġmuhabbat":11720,"ĠâĿ¤âĿ¤âĿ¤":11721,"ugs":11722,"Aa":11723,"irls":11724,"ĠKarachi":11725,"Ġriver":11726,"Ġdrin":11727,"Ġethi":11728,"Ġruko":11729,"Ġrecovery":11730,"nz":11731,"unko":11732,"Ġchaap":11733,"Itne":11734,"ĠðŁĺĶðŁĺĶ":11735,"Ġgraduate":11736,"ĠCHOICE":11737,"Ġtaunt":11738,"Ġcars":11739,"Ġakshu":11740,"stoppable":11741,"Ġrapist":11742,"Ġvice":11743,"Ġ2015":11744,"ports":11745,"Ġkanpur":11746,"odhya":11747,"Ġ:'":11748,"Ġfactory":11749,"Ġhotstar":11750,"Ġjammu":11751,"Ġmarega":11752,"ĠKABAR":11753,"wane":11754,"akhir":11755,"Ġsoy":11756,"rage":11757,"Ġdekhu":11758,"Ġadha":11759,"ĠðŁĳįðŁı»":11760,"Wahi":11761,"Ġlama":11762,"Ġisrael":11763,"Ġmanane":11764,"Ġroy":11765,"Ġoffensive":11766,"chand":11767,"Ġjack":11768,"quiry":11769,"ĠFollow":11770,"Ġhomework":11771,"ĠPradesh":11772,"ĠUsko":11773,"Ġpilot":11774,"/-":11775,"bah":11776,"Ġchase":11777,"wag":11778,"Ġremake":11779,"gie":11780,"ĠðŁĴ«":11781,"Ġyoga":11782,"Ġmsp":11783,"icks":11784,"Ġvoy":11785,"Ġdefinition":11786,"Ġdropped":11787,"ðŁĴĲðŁĴĲ":11788,"vable":11789,"Ġwada":11790,"ĠStar":11791,"ĠJin":11792,"Ġbulate":11793,"Ġslot":11794,"ĠðŁĺľðŁĺľ":11795,"Ġfitness":11796,"month":11797,"Ġreviews":11798,"Ġhau":11799,"Ġwb":11800,"ĠAA":11801,"ĠEV":11802,"Ġtmhe":11803,"Jb":11804,"Tera":11805,"Ġyaheen":11806,"Ġ79":11807,"Ġaankhein":11808,"Ġrecogn":11809,"gment":11810,"Ġraval":11811,"Ġtac":11812,"Ġfacilities":11813,"vr":11814,"Ġlime":11815,"Ġdiet":11816,"Ġpehn":11817,"Ġpeoples":11818,"Ġtrash":11819,"Ġthhe":11820,"Ġintelligence":11821,"Ġberoj":11822,"Ġunit":11823,"Ġiron":11824,"ðŁĺ¡ðŁĺ¡ðŁĺ¡ðŁĺ¡":11825,"pin":11826,"Ġrates":11827,"ĠPyaar":11828,"Ġfacing":11829,"Ġachaa":11830,"Ġjudges":11831,"Ġindic":11832,"Ġ370":11833,"Ġbnta":11834,"Max":11835,"Ġleap":11836,"ðŁĻıðŁı¼":11837,"baba":11838,"Ġrw":11839,"ĠPE":11840,"Ġdram":11841,"aapki":11842,"Ġchaddi":11843,"Ġpurchase":11844,"Ġreached":11845,"unhe":11846,"ĠAccha":11847,"Ġbartan":11848,"Ġtumara":11849,"maa":11850,"Ġtruck":11851,"Ġkutti":11852,"otic":11853,"Ġkahu":11854,"Ġaaa":11855,"ĠGreat":11856,"Ġdaya":11857,"Ġaccom":11858,"versy":11859,"ATE":11860,"Ġsaste":11861,"LI":11862,"Ġbrings":11863,"Ġappeal":11864,"Ġarticles":11865,"isode":11866,"ariya":11867,"Ġscroll":11868,"Ġsaktay":11869,"----":11870,"Ġnaha":11871,"Ġgaree":11872,"Ġvalues":11873,"Ġpsl":11874,"ulaad":11875,"cers":11876,"yah":11877,"ald":11878,"Ġreti":11879,"Ġpandya":11880,"Ġprincip":11881,"UB":11882,"Ġprr":11883,"Ġneck":11884,"Ġtrouble":11885,"Ġzid":11886,"ĠðŁĺĬðŁĺĬ":11887,"Right":11888,"Ġlift":11889,"humare":11890,"Ġsidhe":11891,"ursday":11892,"Ġinstall":11893,"Ġtikait":11894,"atable":11895,"Ġmangi":11896,"Ġbibi":11897,"ĠLF":11898,"Ġcheen":11899,"Ġsomehow":11900,"khar":11901,"Ġtumlogo":11902,"Ġshots":11903,"Ġburger":11904,"ĠSho":11905,"ĠðŁĺĨðŁĺĨ":11906,"Ġclimate":11907,"utions":11908,"Ġhussain":11909,"neha":11910,"Ġchode":11911,"Ġgalati":11912,"Ġdaba":11913,"sala":11914,"ĠGAYA":11915,"Ġluv":11916,"Ġslap":11917,"aunty":11918,"gil":11919,"Ġhong":11920,"erna":11921,"Ġnain":11922,"Ġreli":11923,"ĠCar":11924,"ĠðŁ¤²":11925,"Ġanybody":11926,"Ġdeveloped":11927,"nap":11928,"ĠðŁĺĪ":11929,"Ġsty":11930,"Ġ51":11931,"Ġconstant":11932,"ĠFirst":11933,"ĠTest":11934,"Ġdikhayenge":11935,"Ġgeni":11936,"sabko":11937,"Ġsurgery":11938,"ĠKatrina":11939,"Ġkrungi":11940,"Ġstree":11941,"wafa":11942,"maybe":11943,"ben":11944,"rohit":11945,"Ġamor":11946,"Ġdying":11947,"ðŁĴ¥ðŁĴ¥":11948,"ware":11949,"Ġprint":11950,"Ġparso":11951,"Ġmoot":11952,"ĠPappu":11953,"Ġhindustani":11954,"Ġbacchon":11955,"ĠDar":11956,"choti":11957,"Ġyrr":11958,"Ġearning":11959,"safed":11960,"guruji":11961,"Ġwide":11962,"Ġsaa":11963,"jye":11964,"Ġinme":11965,"Ġlibr":11966,"oug":11967,"Ġ57":11968,"Ġassembly":11969,"bht":11970,"anna":11971,"Ġmahol":11972,"ahore":11973,"Ġauction":11974,"Ġsignal":11975,"ĠChin":11976,"Ġ5000":11977,"chistan":11978,"Ġorders":11979,"Chal":11980,"teen":11981,"Ġunstoppable":11982,"Time":11983,"Ġiv":11984,"Ġuae":11985,"ĠðŁĺĮðŁĺĮ":11986,"Ġcommittee":11987,"Ġmumma":11988,"Ġpackage":11989,"Ġsakoon":11990,"Ġanytime":11991,"Ġ81":11992,"Ġpenal":11993,"Ġregion":11994,"Ġselective":11995,"Ġcondemn":11996,"Ġmala":11997,"ĠFIR":11998,"Ġheader":11999,"SA":12000,"Ġnaal":12001,"uni":12002,"Ġchuk":12003,"Ġshauk":12004,"ĠRep":12005,"Ġeviction":12006,"Ġrhti":12007,"Ġdust":12008,"Ġsako":12009,"Ġbachao":12010,"Ġoppose":12011,"Ġtejaswi":12012,"Ġhaiii":12013,"Ġhina":12014,"Ġmanna":12015,"ĠðŁĺŃðŁ¤£":12016,"ogical":12017,"Ġkhelenge":12018,"Ġuthana":12019,"Ġpvt":12020,"Ġkarl":12021,"Ġ02":12022,"ĠTeju":12023,"audi":12024,"Ġidols":12025,"Ġwrest":12026,"Ġbale":12027,"amond":12028,"nag":12029,"Ġapan":12030,"Ġinternal":12031,"Ġhorror":12032,"89":12033,"ĠShow":12034,"Ġbharose":12035,"ĠEs":12036,"force":12037,"ANT":12038,"Ġpromoting":12039,"Ġphoenix":12040,"ĠðŁ§Ĳ":12041,"ĠBhagwan":12042,"Dr":12043,"arth":12044,"Ġdms":12045,"amed":12046,"Ġislie":12047,"kie":12048,"Ġalthough":12049,"Ġkahaan":12050,"Ġbsp":12051,"Ġwriters":12052,"Ġkamai":12053,"Ġmani":12054,"Ġkamjor":12055,"Ġ82":12056,"Ġbengali":12057,"ĠUnke":12058,"tabhi":12059,"Ġprati":12060,"Ġlazy":12061,"rier":12062,"Ġsiva":12063,"Ġinsurance":12064,"Ġdeposit":12065,"Ġsoftware":12066,"Yahi":12067,"Ġffs":12068,"Ġkaraya":12069,"ĠARE":12070,"Ġmint":12071,"aisi":12072,"idays":12073,"Ġchowk":12074,"Ġdalte":12075,"ĠMedia":12076,"Ġgaliyan":12077,"ĠLife":12078,"Ġgranted":12079,"Ġhopes":12080,"ĠUK":12081,"Ġbachho":12082,"Ġlevels":12083,"Ġconnected":12084,"absolutely":12085,"Ġcree":12086,"iri":12087,"Ġretweets":12088,"Ġwaap":12089,"ĠðŁ¤¨":12090,"Ġkarey":12091,"Ġsukh":12092,"Ġtemporary":12093,"Ġmangta":12094,"Ta":12095,"Ġwer":12096,"Ġinfor":12097,"Ġaawaz":12098,"ĠAsi":12099,"ðŁĻĨ":12100,"ðŁ¤©ðŁ¤©":12101,"yehi":12102,"Ġbaik":12103,"Ġpele":12104,"ĠAmir":12105,"Ġpatt":12106,"ðŁ¥ºâĿ¤":12107,"Ġhatao":12108,"Ġthakur":12109,"Ġsources":12110,"Ġencourage":12111,"akers":12112,"Ġexerc":12113,"Ġdisplay":12114,"Ġ76":12115,"kyou":12116,"Ġthali":12117,"Ġlaut":12118,"Ġguard":12119,"dhan":12120,"Ġrts":12121,"ente":12122,"ĠAmb":12123,"Ġaapna":12124,"Ġkham":12125,"Ġsuperb":12126,"Ġfranchise":12127,"Ġnala":12128,"chle":12129,"Ġkehty":12130,"Ġsurvey":12131,"Ġfaced":12132,"77":12133,"hPa":12134,"tte":12135,"Ġkes":12136,"inc":12137,"amaz":12138,"Ġmaane":12139,"Ġmock":12140,"Ġhamen":12141,"Ġ600":12142,"kuchh":12143,"Ġpatients":12144,"ĠTar":12145,"Ġkaunsi":12146,"Ġletting":12147,"insta":12148,"ĠðŁİ¶":12149,"Ġpesa":12150,"Ġgayee":12151,"Ġhardly":12152,"Ġflex":12153,"idya":12154,"Ġbills":12155,"ĠGet":12156,"Ġarms":12157,"Ġprepare":12158,"Ġjalti":12159,"Ġpropos":12160,"ĠBaaki":12161,"Ġehsaas":12162,"Ġemployee":12163,"pas":12164,"Ġhala":12165,"ortion":12166,"ĠBecause":12167,"Ġstal":12168,"ĠMam":12169,"ĠJohn":12170,"Ġutter":12171,"Ġsilver":12172,"Ġtujhko":12173,"Ġinsecurity":12174,"Ġdaikh":12175,"chayat":12176,"nothing":12177,"Ġhojati":12178,"Ġacademy":12179,"Ġstor":12180,"ĠSana":12181,"Ġpakistanis":12182,"Ġcouldnt":12183,"Ġlgega":12184,"Ġseparate":12185,"Ġwk":12186,"atiya":12187,"Ġsoap":12188,"Ġbutt":12189,"ĠJam":12190,"being":12191,"Ġshipper":12192,"Ġmayor":12193,"Ġachchi":12194,"ĠDevo":12195,"Ġlakhs":12196,"cutive":12197,"Ġallegations":12198,"Ġâı°":12199,"Ġroutine":12200,"Ġtoken":12201,"Ġghee":12202,"Ġsep":12203,"eev":12204,"Ġtarfa":12205,"Ġkhich":12206,"Ġgiveaway":12207,"ĠSahab":12208,"Ġaqal":12209,"kitni":12210,"nal":12211,"ato":12212,"ĠMC":12213,"Ġagya":12214,"oks":12215,"ĠOff":12216,"Ġextension":12217,"Ġcriminals":12218,"Kar":12219,"sung":12220,"Ġmoots":12221,"Ġzeher":12222,"Ġjet":12223,"Ġtherap":12224,"Ġnotifications":12225,"Ġgia":12226,"ĠðŁĴļ":12227,"pressed":12228,"Ġcharm":12229,"ĠTweet":12230,"Ġhama":12231,"Ġhila":12232,"Ġkedar":12233,"Ġbaton":12234,"Ġadvoc":12235,"Ġselected":12236,"Ġashwin":12237,"Ġpahucha":12238,"Ġchaho":12239,"ĠBaba":12240,"Ġvips":12241,"chill":12242,"Ġclaims":12243,"ðŁĴĸðŁĴĸ":12244,"Ġloyalty":12245,"Ġridic":12246,"Ġnikalti":12247,"Ġhoe":12248,"Ġstood":12249,"ĠNational":12250,"Ġshadab":12251,"ridor":12252,"Ġcrossed":12253,"uz":12254,"Ġchas":12255,"Ġuncom":12256,"Ġjihadi":12257,"Ġfinding":12258,"Ġnomination":12259,"rak":12260,"Ġpages":12261,"Ġhardwork":12262,"Ġempower":12263,"rypto":12264,"ĠCent":12265,"ĠðŁĳıðŁĳıðŁĳı":12266,"Ġrealized":12267,"Ġlived":12268,"ĠChar":12269,"Ġkhoobs":12270,"ĠðŁ¤¦âĢįâĻĤï¸ı":12271,"order":12272,"Ġlaane":12273,"Ġhamre":12274,"Ġgandagi":12275,"faz":12276,"Ġsaas":12277,"mbol":12278,"icies":12279,"Ġdice":12280,"Ġsaj":12281,"Ġtees":12282,"Ġspine":12283,"formation":12284,"Ġdigest":12285,"Ġroshan":12286,"aram":12287,"Ġyellow":12288,"ĠMandir":12289,"Ġ03":12290,"Ġjanwar":12291,"Ġbuss":12292,"Ġsanjay":12293,"Ġbnao":12294,"Ġdeaths":12295,"Ġconstruction":12296,"Ġamerican":12297,"ĠKapoor":12298,"Cor":12299,"press":12300,"Ġisl":12301,"Ġtabiyat":12302,"Yo":12303,"Ġwallet":12304,"Ġchore":12305,"Ġthanku":12306,"ankwadi":12307,"Ġzamane":12308,"Ġauthority":12309,"ĠAmerica":12310,"beech":12311,"cm":12312,"Ġnick":12313,"Ġkim":12314,"ĠTake":12315,"Ġbhol":12316,"Ġmaarna":12317,"Ġruined":12318,"Ġrequire":12319,"ĠZindagi":12320,"?.":12321,"sara":12322,"Ġwood":12323,"Ġensure":12324,"tumhara":12325,"Ġhalal":12326,"Ġsachai":12327,"Ġsacrific":12328,"asthampton":12329,"mantri":12330,"lin":12331,"Ġjaroori":12332,"ĠSAL":12333,"Ġaapas":12334,"ĠChota":12335,"Ġthandi":12336,"Ġpehcha":12337,"Ġtaxes":12338,"ðŁĶ¥ðŁĶ¥ðŁĶ¥":12339,"Ġkarre":12340,"rees":12341,"ĠHer":12342,"Bhaiya":12343,"Ġrecording":12344,"Ġmangte":12345,"Ġrevolution":12346,"Ġqualified":12347,"Ġuttarakhand":12348,"MA":12349,"ela":12350,"Ġnaukari":12351,"Ġmarji":12352,"Ġdelusion":12353,"Ġelected":12354,"BB":12355,"Hn":12356,"sai":12357,"ðŁĳĬ":12358,"Ġgenoc":12359,"Iska":12360,"hmi":12361,"Ġber":12362,"andan":12363,"Ġsabr":12364,"kaam":12365,"Ġdocuments":12366,"Ġaulaad":12367,"Ġhag":12368,"ĠðŁĺĸ":12369,"Ġbary":12370,"ĠEN":12371,"Ġidenti":12372,"Ġaasan":12373,"Ġcontroversy":12374,"Ġtah":12375,"Ġpct":12376,"Ġyani":12377,"aks":12378,"Ġability":12379,"cient":12380,"Ġpaki":12381,"Ġburst":12382,"Ġfestivals":12383,"Ġrestaurant":12384,"Ġplastic":12385,"ĠDena":12386,"Ġexperts":12387,"ĠðŁĺĢðŁĺĢ":12388,"dn":12389,"Ġaint":12390,"Ġdeleted":12391,"Ġthai":12392,"ĠShad":12393,"Ġwalking":12394,"ĠPAR":12395,"Ġguid":12396,"Ġkheli":12397,"Ġissliye":12398,"Also":12399,"43":12400,"Ġppp":12401,"ĠAme":12402,"ĠJaan":12403,"ĠSSR":12404,"always":12405,"Ġvat":12406,"Ġseekho":12407,"Ġjalte":12408,"Ġcourts":12409,"Ġ2011":12410,"69":12411,"pen":12412,"police":12413,"Ġcapt":12414,"olio":12415,"Ġpregnant":12416,"Great":12417,"mom":12418,"Ġhavent":12419,"Ġliqu":12420,"Ġjaon":12421,"Ġgunde":12422,"Sub":12423,"Ġlata":12424,"Ġkareeb":12425,"Ġdeya":12426,"Ġplaylist":12427,"Ġcoinc":12428,"Ġdesperate":12429,"Ġsaanp":12430,"baaki":12431,"Hahahaha":12432,"ðŁĴľðŁĴľ":12433,"LL":12434,"xit":12435,"Ġsewa":12436,"Ġaspir":12437,"Ġbihari":12438,"Ġyounger":12439,"ðŁ¤®ðŁ¤®":12440,"Ġjameen":12441,"Ġrae":12442,"Ġboi":12443,"vote":12444,"igare":12445,"Ġdhanda":12446,"Ġirritate":12447,"ðŁİĤðŁİĤ":12448,"Ġkph":12449,"Ġvlog":12450,"Ġunblock":12451,"oder":12452,"ardari":12453,"Ġhyderabad":12454,"Ġpuchte":12455,"Ġeffective":12456,"Ġbreat":12457,"Ġeternal":12458,"Ġpatra":12459,"Ġepic":12460,"ĠRahe":12461,"Ġconstantly":12462,"call":12463,"udhary":12464,"ĠHUM":12465,"Ġroast":12466,"Ġpalla":12467,"breaking":12468,"Ġdanda":12469,"taar":12470,"rel":12471,"gair":12472,"Ġhumour":12473,"ĠMad":12474,"Ġlagayi":12475,"Ġremoved":12476,"ĠMEIN":12477,"Ġpossessive":12478,"fun":12479,"Ġmahaan":12480,"Ġarent":12481,"Ġpassport":12482,"hammed":12483,"Ġaankhe":12484,"Ġadministration":12485,"Ġkrk":12486,"ĠJana":12487,"Ġblas":12488,"Ġawaj":12489,"Ġdedication":12490,"stri":12491,"post":12492,"Ġitihas":12493,"io":12494,"zel":12495,"Ġhassi":12496,"ĠOh":12497,"Ġmenu":12498,"Ġpoetry":12499,"try":12500,"zir":12501,"remember":12502,"Ġroya":12503,"Ġmarenge":12504,"Ġtelecast":12505,"Ġremains":12506,"vate":12507,"ĠðŁĻĬ":12508,"Ġclue":12509,"Ġdharna":12510,"illiam":12511,"ingle":12512,"oler":12513,"rag":12514,"hha":12515,"name":12516,"Ġii":12517,"Ġpolicies":12518,"Ġmaange":12519,"Ġkahta":12520,"Ġlarka":12521,"Ġnetao":12522,"Ġzaman":12523,"ladki":12524,"Ġdang":12525,"Ġdistra":12526,"Ġbum":12527,"ĠAcc":12528,"essi":12529,"ĠMore":12530,"Ġnoor":12531,"ðŁĮŁ":12532,"Ġscripted":12533,"super":12534,"arently":12535,"Ġmaari":12536,"Ġbeach":12537,"Ġ77":12538,"Ġcapable":12539,"ĠðŁĺıðŁĺı":12540,"ĠðŁĺ¹ðŁĺ¹":12541,"ðŁ¤ªðŁ¤ª":12542,"Let":12543,"Mene":12544,"Ġmaq":12545,"Ġdign":12546,"ĠKai":12547,"muslim":12548,"Ġdc":12549,"Ġdict":12550,"Ġvos":12551,"ĠYA":12552,"Ġghalti":12553,"42":12554,"HT":12555,"ujli":12556,"Ġmoved":12557,"Ġbrown":12558,"Ġphotog":12559,"ĠPlz":12560,"Ġracist":12561,"anka":12562,"Ġsoye":12563,"okhi":12564,"pres":12565,"Saare":12566,"Ġpareshaan":12567,"Cho":12568,"Ġwilling":12569,"ðŁĴĭ":12570,"ushka":12571,"Ġarahi":12572,"Ġhass":12573,"Ġsheet":12574,"ocal":12575,"Ġtmhare":12576,"Ġproducer":12577,"Ġshy":12578,"Ġanil":12579,"bear":12580,"Ġdarta":12581,"ĠGovernment":12582,"atleast":12583,"aking":12584,"Ġashi":12585,"jaja":12586,"ĠðŁ¥ºðŁ¥ºðŁ¥º":12587,"Ġeconomics":12588,"Ġdepends":12589,"IP":12590,"kn":12591,"Ġult":12592,"Ġusy":12593,"ĠCEO":12594,"Ġ04":12595,"vidha":12596,"Ġillogical":12597,"Ġabusing":12598,"Ġstreak":12599,"ĠAT":12600,"Ġbadtam":12601,"antra":12602,"Ġsomebody":12603,"Ġcurse":12604,"dden":12605,"Ġconvince":12606,"Ġritesh":12607,"ĠBtw":12608,"Ġvich":12609,"Ġcheese":12610,"Ġfikr":12611,"Ġbheem":12612,"Ġappreciated":12613,"pagal":12614,"soul":12615,"fb":12616,"haal":12617,"Ġrival":12618,"Ġelite":12619,"HANT":12620,"blo":12621,"Ġmeat":12622,"Ġog":12623,"ĠBrit":12624,"Ġvijay":12625,"baby":12626,"Ġfasc":12627,"Ġâĺ¹":12628,"Ġjharkhand":12629,"Ġraw":12630,"akin":12631,"atel":12632,"ĠMAN":12633,"ĠCON":12634,"Ġpadna":12635,"ims":12636,"Ġsustain":12637,"Ġdamad":12638,"Ġseedhe":12639,"Ġaandolan":12640,"Ġble":12641,"Ġnamas":12642,"Ġunknown":12643,"Ġhonga":12644,"ikr":12645,"Ġayesha":12646,"bts":12647,"Ġdera":12648,"ĠðŁĺŁ":12649,"Ġchora":12650,"Ġjabse":12651,"Ġcongratul":12652,"Ġfundament":12653,"Ġax":12654,"Ġhabit":12655,"Ġgk":12656,"Ġyaara":12657,"Ġperhaps":12658,"Ġescap":12659,"Ġappease":12660,"Ġjur":12661,"enger":12662,"Ġimam":12663,"makers":12664,"Ġankhe":12665,"ĠKay":12666,"Ġideal":12667,"Ġirres":12668,"Ġdiscount":12669,"ĠWeather":12670,"Ġsasti":12671,"ujhse":12672,"bhut":12673,"public":12674,"rai":12675,"Ġadam":12676,"Ġkhet":12677,"tleast":12678,"Ġwondering":12679,"Ġflying":12680,"Raat":12681,"udge":12682,"Ġcharcha":12683,"Ġaajaye":12684,"Ġchampions":12685,"Follow":12686,"Sid":12687,"chai":12688,"Ġmiya":12689,"educ":12690,"Ġkhaali":12691,"Ġpadenge":12692,"Aww":12693,"Actually":12694,"Ġpila":12695,"ðŁĺµ":12696,"Ġanand":12697,"enty":12698,"ĠSK":12699,"Ġdikhna":12700,"Ġtesting":12701,"ĠQue":12702,"Ġparag":12703,"gies":12704,"Ġroye":12705,"ĠLena":12706,"ðŁĴ©":12707,"Ġ09":12708,"ĠðŁĴĵ":12709,"Ġranveer":12710,"Ġghost":12711,"Ġnifty":12712,"chit":12713,"Ġcenturies":12714,"ĠStop":12715,"raphi":12716,"Ġneglecting":12717,"Ak":12718,"See":12719,"Ġnaw":12720,"nie":12721,"Ġnamibia":12722,"Ġresources":12723,"pie":12724,"wide":12725,"Ġdudh":12726,"Ġdemean":12727,"Ġmarathi":12728,"Ġpayegi":12729,"58":12730,"Ġhamko":12731,"Ġjanm":12732,"Ġhmne":12733,"ĠThese":12734,"Ġoppon":12735,"exam":12736,"Ġghumne":12737,"Ġaashi":12738,"yakti":12739,"Ġtrees":12740,"ĠðŁĳıðŁĳı":12741,"GET":12742,"Ġdj":12743,"Ġdiss":12744,"Ġrush":12745,"ĠBHAI":12746,"ðŁ¤Į":12747,"Ġkhtam":12748,"Ġagencies":12749,"does":12750,"Ġghussa":12751,"Ġdelivered":12752,"Ġinfluen":12753,"ĠInstagram":12754,"Ġcp":12755,"Ġjapan":12756,"Ġpromised":12757,"Ġinvestors":12758,"Ġrememb":12759,"cratic":12760,"wati":12761,"Ġkrun":12762,"ĠLagta":12763,"pero":12764,"Ġleaves":12765,"ĠDono":12766,"ðŁĴªðŁĴª":12767,"ĠRashid":12768,"Ġholi":12769,"ando":12770,"Ġqua":12771,"Ġbatch":12772,"Ġmadat":12773,"Ġhorrible":12774,"ĠBharath":12775,"ĠRisk":12776,"Ġasaan":12777,"Ġulti":12778,"Ġkiller":12779,"ðŁĺ¬ðŁĺ¬":12780,"shal":12781,"alle":12782,"ĠTra":12783,"Ġasan":12784,"iller":12785,"ĠRukh":12786,"ĠLag":12787,"IND":12788,"bed":12789,"ros":12790,"Ġhc":12791,"Ġflights":12792,"uto":12793,"ĠKY":12794,"Ġdrame":12795,"Ġcancelled":12796,"Ġist":12797,"indly":12798,"ĠVery":12799,"Ġblessing":12800,"Ġrao":12801,"raph":12802,"ĠKR":12803,"Ġtrigger":12804,"Ġthru":12805,"Ġkucch":12806,"Ġcz":12807,"enga":12808,"ppa":12809,"Ġuchal":12810,"Ġwouldnt":12811,"ï¸ıâĢį":12812,"Ġpandey":12813,"Ġdhundh":12814,"ðŁĴĥðŁĴĥ":12815,"dad":12816,"ems":12817,"Ġsae":12818,"Ġreun":12819,"Ġthin":12820,"Ġexit":12821,"Ġgovernance":12822,"ĠÂ®Â®":12823,"IST":12824,"Ġsemis":12825,"Ġsakht":12826,"Ġprasad":12827,"Ġjadeja":12828,"urate":12829,"Ġbhed":12830,"Ġsymbol":12831,"Ġdak":12832,"Ġdeh":12833,"Ġpaaya":12834,"Ġtim":12835,"Ġceremony":12836,"LD":12837,"cute":12838,"gest":12839,"las":12840,"Ġyahin":12841,"ounder":12842,"Ġarchi":12843,"Ġtumhein":12844,"ĠVish":12845,"Ġprachar":12846,"Apni":12847,"Ġrukna":12848,"Ġsmell":12849,"rc":12850,"Ġinsaf":12851,"Ġvrna":12852,"aker":12853,"ĠMiss":12854,"istered":12855,"Ġkholo":12856,"Ġlimits":12857,"Ġtreated":12858,"Ġfingers":12859,"1000":12860,"Ġdating":12861,"ĠGha":12862,"Ġoutrage":12863,"reeb":12864,"ĠUR":12865,"Ġdislike":12866,"Ġjaanti":12867,"ĠMost":12868,"Ġcried":12869,"Kitna":12870,"kg":12871,"Ġgane":12872,"Ġbaas":12873,"ĠAUR":12874,"ĠCHOTA":12875,"Ġhospitals":12876,"Ġkesy":12877,"ĠSkin":12878,"ĠðŁĺħðŁĺħðŁĺħ":12879,"ĠðŁ¤£ðŁ¤£ðŁ¤£ðŁ¤£ðŁ¤£":12880,"Ġsemifinal":12881,"Ġvolume":12882,"Ġmisunderstanding":12883,"imagine":12884,"Ġgm":12885,"Ġkoo":12886,"Ġbored":12887,"Ġdistrib":12888,"ĠðŁļĢ":12889,"Ġadhikar":12890,"):":12891,"zal":12892,"say":12893,"ðŁĹ":12894,"ĠWell":12895,"Ġpana":12896,"Ġhole":12897,"Ġadorable":12898,"Ġneech":12899,"ological":12900,"cricket":12901,"83":12902,"fat":12903,"Ġinner":12904,"Ġaaoge":12905,"Ġpahale":12906,"ĠAryan":12907,"ĠTop":12908,"Ġvoc":12909,"ĠWas":12910,"Ġunemployment":12911,"Jan":12912,"nge":12913,"wish":12914,"Ġace":12915,"Ġprad":12916,"Ġyadi":12917,"Ġwasim":12918,"Ġscoot":12919,"Ġapps":12920,"Ġsaray":12921,"Ġurself":12922,"Ġincreased":12923,"Ġmasterstroke":12924,"Ġnahee":12925,"Ġfantasy":12926,"Baat":12927,"xx":12928,"Ġmandi":12929,"ĠRR":12930,"alized":12931,"Ġbatt":12932,"Ġcraze":12933,"ðŁĴĢðŁĴĢ":12934,"Ġsahb":12935,"Ġmf":12936,"amy":12937,"ribut":12938,"Ġmatal":12939,"hatt":12940,"ðŁĳıðŁı»":12941,"Ġprabhu":12942,"Ġdhand":12943,"Ġkaron":12944,"Ġvu":12945,"ĠKeep":12946,"apt":12947,"ĠHan":12948,"Ġtrick":12949,"Ġfierce":12950,"Ġinstitute":12951,"ðŁĺĺðŁĺĺðŁĺĺðŁĺĺ":12952,"Ġperspective":12953,"Ġgus":12954,"Ġjayein":12955,"Ġwarner":12956,"Ġbitcoin":12957,"ĠVIEWERS":12958,"islam":12959,"ĠðŁĺļ":12960,"Ġachay":12961,"Ġapologize":12962,"Ġtechnique":12963,"ĠSb":12964,"saat":12965,"Ġterrible":12966,"ĠðŁĺĨðŁĺĨðŁĺĨ":12967,"Kha":12968,"father":12969,"Ġspending":12970,"Ġignored":12971,"babwe":12972,"Ġprayer":12973,"Ġkhuli":12974,"Ġpremium":12975,"Ġjaani":12976,"Ġreci":12977,"uls":12978,"ĠBrah":12979,"Ġmashallah":12980,"ocol":12981,"2022":12982,"ï¸ıâ":12983,"ĠNovember":12984,"Ġbewkoof":12985,"Che":12986,"Mus":12987,"fans":12988,"folio":12989,"ĥ£":12990,"Ġgather":12991,"gaon":12992,"Ġbanayenge":12993,"Ġbhaj":12994,"Ġ59":12995,"Ġrahunga":12996,"Ġbaahar":12997,"ï¸ıâĥ£":12998,"kur":12999,"kut":13000,"Ġlac":13001,"ĠKk":13002,"Ġlagake":13003,"lloween":13004,"Ġpodcast":13005,"Hai":13006,"Kam":13007,"school":13008,"Ġwaalon":13009,"Ġignoring":13010,"Ġbadhane":13011,"Ġapproval":13012,"arrey":13013,"Ġpyaare":13014,"Ġreported":13015,"ĠBu":13016,"ĠDal":13017,"shayad":13018,"Ġkatora":13019,"ĠJanuary":13020,"ðŁĺĭðŁĺĭ":13021,"pg":13022,"engl":13023,"need":13024,"Ġund":13025,"Ġgoat":13026,"ĠEX":13027,"Ġenjoyed":13028,"bly":13029,"ĠHon":13030,"Ġfactor":13031,"Ġdaale":13032,"weather":13033,"Ġintegr":13034,"Ġjersey":13035,"aw":13036,"avi":13037,"Ġpeet":13038,"Ġpercen":13039,"ĠVicky":13040,"Ġresolve":13041,"lers":13042,"Ġnin":13043,"Ġchen":13044,"Ġbay":13045,"ĠIve":13046,"Ġcomparing":13047,"Ġurban":13048,"Ġpraying":13049,"Ġofficials":13050,"Ġkhoobsurat":13051,"adays":13052,"Ġhidden":13053,"Ġdoh":13054,"Ġpicked":13055,"ĠKarne":13056,"ĠReal":13057,"ðŁĺ¥ðŁĺ¥":13058,"ĠðŁĺµ":13059,"Ġkhudke":13060,"Ġerror":13061,"Ġdeclared":13062,"65":13063,"national":13064,"ĠGran":13065,"Ġbachha":13066,"Ġaajao":13067,"Desh":13068,"poc":13069,"Ġkong":13070,"Ġbolkar":13071,"Ġwaley":13072,"Ġpatha":13073,"Ġcamer":13074,"Ġexpressions":13075,"CCI":13076,"Ġpreparation":13077,"Rahul":13078,"Today":13079,"iny":13080,"Ġkiyu":13081,"tell":13082,"akes":13083,"Ġarnab":13084,"ĠElection":13085,"fying":13086,"Ġmirza":13087,"Ġnach":13088,"Ġnaach":13089,"Ġshikay":13090,"ðŁĮº":13091,"Ġmassage":13092,"ĠRajasthan":13093,"ĠSidharth":13094,"ŀ¡":13095,"Ġlut":13096,"Ġkaar":13097,"Ġsaif":13098,"Ġlety":13099,"Ġaree":13100,"Ġdekhle":13101,"Ġclin":13102,"Ġ74":13103,"Ġautomatically":13104,"Ġumpire":13105,"oughout":13106,"Ġancest":13107,"ĠKashi":13108,"udwara":13109,"ĠHaan":13110,"Ġlado":13111,"Ġthanda":13112,"pakistani":13113,"ĠIPL":13114,"Ġreminds":13115,"Ġantar":13116,"Ġgaurav":13117,"apke":13118,"ions":13119,"ðŁĻģ":13120,"Ġchit":13121,"Ġstudio":13122,"Ġhorahi":13123,"Ġsuggestions":13124,"bre":13125,"Ġcigare":13126,"Ġapas":13127,"assador":13128,"Ġspark":13129,"Ġgrp":13130,"bie":13131,"Ġbhagat":13132,"chandi":13133,"Ġpremier":13134,"Ġarijit":13135,"Ġodisha":13136,"itan":13137,"ĠHigh":13138,"Ġaty":13139,"going":13140,"ĠKaren":13141,"Ġmehsoos":13142,"Ġaankho":13143,"Ġdollars":13144,"Ġprepared":13145,"Ġacqu":13146,"Ġturning":13147,"singh":13148,"Res":13149,"another":13150,"Ġsaha":13151,"Ġaache":13152,"ĠCourt":13153,"Ġbimar":13154,"Ġbadalne":13155,"Ġpopat":13156,"those":13157,"Ġdoosra":13158,"nl":13159,"zo":13160,"Ġtala":13161,"vention":13162,"pair":13163,"bow":13164,"Ġais":13165,"Ġpon":13166,"Ġchate":13167,"Ġhumor":13168,"ĠðŁĻĨ":13169,"Ġcloser":13170,"Ġbullet":13171,"??????":13172,"cloud":13173,"ĠHu":13174,"ĠPlay":13175,"Ġumr":13176,"Ġ64":13177,"Ġmamle":13178,"Ġindira":13179,"Ġcriticise":13180,"Ġwildcard":13181,"ĠVishal":13182,"ół":13183,"Ġks":13184,"Ġsma":13185,"Ġfay":13186,"hok":13187,"hoo":13188,"ĠHAHAHA":13189,"Ġchairman":13190,"ĠAkshay":13191,"Ġglorious":13192,"ółģ":13193,"ilities":13194,".........":13195,"Ġsonia":13196,"Ġnikki":13197,"Ġnikali":13198,"bhagwan":13199,"Ġdepressed":13200,"Ġdivid":13201,"ĠJaa":13202,"china":13203,"Ġcolleges":13204,"Ġchurch":13205,"Dekho":13206,"Seriously":13207,"welcome":13208,"Ġhoun":13209,"Ġsaya":13210,"ĠBs":13211,"Ġkhaate":13212,"Ġgrave":13213,"Ġpora":13214,"Ġcurious":13215,"Ġpace":13216,"ford":13217,"Ġforecast":13218,"Ġkanun":13219,"akshan":13220,"Ġquota":13221,"ĠWC":13222,"Ġmarti":13223,"Ġajkal":13224,"Ġtypical":13225,"Ġvaidya":13226,"Ġniklega":13227,"Ġbitha":13228,"Ġbajay":13229,"67":13230,"unity":13231,"leep":13232,"Ġyess":13233,"Ġyam":13234,"ede":13235,"ĠMi":13236,"Ġfac":13237,"Ġalright":13238,"shek":13239,"Ġassam":13240,"Ġeffects":13241,"Ġchipka":13242,"Ġaansu":13243,"Ġuncomfortable":13244,"Ġbold":13245,"Ġwahe":13246,"Ġbiology":13247,"Ġkale":13248,"Ġirre":13249,"ðŁļ¨":13250,"Ġcommitment":13251,"Ġlafz":13252,"ein":13253,"wash":13254,"Ġgest":13255,"ĠIll":13256,"ĠBank":13257,"Ġshayari":13258,"Ġcruel":13259,"tical":13260,"galat":13261,"Yaha":13262,"kashmir":13263,"Ġbite":13264,"hii":13265,"Ġano":13266,"Ġlau":13267,"stitution":13268,"ĠBana":13269,"ĠPL":13270,"Ġroyal":13271,"Ġmentions":13272,"Ġreligions":13273,"sometimes":13274,"Ġhilarious":13275,"Ġreverse":13276,"Ġbolungi":13277,"Ġpoco":13278,"Ġrhaa":13279,"Ġgire":13280,"Ġhalka":13281,"Ġhitting":13282,"Ġpushed":13283,"Ġcouples":13284,"Ġmg":13285,"yay":13286,"Ġjy":13287,"Ġstrange":13288,"Ġ?!":13289,"Ġawar":13290,"Ġkholi":13291,"Because":13292,"Ġjunior":13293,"Ġeik":13294,"Ġyatra":13295,"limit":13296,"ðŁ¤¢":13297,"ĠJAN":13298,"Ġbaten":13299,"Ġbandar":13300,"Ġquickly":13301,"Bat":13302,"kph":13303,"Ġcro":13304,"Ġrin":13305,"versi":13306,"Ġuma":13307,"aapka":13308,"Ġbtc":13309,"Ġregul":13310,"Ġpercentage":13311,"Ġanur":13312,"Ġmach":13313,"ĠKan":13314,"Ġoutfit":13315,"lfare":13316,"Ġrahu":13317,"Ġmanifest":13318,"Ġpesh":13319,"Ġrevenue":13320,"Ġaside":13321,"hero":13322,"ĠVir":13323,"ĠVideo":13324,"Ġhatho":13325,"ĠChalo":13326,"Ġemotionally":13327,"eu":13328,"tians":13329,"Ġdebt":13330,"oman":13331,"Ġic":13332,"Ġparent":13333,"Ġaapane":13334,"ĠPay":13335,"Ġkhu":13336,"Indian":13337,"Ġexperienced":13338,"Ġpallavi":13339,"Ġphi":13340,"Ġwil":13341,"tember":13342,"ĠBabar":13343,"Ġ05":13344,"Ġdurr":13345,"ternational":13346,"ILL":13347,"ĠMonday":13348,"ĠFriday":13349,"sharma":13350,"Ġpahli":13351,"Ġassignments":13352,"Ġcorporate":13353,"¦ðŁĩ":13354,"Ġbaaz":13355,"ably":13356,"ĠNIS":13357,"bage":13358,"Ġopened":13359,"Ġdhire":13360,"Ġawareness":13361,"41":13362,"FT":13363,"again":13364,"bata":13365,"tad":13366,"Ġrehi":13367,"Ġ58":13368,"âľĬ":13369,"Ġbhook":13370,"Ġcommitted":13371,"Ġtheka":13372,"Ġsear":13373,"eda":13374,"Ġsubsid":13375,"Ġawk":13376,"ĠKahan":13377,"Ġgujrat":13378,"Ġakhtar":13379,"Ġtadap":13380,"ĠChristian":13381,"Phone":13382,"wese":13383,"Ġbund":13384,"cker":13385,"Ġtae":13386,"cessarily":13387,"Ġempty":13388,"Ġcinemas":13389,"Ġfeminist":13390,"Ġshikayat":13391,".ðŁĺĤ":13392,"Did":13393,"Ġreet":13394,"aging":13395,"ĠðŁ¤¦âĢįâĻĢï¸ı":13396,"Ġchutia":13397,"inn":13398,"Ġiit":13399,"Ġdaan":13400,"Ġsamajhne":13401,"Ġsamjhao":13402,"Ġbachega":13403,"whats":13404,"Ġslight":13405,"oty":13406,"opy":13407,"ĠTony":13408,"ðŁĺ±ðŁĺ±":13409,"Ac":13410,"Il":13411,"Sb":13412,"ĠSath":13413,"Ġaditya":13414,"Ġowners":13415,"Ġfandoms":13416,"Ġegg":13417,"Ġbhim":13418,"Ġparr":13419,"Ġparle":13420,"peh":13421,"ĠDont":13422,"ĠSec":13423,"ĠALLAH":13424,"Ġsadiq":13425,"Ġlanka":13426,"Ġnurs":13427,"Ġkarnataka":13428,"media":13429,"ĠSushant":13430,"ĠDid":13431,"Ġ3000":13432,"ĠLahore":13433,"Ġvahan":13434,"ATA":13435,"Ġvirtual":13436,"Ġtya":13437,"Ġjen":13438,"Ġkhola":13439,"Ġbhoo":13440,"ðŁĺĤðŁĺĤðŁĺĤðŁĺĤðŁĺĤðŁĺĤðŁĺĤðŁĺĤ":13441,"Ġrg":13442,"Ġnahii":13443,"Ġusers":13444,"Ġdisci":13445,"ufact":13446,"Ġdhandha":13447,"atani":13448,"Ġbahat":13449,"Ġandroid":13450,"Ġpaaji":13451,"ĠHua":13452,"ĠGURU":13453,"plus":13454,"Ġsamjhta":13455,"ĠONE":13456,"video":13457,"alam":13458,"Ġdiamond":13459,"Ġthroughout":13460,"Ġholidays":13461,"Ġsuspended":13462,"Up":13463,"Ġhill":13464,"ĠState":13465,"Ġemployment":13466,"Ġgazab":13467,"election":13468,"Ġbiden":13469,"Ġbawal":13470,"Ġofc":13471,"ĠSHO":13472,"ĠDus":13473,"Ġspell":13474,"Ġdignity":13475,"lakh":13476,"Ġpmo":13477,"Ġkio":13478,"Ġmily":13479,"ĠJal":13480,"Ġpatta":13481,"Ġbajaye":13482,"Ġlimelight":13483,"Ġunable":13484,"ĠSaare":13485,"Ġpitaji":13486,"Ġhazaro":13487,"Ġawkward":13488,"ðŁ¤«":13489,"Ġtimepass":13490,"Ġsalon":13491,"Ġseni":13492,"kers":13493,"Ġzr":13494,"ĠWarna":13495,"Ġsecure":13496,"ĠTeam":13497,"Ġopportunities":13498,"Ġorganic":13499,"ĠWala":13500,"Ġdair":13501,"Ġtrap":13502,"Ġwindow":13503,"Ġbachay":13504,"Ġuthao":13505,"ĠRawat":13506,"Ġhatya":13507,"Behen":13508,"vest":13509,"ªĶ":13510,"Ġtoe":13511,"ĠðŁĴ©":13512,"tumne":13513,"zealand":13514,"Ġhanuman":13515,"Ġhimanshi":13516,"ĠCO":13517,"Ġkitno":13518,"Ġclar":13519,"Ġbulao":13520,"Inko":13521,"Ġdhona":13522,"Ġassump":13523,"Ġimagination":13524,"Ġakar":13525,"Ġdoosri":13526,"ðŁ¤¡ðŁ¤¡":13527,"Kk":13528,"Ġlagati":13529,"Ġjiye":13530,"Ġthok":13531,"ĠWar":13532,"aire":13533,"Ġrhea":13534,"ĠFrom":13535,"Ġmehnga":13536,"Ġgenocide":13537,"ell":13538,"yers":13539,"Ġbunch":13540,"Ġfare":13541,"Ġanus":13542,"Ġgreater":13543,"Ġnationalist":13544,"Ġcolours":13545,"Ġremembered":13546,"Ġpharma":13547,"ench":13548,"Ġbeard":13549,"ĠPre":13550,"Ġqual":13551,"ĠJA":13552,"Ġ800":13553,"Ġthankful":13554,"Ġ302":13555,"como":13556,"Ġdivine":13557,"Ġgenius":13558,"Ġvamp":13559,"ĠTam":13560,"Ġatankwadi":13561,"ĠDes":13562,"Ġquotes":13563,"ĠOm":13564,"rangi":13565,"Ġarguments":13566,"Ġfeminism":13567,"naa":13568,"ĠNet":13569,"Ġlade":13570,"eshawar":13571,"Ġretur":13572,"Ġcheezein":13573,"Ġfate":13574,"omi":13575,"ĠHOTA":13576,"plan":13577,"Ġexclusive":13578,"GI":13579,"Ġkhai":13580,"Ġrkhe":13581,"Ġjute":13582,"Ġtaq":13583,"Ġbeef":13584,"Ġemojis":13585,"Ġwheel":13586,"jd":13587,"Ġnations":13588,"Ġbaant":13589,"Ġvent":13590,"Ġwoo":13591,"Ġkhujli":13592,"Ġpanchayat":13593,"Ġheroes":13594,"Ġchallen":13595,"Ġcommunication":13596,"vad":13597,"Ġleli":13598,"ĠAgr":13599,"ĠPaisa":13600,"Ġexception":13601,"Ġatya":13602,"ĠJaye":13603,"Ġtoota":13604,"ĠðŁİĦ":13605,"Ġprosper":13606,"Whi":13607,"bish":13608,"Ġkaushal":13609,"âĿĮ":13610,"Ġpersons":13611,"Ġcolony":13612,"ĠðŁĺĤðŁĺĤðŁĺĤðŁĺĤðŁĺĤðŁĺĤ":13613,"Ġgenre":13614,"Ġusmein":13615,"potism":13616,"Ġinstigate":13617,"Ġchudail":13618,"tou":13619,"Ġkuda":13620,"Ġanak":13621,"Ġdeed":13622,"geous":13623,"ĠðŁĺ¾":13624,"ĠTA":13625,"Ġsirji":13626,"wohi":13627,"Ġsaccha":13628,"ĠASIM":13629,"Ġmanipulate":13630,"ºðŁĩ":13631,"few":13632,"Ġsamasya":13633,"Ġprotocol":13634,"congrats":13635,"papa":13636,"ĠMLA":13637,"waha":13638,"ansh":13639,"Ġvive":13640,"Ġkhelti":13641,"ictionary":13642,"Ġtroops":13643,"Best":13644,"iski":13645,"yaa":13646,"Ġjar":13647,"ĠWest":13648,"Ġ53":13649,"Ġaffected":13650,"Ġaadhar":13651,"Ġfeedback":13652,"lucky":13653,"God":13654,"honi":13655,"week":13656,"âŃĲ":13657,"Ġbahadur":13658,"Ġuses":13659,"Ġcompens":13660,"Ġblm":13661,"Ġcapacity":13662,"Ġkhushiyan":13663,"Ġfools":13664,"mand":13665,"ðŁĺŁ":13666,"apki":13667,"chahe":13668,"Ġbuzz":13669,"Ġvisited":13670,"iiii":13671,"Ġportfolio":13672,"Ġeventually":13673,"Ġcorrection":13674,"uncle":13675,"Ġchaal":13676,"Ġshaq":13677,"Ġmaker":13678,"adeshi":13679,"Ġknock":13680,"Ġmurdered":13681,"((":13682,"JA":13683,"Ġfro":13684,"Ġmaalik":13685,"Ġadhik":13686,"ĠUtt":13687,"Ġdarpok":13688,"Ġpatch":13689,"Ġajaye":13690,"Ġcoward":13691,"Ġprovided":13692,"Ġdaaru":13693,"Ġzuban":13694,"Our":13695,"fill":13696,"Ġanokhi":13697,"Ġpeda":13698,"Ġpelo":13699,"Ġbhaiyya":13700,"Ġdaali":13701,"Ġdhoop":13702,"Ġmazaa":13703,"Ġmirac":13704,"stay":13705,"Ġkund":13706,"Ġphn":13707,"andi":13708,"Ġjahaan":13709,"Ġwelfare":13710,"ĠDhan":13711,"Ġjany":13712,"adav":13713,"Ġbnate":13714,"ĠBaad":13715,"ĠðŁ¤ĶðŁ¤Ķ":13716,"Ġmst":13717,"almaan":13718,"Ġnad":13719,"Ġeligi":13720,"mei":13721,"Ġordin":13722,"them":13723,"ĠUska":13724,"ribed":13725,"ĠBigg":13726,"ĠKabir":13727,"Ġdeewana":13728,"Ġshayed":13729,"ogni":13730,"Ġchecking":13731,"Ġpleasure":13732,"gya":13733,"lg":13734,"ismat":13735,"Ġacts":13736,"verty":13737,"ĠSy":13738,"ðŁ¤Ł":13739,"Ġpataa":13740,"Ġismein":13741,"Ġflipkart":13742,"DE":13743,"Ġhugs":13744,"Ġorr":13745,"Ġkartik":13746,"Ġdivision":13747,"Ġintellectual":13748,"nesday":13749,"Ġtheme":13750,"olo":13751,"Ġrocket":13752,"Ġtarf":13753,"Ġjanne":13754,"Ġshiksha":13755,"Ġsacchi":13756,"ðŁĺŃðŁĺŃðŁĺŃðŁĺŃðŁĺŃ":13757,"Ġinstru":13758,"Ġrecruit":13759,"ĠNISHANT":13760,"Ġjk":13761,"Ġsota":13762,"pse":13763,"hoos":13764,"ĠAmit":13765,"ĠSame":13766,"rites":13767,"ðŁĴĻðŁĴĻ":13768,"Ġmotor":13769,"ĠWhatsApp":13770,"outube":13771,"ĠðŁĴĥ":13772,"ria":13773,"ĠMila":13774,"Ġsunti":13775,"Ġolder":13776,"Ġcutting":13777,"ĠðŁĺľðŁĺľðŁĺľ":13778,"Ġnicha":13779,"Ġfazool":13780,"Any":13781,"pon":13782,"Ġforgive":13783,"Ġperfectly":13784,"Ġarrogant":13785,"hame":13786,"olute":13787,"nder":13788,"Ġbatayenge":13789,"Ġesp":13790,"Ġgey":13791,"Ġpunch":13792,"ðŁ¤¦ðŁ¤¦":13793,"Temp":13794,"Really":13795,"Ġorganization":13796,"Ġislye":13797,"Ġtomar":13798,"Ġdesai":13799,"Ġbueno":13800,"Ġpunya":13801,"ĠðŁĻĦðŁĻĦðŁĻĦ":13802,"Ġinitiative":13803,"ĠGuruji":13804,"chara":13805,"Ġsn":13806,"Ġrant":13807,"Ġinbox":13808,"amar":13809,"Ġnoise":13810,"Ġpreshan":13811,"Ġyojna":13812,"Ġjuly":13813,"Ġoverthinking":13814,"both":13815,"Ġattain":13816,"moon":13817,"Ġsalah":13818,"Ġfilhal":13819,"warna":13820,"rapher":13821,"Ġwarriors":13822,"Ġfayde":13823,"KK":13824,"ipl":13825,"inting":13826,"Ġlara":13827,"Ġlovers":13828,"Ġsabak":13829,"Ġalco":13830,"ĠFil":13831,"âľħ":13832,"Ġnormally":13833,"Nice":13834,"Ġrud":13835,"Ġgrey":13836,"Ġashram":13837,"Ġairtel":13838,"Ġinfin":13839,"Ġfixer":13840,"ĠKejriwal":13841,"Ġjindgi":13842,"sharam":13843,"ishi":13844,"Ġroute":13845,"yaad":13846,"Ġaspect":13847,"Ġchecked":13848,"Ġvedio":13849,"Ġchupke":13850,"Ġrula":13851,"ĠYahan":13852,"Ġsasural":13853,"ĠChinese":13854,"ĠGranth":13855,"Ġfish":13856,"Ġemi":13857,"Ġretail":13858,"ĠBUT":13859,"hatma":13860,"ulla":13861,"Ġ2012":13862,"Ġkuki":13863,"Ġeditor":13864,"Ġkeyboard":13865,"Ġjaiye":13866,"Ġreward":13867,"Ġrejected":13868,"Ġstrongly":13869,"ĠKuchh":13870,"Ġgrande":13871,"ĠðŁĺĢðŁĺĢðŁĺĢ":13872,"ĠSikhs":13873,"Ġakhri":13874,"Ġappointment":13875,"Ġaffairs":13876,"Ġts":13877,"Ġjad":13878,"Ġdonation":13879,"hism":13880,"ĠHoti":13881,"Waah":13882,"Ġnalayak":13883,"RY":13884,"Ġkher":13885,"Ġvyakti":13886,"Ġparcel":13887,"Ġalam":13888,"baaz":13889,"dullah":13890,"Ġimpression":13891,"Ġcommand":13892,"Ġartists":13893,"Ġcompliment":13894,"300":13895,"Ġdw":13896,"ĠFeel":13897,"Ġpasa":13898,"ĠItne":13899,"Ġattached":13900,"tick":13901,"ĠðŁĺ¼":13902,"ĠTH":13903,"Ġchalay":13904,"Ġbarometer":13905,"Ġswim":13906,"Ġsuraj":13907,"Ġmaarte":13908,"Ġopener":13909,"Ġprophet":13910,"Ġvicti":13911,"long":13912,"vic":13913,"apu":13914,"Ġbando":13915,"ddat":13916,"Ġpleas":13917,"Then":13918,"tes":13919,"aders":13920,"Ġeth":13921,"Ġboldo":13922,"Ġkissan":13923,"Ġcanadian":13924,"Ġdikhawa":13925,"Ġdarwa":13926,"ĠHindustan":13927,"Ġessa":13928,"«Ĥ":13929,"Ġmaulana":13930,"Ġbanenge":13931,"Ġheroine":13932,"Ġlaaya":13933,"Ġtopics":13934,"icient":13935,"ĠRoad":13936,"Ġrevenge":13937,"Ġgifted":13938,"Ġfreaking":13939,"86":13940,"jhe":13941,"Ġtn":13942,"Ġvisible":13943,"Ġcorridor":13944,"bsolute":13945,"Ġminded":13946,"ĠMaha":13947,"Ġcraft":13948,"Ġinspire":13949,"Ġfad":13950,"ðŁĺĤðŁĺŃ":13951,"Ġbhaiyon":13952,"Ġchalata":13953,"Ġmanaged":13954,"Ġformula":13955,"Ġquiz":13956,"Like":13957,"Pta":13958,"Ġraah":13959,"Ġjiss":13960,"Ġmonthly":13961,"Ġhans":13962,"srk":13963,"Ġmoves":13964,"Ġlagay":13965,"Ġspiderman":13966,"Ġapparently":13967,"Ġoverconf":13968,"2014":13969,"Ġcasa":13970,"Ġbehas":13971,"Ġcameo":13972,"ĠThoda":13973,"Ġpubl":13974,"Ġsali":13975,"Ġral":13976,"Ġsav":13977,"Ġia":13978,"Ġich":13979,"ĠBT":13980,"Ġfaye":13981,"shu":13982,"Ġudh":13983,"Ġedge":13984,"Ġtmhari":13985,"Ġajao":13986,"dude":13987,"Ġwht":13988,"Ġjesy":13989,"Ġbewafa":13990,"Ġ---":13991,"Ġincredible":13992,"Ġdemotivate":13993,"Ġvishwanath":13994,"Ġsecretary":13995,"Plz":13996,"79":13997,"krit":13998,"idhi":13999,"Ġuno":14000,"Ġtem":14001,"Ġmanu":14002,"Ġdawood":14003,"govt":14004,"ĠSafe":14005,"Ġbombay":14006,"Ġinspiring":14007,"Ġsuperior":14008,"Ġrow":14009,"Ġrhy":14010,"Ġrhenge":14011,"ĠSadiq":14012,"isture":14013,"Ġkamar":14014,"Ġscale":14015,"ĠInter":14016,"Ġatay":14017,"Ġexperiment":14018,"ĠNext":14019,"Ġpcb":14020,"isiliye":14021,"ulder":14022,"Ġpaane":14023,"Ġatm":14024,"Ġmanufact":14025,"Ġbhaav":14026,"ouse":14027,"Ġwinners":14028,"mature":14029,"Ġbakri":14030,"icious":14031,"Ġcheezo":14032,"ðŁĴ¯ðŁĴ¯":14033,"Ġtelevision":14034,"ial":14035,"Ġfiction":14036,"vedan":14037,"Ġuthaye":14038,"Ġtambi":14039,"Ġvaran":14040,"janta":14041,"Ġhazaar":14042,"Ġcn":14043,"Ġmanana":14044,"Ġupto":14045,"Ġsunni":14046,"ĠVel":14047,"Ġbcs":14048,"Ġmerry":14049,"Ġdemon":14050,"Ġntpc":14051,"sibly":14052,"want":14053,"arnak":14054,"Ġlogin":14055,"Ġmaryam":14056,"soch":14057,"Ġcoins":14058,"Ġchahne":14059,"Ġmujse":14060,"Ġjinnah":14061,"Ġbadalte":14062,"Ġconvin":14063,"piece":14064,"Ġaagaye":14065,"khs":14066,"Ġfaaltu":14067,"Ġalpha":14068,"arif":14069,"ĠGe":14070,"Ġprec":14071,"Ġultimate":14072,"Apna":14073,"Ġcoverage":14074,"Ġpher":14075,"Ġdates":14076,"Ġwine":14077,"Ġmaanta":14078,"ĠðŁĮ¸":14079,"kram":14080,"Ġratna":14081,"Ġkolkata":14082,"Ġbounce":14083,"Ġexercise":14084,"bade":14085,"Ġpori":14086,"start":14087,"Ġhukum":14088,"ĠHim":14089,"lessly":14090,"HY":14091,"idity":14092,"race":14093,"ĠPan":14094,"Ġpoverty":14095,"Ġhighway":14096,"Ġahmad":14097,"ĠSRK":14098,"Chutiya":14099,"akki":14100,"ĠLive":14101,"Ġtypo":14102,"Ġbachaya":14103,"ðŁĺīðŁĺī":14104,"Modiji":14105,"ĠHEAR":14106,"Ġshubh":14107,"Ġcoincidence":14108,"Ġhalloween":14109,"Ġitny":14110,"Ġqat":14111,"Ġstruggling":14112,"Ġalex":14113,"Ġdot":14114,"Ġkilo":14115,"Ġtabse":14116,"Ġrecogni":14117,"Ġlargest":14118,"Ġreminder":14119,"ðŁĺ¼":14120,"Ġinlogo":14121,"Ġkabil":14122,"Ġbanakar":14123,"Ġmilay":14124,"Ġdekhunga":14125,"Ġmeetha":14126,"Ġtargeted":14127,"Ġpretend":14128,"Ġkudh":14129,"Ġwafa":14130,"Ġnoida":14131,"Ġagy":14132,"Ġmanner":14133,"Ġkalam":14134,"Ġminor":14135,"Ġsword":14136,"Ġinvitation":14137,"Ġlux":14138,"Ġintrovert":14139,"Ġdrawing":14140,"Tm":14141,"ĠAzam":14142,"Ġkisiki":14143,"Ġadult":14144,"halle":14145,"Ġsamajhna":14146,"Ġvaale":14147,"Aapko":14148,"Ġencore":14149,"Ġub":14150,"Ġmd":14151,"henever":14152,"Ġlame":14153,"Ġrand":14154,"Ġhouses":14155,"Ġodd":14156,"Ġjaari":14157,"Ġbout":14158,"Ġvehicle":14159,"Ġsubsidy":14160,"Ġjhat":14161,"Ġgw":14162,"Ġmahin":14163,"Ġjakr":14164,"Ġneil":14165,"ĠAC":14166,"Ġultra":14167,"?)":14168,"bn":14169,"Ġdictionary":14170,"akshi":14171,"atein":14172,"ashn":14173,"vaise":14174,"Ġ2007":14175,"Shamita":14176,"Ġbonus":14177,"bul":14178,"tre":14179,"vance":14180,"Ġtong":14181,"Ġteek":14182,"Ġabused":14183,"Ġlaaye":14184,"Ġtumah":14185,"Ġhonor":14186,"Ġhadh":14187,"speed":14188,"Ġcertainly":14189,"Ke":14190,"Ġmargin":14191,"Ġbird":14192,"Ġjeans":14193,"Ġaagye":14194,"Ġdadhi":14195,"Ġjhanda":14196,"Ġnepotism":14197,"field":14198,"ĠðŁĳįðŁĳį":14199,"Omg":14200,"Ġdiscrimination":14201,"95":14202,"ĠSim":14203,"Ġmainu":14204,"ĠJane":14205,"Ġourselves":14206,"hhhh":14207,"Ġinterviews":14208,"Ġfeatures":14209,"ĠPresident":14210,"vah":14211,"Ġprakash":14212,"ĠHun":14213,"adache":14214,"Ġghareeb":14215,"Ġwifi":14216,"Ġcrimes":14217,"Ġserver":14218,"Ġlegacy":14219,"ĠMaybe":14220,"Ġpissed":14221,"mous":14222,"Ġhaj":14223,"Ġvad":14224,"Ġpaint":14225,"Ġcomplic":14226,"?!?!":14227,"Ġmajboori":14228,"Ġjhuk":14229,"Ġwra":14230,"oration":14231,"Ġchaka":14232,"Ġsurya":14233,"Ġwaqar":14234,"Ġwashroom":14235,"nas":14236,"part":14237,"Ġdk":14238,"udes":14239,"oken":14240,"cience":14241,"aiye":14242,"Ġdanga":14243,"Ġdiscussing":14244,"Next":14245,"years":14246,"Ġdosh":14247,"Ġwhoever":14248,"ĠOR":14249,"Ġsamjhna":14250,"Ġuthate":14251,"Ġpoocho":14252,"Ġrokne":14253,"Ġspinner":14254,"ĠTRP":14255,"Ġpatthar":14256,"law":14257,"ĠCOM":14258,"Ġprior":14259,"mins":14260,"Ġpeech":14261,"85":14262,"los":14263,"Ġbegging":14264,"Ġkkk":14265,"Ġsexual":14266,"Ġzarorat":14267,"Shi":14268,"Ġtyping":14269,"Ġruke":14270,"Ġ110":14271,"Ġsherni":14272,"Ġmbbs":14273,"suna":14274,"hail":14275,"Ġmim":14276,"Ġpaagal":14277,"Ġkhabri":14278,"Ġaasman":14279,"Ġcritical":14280,"Ġphysically":14281,"Ġsouls":14282,"Ġretired":14283,"Ġmaqsad":14284,"tees":14285,"Ġliar":14286,"hern":14287,"Ġtakat":14288,"Ġtrial":14289,"Ġcaso":14290,"Ġmethod":14291,"Ġturkey":14292,"Ġambassador":14293,"Ġchadh":14294,"ĠMorning":14295,"phemy":14296,"ĠCaptain":14297,"Ġguidance":14298,"oC":14299,"gaad":14300,"Ġlaz":14301,"Ġpao":14302,"ĠTer":14303,"ĠðŁĺĤâĿ¤":14304,"Ġpatna":14305,"Ġhansi":14306,"Ġsilly":14307,"Ġphd":14308,"Am":14309,"Ġkrain":14310,"ĠNight":14311,"Ġbanaa":14312,"hahah":14313,"Ġbestfriend":14314,"ðŁ¤¦ðŁı»âĢįâĻĤï¸ı":14315,"Ġanupama":14316,"Ga":14317,"Ġpity":14318,"lok":14319,"Ġflash":14320,"Ġslogan":14321,"Ġsons":14322,"ĠðŁ¤ĵ":14323,"Ġrakesh":14324,"Ġcommer":14325,"ĠðŁĮŁ":14326,"ĠBola":14327,"olitics":14328,"Ġing":14329,"Ġscored":14330,"Ġdekhen":14331,"Ġsamjhne":14332,"Ġaarha":14333,"Ġsignific":14334,"Ġphilosophy":14335,"inst":14336,"ĠSchool":14337,"Ġnovel":14338,"ĠðŁ¤®":14339,"Ġagaye":14340,"Ġtasveer":14341,"Ġsamjhaye":14342,"Ġgracias":14343,"Ġbhatt":14344,"ĠSALMAN":14345,"bling":14346,"screen":14347,"sgh":14348,"Ġbam":14349,"ĠPad":14350,"alize":14351,"ĠðŁ¤Ŀ":14352,"zaam":14353,"bring":14354,"Ġtmhara":14355,"Ġmystery":14356,"dhar":14357,"Ġfrance":14358,"Ġscary":14359,"Ġkhoya":14360,"Ġdisease":14361,"Ġappeasement":14362,"Ġnepal":14363,"ĠSur":14364,"ĠHU":14365,"ĠPand":14366,"ĠðŁ¥±":14367,"Ġminds":14368,"ĠxD":14369,"Ġadvis":14370,"Ġlabel":14371,"Ġtenu":14372,"Ġnash":14373,"omy":14374,"ĠSW":14375,"dekha":14376,"Ġ1971":14377,"Ġhearted":14378,"Ġtrolls":14379,"sale":14380,"Ġmauj":14381,"Ġdekhungi":14382,"ĠInko":14383,"Ġ62":14384,"Tumhare":14385,"Ġregistration":14386,"Ġpyaara":14387,"Ġvaranasi":14388,"fri":14389,"Ġ130":14390,"Ġmanti":14391,"Ġoffers":14392,"shallah":14393,"rithik":14394,"Ġdynam":14395,"Ġgaribo":14396,"Ġcontinuously":14397,"Ġpenalty":14398,"Yess":14399,"Ġbread":14400,"Ġleya":14401,"ĠBCCI":14402,"ĠThats":14403,"Ġbsdk":14404,"Ġbachana":14405,"ðŁİĦ":14406,"Ġambul":14407,"Ġswagat":14408,"Ġjindabad":14409,"Ġdet":14410,"Ġchats":14411,"Ġaapni":14412,"Ġkhatarnak":14413,"OUR":14414,"mare":14415,"hatever":14416,"Ġmh":14417,"ista":14418,"orical":14419,"Ġusay":14420,"stra":14421,"Ġhuay":14422,"nik":14423,"Ġpok":14424,"Ġ63":14425,"jaldi":14426,"Ġgorgeous":14427,"Ġelder":14428,",.,":14429,"Ġlax":14430,"ĠPura":14431,"Ġallot":14432,"hered":14433,"2019":14434,"ĠMovie":14435,"punjab":14436,"Ġpt":14437,"Ġlege":14438,"story":14439,"kahi":14440,"saala":14441,"ĠFace":14442,"Ġhyper":14443,"Ġ68":14444,"ARE":14445,"Ġforgotten":14446,"Ġmountain":14447,"bile":14448,"nis":14449,"hem":14450,"Ġkae":14451,"ashed":14452,"Ġspokes":14453,"orial":14454,"Ġgyani":14455,"ĠHamare":14456,"Ġconsidering":14457,"Ġankhon":14458,"cere":14459,"Ġsry":14460,"Ġwesy":14461,"Ġhia":14462,"pawali":14463,"Ġ73":14464,"Ġbhejne":14465,"Ġayodhya":14466,"Ġghulam":14467,"Ġlambe":14468,"Ġradd":14469,"Ġjesus":14470,"Ġproposal":14471,"done":14472,"Ġishan":14473,"Ġraaste":14474,"Ġpey":14475,"sty":14476,"ðŁ¤ĺ":14477,"Ġarha":14478,"ĠFriend":14479,"Ġsamajhta":14480,"Ġdaalna":14481,"Ġbehalf":14482,"ĠNeha":14483,"Ġsapno":14484,"Dont":14485,"Ġmong":14486,"Ġlya":14487,"Ġrevi":14488,"ako":14489,"ĠJag":14490,"Isme":14491,"Ġghumte":14492,"Ġtapi":14493,"Ġbichare":14494,"Ġmanzil":14495,"Apa":14496,"Easthampton":14497,"cp":14498,"Ġiin":14499,"ĠFree":14500,"craft":14501,"Ġtaiyari":14502,"Ġguilt":14503,"Lad":14504,"Ġaaise":14505,"Ġchara":14506,"Ġyakin":14507,"Ġbodies":14508,"manyu":14509,"Ġpakar":14510,"Ġhasna":14511,"Ġgenerally":14512,"ĠAkhilesh":14513,"Ġeliminate":14514,"ĠâĿĵ":14515,"Ġsalian":14516,"irl":14517,"Ġitaly":14518,"odo":14519,"Ġwajh":14520,"Ġdefensive":14521,"Ġswami":14522,"Ġbachcho":14523,"Ġbhejte":14524,"ĠðŁĺĳðŁĺĳ":14525,"Ġbid":14526,"Ġsain":14527,"meko":14528,"ĠMUJHE":14529,"ĠRadhe":14530,"Ġjanay":14531,"Ġcheezon":14532,"ĠGoa":14533,"ĠGeneral":14534,"Ġapril":14535,"rub":14536,"Ġeo":14537,"laude":14538,"ĠNZ":14539,"Ġhasn":14540,"Ġambedkar":14541,"Ġbuddha":14542,"Ġreduced":14543,"should":14544,"96":14545,"hg":14546,"uhan":14547,"voh":14548,"Ġmol":14549,"Ġhats":14550,"Ġsaad":14551,"Ġsabkuch":14552,"rik":14553,"ĠBc":14554,"ĠYahi":14555,"Ġshiddat":14556,"Ġsituations":14557,"subah":14558,"Acc":14559,"ĠBTS":14560,"ounter":14561,"ajid":14562,"Ġpaka":14563,"Ġamrit":14564,"Ġkatne":14565,"Ġchatroom":14566,"Ġtayar":14567,"PS":14568,"Sp":14569,"ĠShar":14570,"Ġquant":14571,"ĠWale":14572,"Ġclos":14573,"ðŁİĪ":14574,"mummy":14575,"Ġsue":14576,"Ġcsk":14577,"Ġanime":14578,"Ġvk":14579,"ĠBl":14580,"Ġbashed":14581,"hamara":14582,"Ġdaalne":14583,"Ġmastermind":14584,"ĠCorona":14585,"Ġkaali":14586,"ĠAy":14587,"ĠSuper":14588,"kahan":14589,"machal":14590,"Ġpathar":14591,"Ġbachy":14592,"Ġserved":14593,"imp":14594,"teju":14595,"Ġorang":14596,"Ġhamse":14597,"Ġdrunk":14598,"Ġphod":14599,"Ġinvited":14600,"Ġbelieves":14601,"????????":14602,"onaldo":14603,"ĠAhmed":14604,"Achha":14605,"Ġpune":14606,"hard":14607,"cts":14608,"ĠJO":14609,"Ġwatan":14610,"Ġmasters":14611,"Ġaagey":14612,"ĠðŁĺįâĿ¤":14613,"Ġuniform":14614,"Ġintoler":14615,"pure":14616,"zadi":14617,"itam":14618,"ĠðŁĺ®":14619,"Ġorange":14620,"Ġrandi":14621,"Ġiqbal":14622,"ĠðŁĴĶðŁĴĶ":14623,"Ġunpe":14624,"ĠBaap":14625,"Ġrose":14626,"hyung":14627,"ĠVe":14628,"Ġpaidal":14629,"Ġinfront":14630,"Ġaakhri":14631,"Ġsachme":14632,"Ġâŀ¡":14633,"Ġauthor":14634,"Ġvictims":14635,"Ġkp":14636,"Ġtank":14637,"ances":14638,"Ġsaga":14639,"Ġjaakar":14640,"Ġshoulder":14641,"Ġmanhoos":14642,"paisa":14643,"Ġsbka":14644,"Ġregards":14645,"ĠâľĶ":14646,"jisko":14647,"GO":14648,"rakhi":14649,"yup":14650,"Ġdedi":14651,"Ġzameer":14652,"Ġdilo":14653,"Ġmars":14654,"ĠYadav":14655,"Ġ66":14656,"Ġmaano":14657,"These":14658,"Ġquestioning":14659,"Ġuthna":14660,"87":14661,"lal":14662,"path":14663,"Ġjug":14664,"Ġsood":14665,"ĠStay":14666,"Ġnivedan":14667,"tumko":14668,"Ġmalini":14669,"Ġtranslate":14670,"bharath":14671,"Fake":14672,"phle":14673,"Ġmeta":14674,"Ġbaath":14675,"hentic":14676,"Ġpromises":14677,"Ġsadly":14678,"Ġuthake":14679,"ðŁĶ¥ðŁĶ¥ðŁĶ¥ðŁĶ¥":14680,"Ġtreasure":14681,"girls":14682,"iterate":14683,"Ġverify":14684,"Ġkadi":14685,"ĠPublic":14686,"ĠChutiya":14687,"ĠGang":14688,"Ġkhudka":14689,"Ġtrave":14690,"Ġmudi":14691,"Ġmulla":14692,"Ġnewspaper":14693,"Ġpartition":14694,"Ġilzam":14695,"won":14696,"Ġtc":14697,"Ġfis":14698,"utation":14699,"Ġchahiya":14700,"Ġfirm":14701,"Ġbhajan":14702,"Ġjanch":14703,"Ġ101":14704,"Ġgrab":14705,"Ġenemies":14706,"Ġmuskura":14707,"bet":14708,"gic":14709,"Ġrkhi":14710,"ayen":14711,"apka":14712,"Ġshake":14713,"ounce":14714,"Ġgross":14715,"Ġattacked":14716,"Ġkushi":14717,"uture":14718,"ĠTHAT":14719,"bert":14720,"Ġrakhenge":14721,"Ġscholarship":14722,"Ġcigarette":14723,"fo":14724,"Ġkul":14725,"sea":14726,"Ġkhudki":14727,"Ġchodke":14728,"ussian":14729,"Hope":14730,"nya":14731,"hej":14732,"Ġkase":14733,"Ġhike":14734,"ido":14735,"Ġcaused":14736,"Ġtareeka":14737,"Ġaarahi":14738,"Ġphas":14739,"Ġinta":14740,"Ġkriye":14741,"osti":14742,"agues":14743,"human":14744,"Ġsamjhi":14745,"Ġhonesty":14746,"Life":14747,"Ġpsychology":14748,"93":14749,"Ġgini":14750,"Ġnakh":14751,"Ġsache":14752,"Ġbazar":14753,"Ġpaal":14754,"ðŁĴĿ":14755,"aniel":14756,"Ġpublicly":14757,"Ġnokri":14758,"cloudy":14759,"''":14760,"lot":14761,"pand":14762,"Ġeg":14763,"Ġapky":14764,"Ġprabhas":14765,"rer":14766,"ĠWah":14767,"Ġsharab":14768,"letes":14769,"Ġpowers":14770,"Ġincompet":14771,"ĠSHOW":14772,"II":14773,"KO":14774,"Ġsais":14775,"Ġkarm":14776,"Ġmedi":14777,"ppers":14778,"Ġregistered":14779,"Ġrelevant":14780,"Ġsmoke":14781,"harmi":14782,"ĠMalik":14783,"ishya":14784,"Ġkaunse":14785,"Ġhaddi":14786,"akhpur":14787,"Ġkamaya":14788,"Ġhosakta":14789,"Ġprimary":14790,"vor":14791,"Ġwade":14792,"Ġabusive":14793,"Ġlah":14794,"ĠBS":14795,"ĠLuck":14796,"Ġcheers":14797,"shine":14798,"cchai":14799,"Ġmanao":14800,"Ġssc":14801,"Ġlearnt":14802,"Ġbrainless":14803,"Jee":14804,"Ġlund":14805,"apan":14806,
[...]
